<unk>	0
<s>	0
</s>	0
▁እ	-0
▁ኣ	-1
▁።	-2
▁ን	-3
▁ብ	-4
▁መ	-5
▁፡	-6
▁ኣብ	-7
▁ም	-8
▁:	-9
▁ዝ	-10
▁ነ	-11
▁እዩ	-12
▁ከ	-13
▁ዘ	-14
▁ሓ	-15
▁የ	-16
▁ክ	-17
▁ዚ	-18
▁፧	-19
▁ተ	-20
▁እን	-21
▁ስ	-22
▁1	-23
▁ሰ	-24
▁ኢ	-25
▁ይ	-26
ታት	-27
▁ና	-28
▁ከም	-29
▁ግ	-30
ሆዋ	-31
▁ኸ	-32
ውን	-33
ምላ	-34
ምላኽ	-35
▁እቲ	-36
▁ድ	-37
▁እዚ	-38
▁የሆዋ	-39
ታይ	-40
▁ዓ	-41
ነት	-42
▁ካ	-43
▁ኣምላኽ	-44
▁ወ	-45
▁”	-46
▁“	-47
ቶም	-48
▁ምስ	-49
▁ኪ	-50
▁2	-51
▁ገ	-52
ኽእ	-53
▁ቅ	-54
▁ናይ	-55
ዮም	-56
▁ት	-57
▁እንታይ	-58
በረ	-59
▁ስለ	-60
▁እተ	-61
▁ፍ	-62
ኽእል	-63
▁ኽ	-64
▁ሕ	-65
▁ካብ	-66
▁—	-67
▁ነቲ	-68
▁መጽ	-69
ምን	-70
▁ዜ	-71
ባት	-72
▁በ	-73
▁.	-74
▁ቅዱ	-75
ገል	-76
ሓፍ	-77
መይ	-78
▁መን	-79
▁ዝነ	-80
ርስ	-81
▁ደ	-82
ትን	-83
▁-	-84
▁እንተ	-85
▁ነይ	-86
▁ቅዱስ	-87
▁እዮም	-88
▁ኣይ	-89
▁ኢዩ	-90
ሱስ	-91
▁መጽሓፍ	-92
ዕባ	-93
▁ዘይ	-94
▁ህ	-95
▁ጥ	-96
▁፣	-97
▁የሱስ	-98
▁ኸም	-99
▁ብዛ	-100
▁ብዛዕባ	-101
ገብ	-102
▁ዘለ	-103
▁እውን	-104
▁ድማ	-105
▁ሃ	-106
▁ማ	-107
▁ጽ	-108
▁ጸ	-109
▁ዘሎ	-110
▁ክርስ	-111
▁ናብ	-112
▁ብም	-113
▁ሰባት	-114
▁3	-115
▁ኺ	-116
▁ክን	-117
▁ሓደ	-118
ያን	-119
ዀነ	-120
▁ብኸ	-121
▁ብኸመይ	-122
▁ር	-123
▁ሰብ	-124
▁ዕ	-125
በር	-126
ራት	-127
▁ኢና	-128
▁ነገ	-129
▁,	-130
ሎም	-131
▁ው	-132
▁)	-133
▁(	-134
▁ንም	-135
ዎም	-136
▁ል	-137
▁ንኣ	-138
▁ነይሩ	-139
▁ክርስት	-140
ኸውን	-141
▁ፈ	-142
▁ቤ	-143
ያት	-144
▁ግዜ	-145
▁እም	-146
ሮም	-147
▁ባ	-148
▁ኻ	-149
▁ወይ	-150
▁ኣሎ	-151
ህር	-152
ይወ	-153
▁ግን	-154
ናት	-155
ታዊ	-156
▁ብዙ	-157
▁ኰ	-158
▁እቶም	-159
▁4	-160
ኦም	-161
ንቲ	-162
▁ዝነበረ	-163
▁እት	-164
▁ዓመ	-165
▁ኸኣ	-166
ፈል	-167
▁መሰ	-168
ለም	-169
ምንታይ	-170
ውያን	-171
ግባ	-172
▁ህይወ	-173
▁ኣለ	-174
▁’	-175
▁‘	-176
በሩ	-177
▁ዝዀነ	-178
ትና	-179
▁ምዃ	-180
ርከ	-181
▁ቀ	-182
▁ነበረ	-183
ዋን	-184
ብል	-185
መር	-186
▁ስለምንታይ	-187
▁ኵ	-188
▁ኽን	-189
ልእ	-190
▁ኻብ	-191
▁ሓቂ	-192
▁ከኣ	-193
▁ኣብቲ	-194
መን	-195
ዓል	-196
▁ንየ	-197
ርእ	-198
ገብር	-199
▁ክርስትያ	-200
ለት	-201
ግስ	-202
▁ይኽእል	-203
▁ኣን	-204
ሓት	-205
▁መገ	-206
ይኑ	-207
▁ነዚ	-208
ገልግ	-209
ምር	-210
▁እዋን	-211
▁5	-212
▁ተመ	-213
ኽን	-214
ርከብ	-215
ክብ	-216
ምህር	-217
▁መንፈ	-218
▁ለ	-219
▁ድሕ	-220
ልኦ	-221
ራይ	-222
▁እያ	-223
▁ዘለዎ	-224
▁ንየሆዋ	-225
▁እየ	-226
ላት	-227
ሳዕ	-228
▁ቤት	-229
▁6	-230
ብር	-231
▁ከምኡ	-232
▁ግና	-233
▁ምድ	-234
▁እኳ	-235
ልና	-236
▁ኬ	-237
ሙር	-238
▁ዓለም	-239
▁ብሓ	-240
ቶስ	-241
00	-242
ኻኽ	-243
▁19	-244
▁ክት	-245
ዀኑ	-246
ረት	-247
▁ብዙሕ	-248
▁ነገራት	-249
▁ሞ	-250
▁መንግስ	-251
ኰነ	-252
▁ዅ	-253
ኤል	-254
▁ዝበ	-255
ሎስ	-256
▁ዓመት	-257
ናን	-258
ኹን	-259
ነታት	-260
ሕግ	-261
▁ፍቕ	-262
▁ገሊ	-263
▁እስ	-264
ልኦት	-265
▁ኣገ	-266
▁መገዲ	-267
ዊት	-268
▁ምዃኑ	-269
▁ከምዚ	-270
ኣት	-271
▁ይኹን	-272
▁ቃ	-273
▁መሰኻኽ	-274
▁ነቶም	-275
▁ድሕሪ	-276
▁መሰኻኽር	-277
ምል	-278
▁ምእ	-279
▁ኣዝ	-280
ተን	-281
▁ዮ	-282
▁ነገር	-283
▁ዳ	-284
ይን	-285
ርያ	-286
▁ክርስትያናት	-287
ርዓ	-288
ድራ	-289
▁ትምህር	-290
▁ስለዚ	-291
▁ዀ	-292
በሮ	-293
▁መዝ	-294
▁ንሓ	-295
ዕሊ	-296
▁እታ	-297
ረኣ	-298
▁ሽ	-299
ሉእ	-300
▁ጥራይ	-301
ቦም	-302
▁ጳ	-303
▁10	-304
ዳእ	-305
▁ከሎ	-306
▁ዝገ	-307
▁11	-308
▁7	-309
ፈልጥ	-310
▁ርእ	-311
▁ህይወት	-312
ንቀ	-313
ውሎስ	-314
ሰብ	-315
▁ህዝ	-316
ጣን	-317
▁ዝሓ	-318
ድል	-319
▁ገይ	-320
▁!	-321
▁12	-322
ሎት	-323
በይ	-324
▁ስም	-325
ርን	-326
▁ብዘ	-327
▁ጕ	-328
▁ጀ	-329
መሰ	-330
▁ጳውሎስ	-331
ሳዊ	-332
▁8	-333
ናይ	-334
▁—⁠	-335
ባኤ	-336
ጉባኤ	-337
ርኢ	-338
▁እሞ	-339
▁ዝኣ	-340
▁ኣገዳ	-341
▁መንግስቲ	-342
▁ጽሑ	-343
▁ዝነበሩ	-344
ስፋ	-345
▁ሚ	-346
▁ግብ	-347
▁መስ	-348
▁ዘሎና	-349
▁፦	-350
ድሚ	-351
ባብ	-352
▁ጉባኤ	-353
▁13	-354
ብብ	-355
ያስ	-356
▁መዓል	-357
▁ኤ	-358
▁9	-359
▁ሳ	-360
▁ረ	-361
ግባር	-362
▁ሃዋ	-363
▁ኢዮም	-364
▁•	-365
ላለ	-366
▁14	-367
▁ምእንቲ	-368
▁15	-369
▁ምን	-370
▁ኽት	-371
▁እዚኣ	-372
▁ገጽ	-373
ረኽ	-374
▁ኣብዚ	-375
▁:⁠	-376
▁ንእ	-377
▁ኢሉ	-378
▁ዝመ	-379
▁ምድሪ	-380
ኖም	-381
▁ንኽ	-382
▁ስርዓ	-383
▁ስድራ	-384
ቡቕ	-385
▁ክርስቶስ	-386
▁ቈ	-387
▁እምነት	-388
ዎስ	-389
ማት	-390
▁ንኽእል	-391
▁ኣገዳሲ	-392
▁እምበር	-393
ታትን	-394
ገልጽ	-395
▁ድዩ	-396
▁ብዙሓት	-397
ሃን	-398
▁ማለት	-399
▁ቐ	-400
▁ሀ	-401
ዞም	-402
ኣይ	-403
▁ንኣምላኽ	-404
▁ሎ	-405
▁ኣጋ	-406
▁መብ	-407
▁ኪኸውን	-408
▁ንኺ	-409
▁ኰይኑ	-410
▁20	-411
▁ከመይ	-412
▁ገለ	-413
ቴዎስ	-414
▁ሓድ	-415
▁ንስ	-416
ህል	-417
ተይ	-418
▁ሓሳ	-419
▁ቦ	-420
▁ሕቶ	-421
ራሕ	-422
▁መዝሙር	-423
▁ዓይ	-424
ሃል	-425
ርካ	-426
▁ኣቦ	-427
▁ተጠ	-428
መስ	-429
▁ጽቡቕ	-430
▁ትምህርቲ	-431
▁ወለ	-432
▁ኣዝዩ	-433
ስተ	-434
ደል	-435
▁ፍቕሪ	-436
▁ኣንብብ	-437
ጋጥ	-438
▁ምኽን	-439
ጥቀ	-440
▁ኣገልግ	-441
ባል	-442
ናዕ	-443
▁ተስፋ	-444
ማኖ	-445
▁በለ	-446
▁ዝበለ	-447
▁ኵሉ	-448
ማይ	-449
ስን	-450
▁ፍል	-451
ይማኖ	-452
▁ኣሕ	-453
▁ብስ	-454
▁ሕጂ	-455
▁ዚኽእል	-456
ጽእ	-457
▁ብተ	-458
▁ኢኻ	-459
▁ዓይነት	-460
▁ክርስትያን	-461
▁ዚርከብ	-462
▁ኣለዎ	-463
▁ኣሎና	-464
ጕም	-465
▁ከምኡውን	-466
▁ኣመ	-467
ኩም	-468
ንን	-469
ብዪ	-470
▁ቦታ	-471
▁እና	-472
ርና	-473
▁ሎሚ	-474
▁ተኣ	-475
ኽእሉ	-476
▁ጽሑፋ	-477
ስዕ	-478
▁ኼ	-479
▁መወ	-480
ሳሌ	-481
ደይ	-482
▁]	-483
▁ንሰ	-484
▁[	-485
▁ዕዮ	-486
▁እስራ	-487
ልክ	-488
ራዊ	-489
▁ሃገ	-490
▁ክሳዕ	-491
ዛረ	-492
ቓል	-493
▁ሃይማኖ	-494
ሰር	-495
ያዳ	-496
▁ንመ	-497
▁ዝኣመሰ	-498
▁17	-499
▁16	-500
ብነት	-501
ረክብ	-502
▁ዘለዎም	-503
ዳእታ	-504
▁ኣብነት	-505
▁በቲ	-506
ናዊ	-507
▁ካልእ	-508
▁ካብቲ	-509
ዳይ	-510
▁ርክብ	-511
ሕት	-512
▁ተቐ	-513
▁ኣገል	-514
▁ንኣብነት	-515
▁ሮ	-516
▁ቅድሚ	-517
▁መወዳእታ	-518
ትታት	-519
▁ቃል	-520
▁ጸገ	-521
ረኣእ	-522
▁18	-523
ዓት	-524
ረን	-525
▁መንፈሳዊ	-526
ላማ	-527
ኼባ	-528
▁ባህር	-529
▁ብዘይ	-530
▁በዚ	-531
▁ነይሮም	-532
ተሓ	-533
ኽቲ	-534
▁ጠ	-535
ቱን	-536
▁እወ	-537
▁እሙ	-538
▁ኣኼባ	-539
▁ቕ	-540
ማን	-541
▁ነበሩ	-542
▁ጌ	-543
▁ልዕሊ	-544
▁ኣረኣእ	-545
በል	-546
▁ህዝቢ	-547
ማዕ	-548
ኰነን	-549
▁ምር	-550
▁ዅሉ	-551
▁ሓያ	-552
▁ዀይኑ	-553
ዛሕት	-554
▁ብሓቂ	-555
ባር	-556
ሰም	-557
ዶም	-558
▁ብዝ	-559
▁ንደ	-560
ይጣን	-561
19	-562
ሉን	-563
ላይ	-564
▁ኣብታ	-565
ሕግዘ	-566
▁ምሉእ	-567
▁ትን	-568
▁ዝኣመሰለ	-569
ሞም	-570
ሃር	-571
▁ኣየ	-572
▁እንኽእል	-573
ጐስ	-574
ርአ	-575
ልተ	-576
▁መብዛሕት	-577
▁ሕማ	-578
ብሩ	-579
▁ንኸ	-580
▁ተገ	-581
▁ንዅ	-582
▁ኣረኣእያ	-583
▁ዘለዉ	-584
ሳት	-585
ህበ	-586
▁ቀዳ	-587
▁ኣይኰነን	-588
ግለ	-589
▁ኣነ	-590
ንና	-591
ድሕ	-592
ገብረ	-593
▁እተፈ	-594
ብን	-595
ገብሩ	-596
እም	-597
ፍቅ	-598
ልን	-599
▁ባህ	-600
▁መንፈስ	-601
▁ብር	-602
ደን	-603
▁መዓልቲ	-604
▁ኣቢ	-605
▁ከነ	-606
▁ማቴዎስ	-607
▁መጠ	-608
ከኣ	-609
ሰን	-610
ከውን	-611
▁ከይ	-612
▁ካልኦት	-613
▁ወዲ	-614
▁ሰይጣን	-615
ተማ	-616
▁ምኽንያት	-617
▁ዀነ	-618
ንቋ	-619
ንዘ	-620
▁ዝሃ	-621
ብቲ	-622
ከት	-623
▁ንዓ	-624
ሕቲ	-625
▁ንዘ	-626
▁24	-627
▁ግብሪ	-628
▁ሓዳ	-629
ሪኽ	-630
▁ዘይኰነ	-631
▁ዮሃን	-632
▁ታ	-633
ላእ	-634
▁ንኻ	-635
ሳይ	-636
▁ዕላማ	-637
ድን	-638
▁ሸ	-639
ኛታት	-640
▁ኸለ	-641
▁ሓንቲ	-642
▁ብኣ	-643
▁ጽሑፋት	-644
▁መጻ	-645
▁ፈተ	-646
▁ኣገልግሎት	-647
ጀመር	-648
▁ኣሕዋ	-649
▁ደቂ	-650
▁መጽናዕ	-651
▁ብፍ	-652
▁ኸምዚ	-653
ገዝ	-654
▁ከምቲ	-655
▁ዮሃንስ	-656
ጥሮ	-657
▁ምሕ	-658
▁ንህ	-659
መንፈ	-660
▁መዛ	-661
▁ትር	-662
ራእ	-663
▁ንኽን	-664
ጉስ	-665
▁21	-666
▁ኣር	-667
እሰ	-668
▁ገይሩ	-669
ስም	-670
በሉ	-671
▁ሃዋርያ	-672
▁ንሱ	-673
ዘን	-674
▁ሕቶታት	-675
▁ጻ	-676
▁ሓይ	-677
ርድ	-678
ብዎ	-679
ለማ	-680
ፈት	-681
▁ዓብዪ	-682
▁ሙ	-683
▁ሓጢ	-684
▁ስምዒ	-685
▁ተወ	-686
▁ሰላ	-687
▁ኣባ	-688
ጀመርታ	-689
ለይ	-690
ዋእ	-691
▁ፍቓ	-692
▁ጥቕ	-693
ብጻ	-694
▁ምኽ	-695
▁ትኽእል	-696
▁ዓመታት	-697
ጽን	-698
ያዊ	-699
ላውያን	-700
▁ብግ	-701
▁ኸሎ	-702
ገብሮ	-703
▁ምዕ	-704
ረጋ	-705
ወሰ	-706
▁ዝዀኑ	-707
▁ንሕ	-708
▁ዋ	-709
▁ጴ	-710
▁ንኻልኦት	-711
ምልኾ	-712
▁ኣኽ	-713
▁ስነ	-714
ሶም	-715
▁22	-716
▁መጽናዕቲ	-717
▁መል	-718
▁ዳዊት	-719
ባዊ	-720
ነብር	-721
▁ኣገልገል	-722
ጽል	-723
በሃል	-724
▁ፍሉ	-725
ብራ	-726
▁ከለ	-727
▁መዛሙር	-728
ሃብ	-729
▁ጐ	-730
▁ፍልጠ	-731
▁መንእሰ	-732
ባቢ	-733
▁ጥበ	-734
ሐጕ	-735
ኤላውያን	-736
ተር	-737
▁አ	-738
ኑዕ	-739
ነትን	-740
▁ምፍ	-741
ምለ	-742
▁ዓንቀ	-743
▁ገሊኦም	-744
ነብሩ	-745
▁ኣጸ	-746
▁ኣካ	-747
▁ሓሳብ	-748
▁ዅነታት	-749
ክር	-750
ልዎ	-751
▁ነበር	-752
ክሮ	-753
▁ሮሜ	-754
▁ዘመን	-755
▁ብምሉእ	-756
ብና	-757
▁ስል	-758
▁መር	-759
▁ምግ	-760
▁ጀመ	-761
ስቲ	-762
ቕረ	-763
▁23	-764
▁ሰበይ	-765
▁ኣለዎም	-766
▁ቤተ	-767
ደሊ	-768
ጹር	-769
▁ሓጐስ	-770
▁መጀመርታ	-771
ዚኣ	-772
▁ሓላ	-773
ልካ	-774
ሕግዘና	-775
▁ብቐ	-776
ርዎ	-777
▁ብእ	-778
ቢድ	-779
▁ፍር	-780
ብሉ	-781
ዖም	-782
▁ዘይኰነስ	-783
ቢት	-784
ደት	-785
▁ተሰ	-786
▁ደቀ	-787
▁ሓድሽ	-788
▁ሉ	-789
▁ርአ	-790
▁ዚኸውን	-791
ኣለም	-792
▁ሞት	-793
▁ዝያዳ	-794
▁ይኽእሉ	-795
ብሮ	-796
ጣሚ	-797
▁ዲ	-798
▁ነታ	-799
መና	-800
▁ጸኒ	-801
ፍጽ	-802
ግእ	-803
ፈር	-804
▁ውሳ	-805
▁ዝነበሮ	-806
ረኸ	-807
▁ንጉስ	-808
ራን	-809
ለን	-810
ታን	-811
ወን	-812
ላለየ	-813
ንዘብ	-814
▁ጴጥሮ	-815
ግበር	-816
▁ነፍ	-817
▁መልእ	-818
ልዮ	-819
▁ምግባር	-820
▁ኣምልኾ	-821
▁ኣው	-822
ኹም	-823
▁ሒ	-824
▁ኸነ	-825
▁ኻብቲ	-826
ተባብ	-827
▁ጽል	-828
ምና	-829
▁ምሳሌ	-830
▁ኣቢሉ	-831
▁ስእ	-832
ዕና	-833
▁እዛ	-834
▁ቍ	-835
▁መንጎ	-836
▁ኣጋጣሚ	-837
▁ምም	-838
▁መጠን	-839
ስዕብ	-840
▁ኣዳ	-841
▁ክንደይ	-842
በኣ	-843
▁ደኣ	-844
ጠቕ	-845
▁ጓ	-846
▁ዚሕ	-847
በሮም	-848
▁እምበኣ	-849
▁መብዛሕትኡ	-850
▁ሕጊ	-851
▁ዚብል	-852
ክዕ	-853
▁እሙናት	-854
ይቲ	-855
▁ሂ	-856
▁ዝወ	-857
▁ልክዕ	-858
▁ወለዲ	-859
ረኽቡ	-860
▁ጴጥሮስ	-861
ሄር	-862
ጋጠ	-863
ታቶም	-864
ይዎ	-865
ዚኣብ	-866
▁25	-867
▁ኣፍ	-868
ግዚኣብ	-869
▁ለው	-870
▁ኣት	-871
▁እምበኣር	-872
ምህ	-873
ደንቕ	-874
▁በረ	-875
▁ተሓ	-876
▁ንዕ	-877
ዛዝ	-878
ርእዮ	-879
ሳስ	-880
▁መስዋእ	-881
ውነት	-882
▁ኰይ	-883
▁ተጠቒ	-884
▁ስርዓታት	-885
በት	-886
▁መምር	-887
ስት	-888
ጸን	-889
▁ኰን	-890
▁ብመንፈ	-891
▁ኰነ	-892
▁ውሉ	-893
ግዚኣብሄር	-894
▁እንተዀነ	-895
ባዕ	-896
▁እስራኤል	-897
▁ፍልጠት	-898
ካን	-899
ይድ	-900
▁ሜ	-901
▁ኣብኡ	-902
ጥረት	-903
▁ጸገማት	-904
መሉ	-905
ቡእ	-906
▁ሰብኣ	-907
▁ዝኸ	-908
▁ስራሕ	-909
ልክት	-910
▁ኸለዉ	-911
▁እስከ	-912
▁ትርጕም	-913
▁ዓንቀጽ	-914
▁ኣኼባታት	-915
▁28	-916
▁ሓያሎ	-917
▁ውግእ	-918
ርያት	-919
▁ኮ	-920
ሳይያስ	-921
▁ይኸውን	-922
▁26	-923
▁ፊ	-924
▁ሰላም	-925
▁ምስቲ	-926
▁ስርዓት	-927
▁ኢሳይያስ	-928
ርብ	-929
▁ባህርያት	-930
000	-931
እምሮ	-932
▁ኣል	-933
ጽዕ	-934
▁ሃዋርያት	-935
ስና	-936
▁*	-937
▁ኣገልገልቲ	-938
ላዕሊ	-939
▁ምዕራ	-940
▁ፖ	-941
ማግለ	-942
▁ኣለዉ	-943
▁ኵሎም	-944
▁ብስራት	-945
▁ምት	-946
▁ሰማ	-947
▁ንብ	-948
▁እነ	-949
▁ስጕም	-950
▁ንዅሉ	-951
ርም	-952
▁መምርሒ	-953
▁ሰብኣይ	-954
▁/	-955
▁ኣስ	-956
▁መላእ	-957
▁ምኽሪ	-958
▁ኣይት	-959
▁ሓይሊ	-960
ንዲ	-961
ለስተ	-962
▁ማእ	-963
▁ተማ	-964
▁ክልተ	-965
▁ኣይነ	-966
ልዑ	-967
ትሩ	-968
▁ያ	-969
▁ብሕ	-970
▁እስራኤላውያን	-971
ላን	-972
ዓብ	-973
ገድ	-974
ግባእ	-975
▁ንጥ	-976
▁እተፈላለየ	-977
ዊሕ	-978
▁ዝፈ	-979
▁ትሕቲ	-980
ኡን	-981
▁ፍሉይ	-982
ሓደ	-983
ረባ	-984
▁ሓገዝ	-985
▁ፈተና	-986
▁ክኸውን	-987
ላዊ	-988
▁ሃገራት	-989
ከኣል	-990
▁ሽማግለ	-991
ሳሳ	-992
▁ኵነታት	-993
ቃስ	-994
በለ	-995
ብሪ	-996
▁ተፈ	-997
▁ሃይማኖት	-998
ወስ	-999
ጋሚ	-1000
▁ወትሩ	-1001
ግጽ	-1002
▁ዚመ	-1003
▁ፍጻ	-1004
▁ስብ	-1005
▁ንዘለ	-1006
▁ኣይሁ	-1007
▁እተመ	-1008
ህልወ	-1009
ሳሳሊ	-1010
▁ሰናይ	-1011
ወሰነ	-1012
ሞን	-1013
ንጸ	-1014
▁ሓላፍ	-1015
▁ጸብጻ	-1016
▁ብት	-1017
▁ብን	-1018
ርክ	-1019
ቤት	-1020
▁ጻዕ	-1021
▁መዳይ	-1022
▁ብዘይካ	-1023
▁መልእኽቲ	-1024
ጸም	-1025
ጽኣ	-1026
ወት	-1027
▁ፕ	-1028
,000	-1029
ሓስ	-1030
ኣም	-1031
የና	-1032
▁ጸሎት	-1033
▁ሓጢኣት	-1034
ርኣ	-1035
ከፍ	-1036
ውዕ	-1037
ድር	-1038
▁ራእ	-1039
▁ዚገልጽ	-1040
▁እየን	-1041
ጢሞ	-1042
ዳያት	-1043
▁ዜድል	-1044
ተኣ	-1045
▁ዘላ	-1046
▁ደቅ	-1047
▁ስእሊ	-1048
▁ብምባል	-1049
ለጥ	-1050
ርሕ	-1051
ዝን	-1052
▁ሳዕ	-1053
▁ክርስትያናዊ	-1054
ድና	-1055
▁ሰማይ	-1056
▁ናብቲ	-1057
ህቦ	-1058
ርሃ	-1059
▁ዄ	-1060
ረንቶስ	-1061
ሎን	-1062
ተረ	-1063
ሩሳሌ	-1064
▁29	-1065
▁ከመይሲ	-1066
▁ተመክሮ	-1067
▁ቈረንቶስ	-1068
ርእዩ	-1069
▁ተባ	-1070
ገልግል	-1071
ዳን	-1072
ርጋ	-1073
▁ሙሴ	-1074
▁ንዝ	-1075
▁ብሰን	-1076
▁ኸይ	-1077
▁ዘፍ	-1078
▁ሰለስተ	-1079
ባይ	-1080
▁ታሪኽ	-1081
▁ቅዱሳት	-1082
ላሽ	-1083
ዳስ	-1084
ግብ	-1085
▁ሓዳር	-1086
▁በረኸ	-1087
▁ኣብዛ	-1088
▁ሽዑ	-1089
▁ጕዳይ	-1090
▁ጽልዋ	-1091
ደም	-1092
▁ዝዓ	-1093
▁መልሲ	-1094
▁ብዘይካዚ	-1095
▁ምዃን	-1096
▁ጭ	-1097
ኣቶም	-1098
▁ኽሳዕ	-1099
ህብ	-1100
ረና	-1101
ቓልል	-1102
▁ብዝያዳ	-1103
▁30	-1104
▁ንሳ	-1105
▁ሓደጋ	-1106
▁ዘጋጠ	-1107
▁ቀዳማይ	-1108
▁ሓው	-1109
▁በለት	-1110
▁ንኽት	-1111
▁ብሰንኪ	-1112
▁ገንዘብ	-1113
ላጥ	-1114
▁ዚፍ	-1115
▁ነፍሲ	-1116
▁ገይሮም	-1117
ርካብ	-1118
▁ኣባላት	-1119
ጥፍ	-1120
▁ሄ	-1121
ደገ	-1122
▁ምጽ	-1123
▁ኣእምሮ	-1124
▁ሓሳባት	-1125
▁ዝዀ	-1126
▁ድሕሪኡ	-1127
▁ቋ	-1128
▁ጥን	-1129
▁ሃገር	-1130
▁ከቢድ	-1131
ድታት	-1132
▁ዝረኸ	-1133
ለፈ	-1134
▁ጢሞ	-1135
ቕን	-1136
ክእ	-1137
▁ንነ	-1138
ጠቓልል	-1139
▁ቃላት	-1140
▁ቋንቋ	-1141
▁ወከፍ	-1142
ውቲ	-1143
▁ረኺ	-1144
▁ፍጻመ	-1145
ጽኢ	-1146
▁ስጕምቲ	-1147
▁ኪዀኑ	-1148
ዛእ	-1149
ፋል	-1150
ምልከት	-1151
ረተ	-1152
ምነት	-1153
ክርስ	-1154
▁ራእይ	-1155
ፍን	-1156
▁ንጽ	-1157
▁ክፍ	-1158
▁ንሕና	-1159
▁ንርአ	-1160
▁ኣብርሃ	-1161
▁እግዚኣብሄር	-1162
ልቲ	-1163
ነግ	-1164
▁ኣድ	-1165
ሞት	-1166
በራ	-1167
ቕጽል	-1168
ቛንቋ	-1169
▁27	-1170
▁ማሕ	-1171
▁ኣዘ	-1172
ህና	-1173
▁ንሰባት	-1174
ሕል	-1175
▁ከተማ	-1176
ክዎ	-1177
▁ኣቐ	-1178
▁ፍረ	-1179
ሩሳሌም	-1180
▁ዜጋጥ	-1181
▁መንእሰያት	-1182
ሕትና	-1183
ተሓሳስ	-1184
▁ኖ	-1185
▁ውሽ	-1186
▁ምግባ	-1187
▁ፓ	-1188
▁ተግባ	-1189
▁መለ	-1190
▁ያእ	-1191
▁ቅኑዕ	-1192
▁ውጽኢ	-1193
▁ዝኽእል	-1194
ሃሮ	-1195
▁ሉቃስ	-1196
▁ብምዃ	-1197
ነቱ	-1198
ፈልጦ	-1199
ናውያን	-1200
በየ	-1201
▁ግም	-1202
▁ኢሎም	-1203
▁ስልጣን	-1204
ህሉ	-1205
▁ሰዓ	-1206
ስምዓ	-1207
▁ዘመ	-1208
ቕደ	-1209
▁ቓ	-1210
▁ንስኻ	-1211
▁ቘ	-1212
▁ተዋ	-1213
▁እዞም	-1214
▁ሕማቕ	-1215
▁መጻኢ	-1216
▁ይፈልጥ	-1217
▁ኣይሁድ	-1218
ላው	-1219
▁ሕማም	-1220
▁ንሓደ	-1221
▁ንላዕሊ	-1222
ምስ	-1223
▁ኦ	-1224
▁ምሳ	-1225
ግጸ	-1226
ጥቃ	-1227
▁ዘየ	-1228
▁ንህዝ	-1229
▁ውሳነ	-1230
ሃት	-1231
ነቶም	-1232
ደልዩ	-1233
ፈልጡ	-1234
▁ትእ	-1235
▁ንው	-1236
▁ዝገበሮ	-1237
▁ንየሱስ	-1238
ዳት	-1239
▁ሲ	-1240
ማንነት	-1241
▁ጸኒሑ	-1242
▁መስዋእቲ	-1243
ዮብ	-1244
▁ያእቆ	-1245
▁ነበርኩ	-1246
ልጋ	-1247
ልኣይ	-1248
▁እተገብረ	-1249
ለወ	-1250
ስዮ	-1251
ሽተ	-1252
ጽዓ	-1253
▁ከተ	-1254
▁ዜደንቕ	-1255
▁ምላሽ	-1256
ጥቀም	-1257
▁ኣቐዲ	-1258
▁ክንከውን	-1259
▁33	-1260
▁መዓ	-1261
▁ብጾ	-1262
መት	-1263
ጋዊ	-1264
መሃር	-1265
▁ኸተማ	-1266
▁ይብል	-1267
▁ምስክር	-1268
ልያ	-1269
▁ጸብጻብ	-1270
▁ኣገልግሎ	-1271
ሳኤ	-1272
▁ንወ	-1273
ታዊት	-1274
ሬታ	-1275
አን	-1276
ርእስ	-1277
▁ኣመሪ	-1278
▁የሩሳሌም	-1279
ዎን	-1280
▁ብዚ	-1281
▁ጀመረ	-1282
ጽሕ	-1283
▁ንገ	-1284
▁ኣተ	-1285
▁ጌጋ	-1286
▁ብፍላይ	-1287
ቡር	-1288
ንካ	-1289
▁ሓበ	-1290
▁ንምድ	-1291
▁እሞኸ	-1292
▁ይቕረ	-1293
▁ዝነበረት	-1294
▁ንግ	-1295
▁ገሊኡ	-1296
▁ምዕራፍ	-1297
ልዓ	-1298
ድግ	-1299
ግም	-1300
▁ፍጹ	-1301
▁ጨ	-1302
ሳኺ	-1303
ናዮ	-1304
▁ኣትሒ	-1305
▁ጽሑፍ	-1306
▁ዝገበረ	-1307
▁ኣምላኽን	-1308
ሶን	-1309
ጽበ	-1310
▁ኒ	-1311
ስታት	-1312
▁ቓል	-1313
▁ንል	-1314
▁ፈጺ	-1315
▁ነይረ	-1316
▁ኣሕዋት	-1317
▁ኣብርሃም	-1318
▁ሽማግለታት	-1319
▁ጊ	-1320
▁ነዊሕ	-1321
▁ህይወትና	-1322
▁ጢሞቴዎስ	-1323
▁ሓያል	-1324
▁ሚስዮ	-1325
▁ዝመጸ	-1326
▁ገበረ	-1327
▁በረኸት	-1328
ናዊት	-1329
ንቀቕ	-1330
▁ስብከት	-1331
▁ሓላፍነት	-1332
ሶት	-1333
ድመ	-1334
▁ማር	-1335
▁ምና	-1336
▁ብመ	-1337
▁ግዝ	-1338
▁ብመሰ	-1339
▁ንክርስ	-1340
▁ንዘለኣለም	-1341
ሖም	-1342
ቆም	-1343
ይወት	-1344
▁31	-1345
▁ምው	-1346
▁መሰረ	-1347
ኻን	-1348
▁እዝ	-1349
▁ወር	-1350
▁ብግዜ	-1351
▁ዘርኣ	-1352
ለሉ	-1353
ንጌ	-1354
ዛረብ	-1355
▁ዚብ	-1356
▁ነበሮ	-1357
ሰማ	-1358
ደገና	-1359
▁ኣጸቢ	-1360
▁ሓበሬታ	-1361
ሙን	-1362
ራብ	-1363
ትዖ	-1364
▁ነይራ	-1365
▁ልቢ	-1366
▁ፊል	-1367
▁ንጹር	-1368
▁ጸገም	-1369
▁ፍቓድ	-1370
▁መገድታት	-1371
▁እንደገና	-1372
▁ምቕ	-1373
▁ኣዕ	-1374
▁ኤል	-1375
▁ወንጌ	-1376
▁ምኽንያ	-1377
▁ዝገበር	-1378
▁የድል	-1379
▁ዚነብሩ	-1380
▁ዚኽእሉ	-1381
▁ረኸ	-1382
▁ፈለማ	-1383
▁ያእቆብ	-1384
▁እትርከብ	-1385
▁ዘፍጥረት	-1386
▁ጋ	-1387
▁መከ	-1388
▁ብል	-1389
▁ጸሓ	-1390
ብራውያን	-1391
▁ትንሳኤ	-1392
ራጽ	-1393
▁32	-1394
▁ዀይ	-1395
▁ጽድ	-1396
ድሊ	-1397
▁200	-1398
▁እዮብ	-1399
▁ትንቢት	-1400
ምቀ	-1401
ረጃ	-1402
ራር	-1403
▁ሳሙ	-1404
▁ተባሂ	-1405
▁ኻልእ	-1406
ፍቲ	-1407
ፍቅሮ	-1408
▁ዝደ	-1409
▁ርእሲ	-1410
▁እሙን	-1411
▁ዘይተ	-1412
▁መሰረታዊ	-1413
▁ኢያ	-1414
ራኸ	-1415
ቕር	-1416
ግሊ	-1417
▁እብራውያን	-1418
▁ሊ	-1419
መጽእ	-1420
▁መሲ	-1421
ጥቀመሉ	-1422
ጅለ	-1423
▁ዝቐ	-1424
▁ዜርኢ	-1425
ተሓሳስባ	-1426
ያብ	-1427
ብዓት	-1428
▁ኸመይ	-1429
▁ግቡእ	-1430
▁መርትዖ	-1431
▁ኣመሪካ	-1432
▁መዛሙርቲ	-1433
ምድ	-1434
ርምያስ	-1435
▁ሰበይቲ	-1436
▁ብመሰረት	-1437
ኻዊ	-1438
▁ኢየ	-1439
ገልጸ	-1440
▁ዋላ	-1441
ሕግዞም	-1442
▁እተጠቕ	-1443
▁ኰይኖም	-1444
ሓዝ	-1445
ታቱ	-1446
▁ሸቶ	-1447
▁ፍት	-1448
▁ጥቕሚ	-1449
▁መዛሙርቱ	-1450
ራትን	-1451
▁እተን	-1452
▁▪	-1453
▁ደም	-1454
▁ፕሮ	-1455
▁ለውጢ	-1456
▁ዝሃቦ	-1457
▁ገነት	-1458
▁ነበረት	-1459
▁ጾ	-1460
▁ሓጊ	-1461
▁ተደ	-1462
▁201	-1463
▁መብጽዓ	-1464
▁ዘይብሉ	-1465
ጻኢ	-1466
ፎም	-1467
ሓትት	-1468
▁መደ	-1469
▁ይሕ	-1470
▁መሰል	-1471
▁ከባቢ	-1472
▁ዘለዋ	-1473
ረብ	-1474
ክል	-1475
ተኣማ	-1476
ጥቀሙ	-1477
▁ዲኻ	-1478
▁ገና	-1479
▁ንምፍ	-1480
▁ዝርከብ	-1481
ለና	-1482
ተረፈ	-1483
ኸይድ	-1484
▁ኖህ	-1485
▁ዘሕ	-1486
▁ኣይተ	-1487
▁እተዋ	-1488
▁ብንጹር	-1489
▁ደቅሰብ	-1490
ንስ	-1491
▁እተወሰነ	-1492
ልቀ	-1493
ጻጸ	-1494
▁ክእ	-1495
▁ዝጸ	-1496
▁ምንጪ	-1497
▁ጸሓፍ	-1498
▁ጻዕሪ	-1499
▁ስምዒት	-1500
▁ንሓድሕ	-1501
▁ሃይማኖታዊ	-1502
▁ናብራ	-1503
▁ኣስተ	-1504
▁ሓድሓደ	-1505
ርዝ	-1506
ህልዎ	-1507
▁ውድ	-1508
▁ግዜና	-1509
ሴፍ	-1510
ጥን	-1511
ምጽእ	-1512
በይቲ	-1513
▁ማይ	-1514
▁ጽሕ	-1515
▁ብእተ	-1516
▁ጌርካ	-1517
▁ዚገብር	-1518
▁ንምርካብ	-1519
▁ቓላት	-1520
▁ጕጅለ	-1521
▁ጥዕና	-1522
▁ብመንፈስ	-1523
▁ክንገብር	-1524
ሰል	-1525
ንቂ	-1526
ሎምን	-1527
ኣምኑ	-1528
▁37	-1529
▁የብ	-1530
▁ሳሙኤል	-1531
ህቦም	-1532
ሐጕስ	-1533
▁ሕያ	-1534
▁መብዛሕትኦም	-1535
▁ንኼ	-1536
ህልወና	-1537
ተኛታት	-1538
▁ዚግበር	-1539
▁እትኽእል	-1540
ከል	-1541
▁ሓቅ	-1542
▁ብብ	-1543
▁ብምን	-1544
ረሉ	-1545
ጣሪ	-1546
ጸመ	-1547
▁በዓል	-1548
▁ጀመር	-1549
▁ዚሕብር	-1550
▁ዝኸውን	-1551
▁ህይወቱ	-1552
▁ወሲ	-1553
▁እዚኣቶም	-1554
▁ገሊኣቶም	-1555
▁ዩ	-1556
ልባት	-1557
▁34	-1558
▁35	-1559
▁ምናልባት	-1560
ለማዊ	-1561
ጽዕር	-1562
▁ተረ	-1563
▁እኩ	-1564
▁ቛንቋ	-1565
ተኵ	-1566
▁ቐዳ	-1567
▁ሓሶት	-1568
▁ንእስ	-1569
▁ከለና	-1570
▁ዘለኣለም	-1571
ሊጹ	-1572
ልዩ	-1573
▁ንዕኡ	-1574
▁ክንዲ	-1575
▁ይገልጽ	-1576
ህበና	-1577
▁ፍጹም	-1578
▁ኤርምያስ	-1579
ይታ	-1580
▁ጆ	-1581
ፍጽም	-1582
▁ዜሕ	-1583
ፍት	-1584
ርዎም	-1585
ግሊዝ	-1586
▁ኣሓ	-1587
▁ኵላ	-1588
▁ይሁ	-1589
▁ምስኡ	-1590
▁ንመን	-1591
▁ዘበለ	-1592
▁ዚርከ	-1593
መላለ	-1594
▁ዝለ	-1595
ውስ	-1596
▁ብዓ	-1597
▁ደገ	-1598
▁ቈልዑ	-1599
▁መንፈሳ	-1600
▁ክርስትያናዊት	-1601
ላዪ	-1602
ዕቲ	-1603
ትናን	-1604
▁ኣማ	-1605
▁ወሰ	-1606
▁ጥበብ	-1607
ዕን	-1608
ጠራ	-1609
▁ዝስ	-1610
▁ዳን	-1611
▁ፍቓደ	-1612
ኣምን	-1613
▁ካብቶም	-1614
ታው	-1615
▁ብሰ	-1616
▁ናይቲ	-1617
▁ክፍሊ	-1618
▁ብቕ	-1619
▁ካልኣይ	-1620
▁ንምግባር	-1621
▁ዝነበሮም	-1622
▁ሰብኡ	-1623
▁ንሰብ	-1624
▁ኣቦኡ	-1625
▁ኣነን	-1626
▁ገለጸ	-1627
ሕግዝ	-1628
▁ንዚ	-1629
ንጸባር	-1630
▁ሓዳስ	-1631
▁ዘሎካ	-1632
▁ተገሊጹ	-1633
▁ትሕትና	-1634
▁ዝነበር	-1635
▁ይከኣል	-1636
▁መንእሰይ	-1637
▁ኣይነበረ	-1638
የሉ	-1639
ጠፍ	-1640
▁ሃብ	-1641
▁ኣህ	-1642
▁ዓበይቲ	-1643
▁ሩ	-1644
▁ተጻ	-1645
▁ዝሰ	-1646
▁ብምስ	-1647
▁ነብዪ	-1648
▁ዘይብ	-1649
▁ኣኽብሮ	-1650
ልጋል	-1651
▁መሳ	-1652
▁ተዓ	-1653
▁ንጥፈ	-1654
▁ቀዳሞት	-1655
▁ዝብል	-1656
▁ፍርዲ	-1657
ሊል	-1658
ጥር	-1659
▁ወዱ	-1660
ምርምር	-1661
▁መበል	-1662
▁ብተመ	-1663
▁ብናይ	-1664
▁ኣይን	-1665
▁ዝሓዘ	-1666
▁ንህዝቡ	-1667
▁ንዅሎም	-1668
▁ኣጸጋሚ	-1669
ምጽኣ	-1670
ሰርተ	-1671
▁ባዕ	-1672
▁ኤፌ	-1673
ልዮን	-1674
▁ሓዲ	-1675
▁ንናይ	-1676
ሽሽ	-1677
▁ቍጽ	-1678
▁ኣደ	-1679
ያብሎስ	-1680
▁ዝሓለፈ	-1681
▁ትሑ	-1682
▁መቕደ	-1683
▁ውህበ	-1684
▁ዓስ	-1685
▁ቀንዲ	-1686
▁ወርሒ	-1687
▁ዳርጋ	-1688
ለየ	-1689
በና	-1690
ኰኑ	-1691
ዓና	-1692
መስል	-1693
ወስድ	-1694
▁ሓተ	-1695
▁ብህ	-1696
▁መከራ	-1697
ሕን	-1698
▁ማዕ	-1699
▁ገዛ	-1700
▁ምርጫ	-1701
▁ካብዚ	-1702
▁ወይስ	-1703
▁ብርግጽ	-1704
▁መዓልትታት	-1705
ጻር	-1706
ላንድ	-1707
ገድስ	-1708
▁ዘዳ	-1709
ወንታዊ	-1710
▁ተመሳሳሊ	-1711
ርዚ	-1712
ድም	-1713
▁ተነ	-1714
▁ዝረኣ	-1715
▁ህይወቶም	-1716
ለስ	-1717
ትያ	-1718
ረጋገ	-1719
▁ኣእ	-1720
ገልግሉ	-1721
▁እዝስ	-1722
▁ውሉዳት	-1723
▁ኽንገብር	-1724
▁ኣተሓሳስባ	-1725
ደጋ	-1726
ቡራት	-1727
ግለጺ	-1728
▁ንጸ	-1729
ለቲ	-1730
ራዊት	-1731
▁ብሉ	-1732
▁ኣጋጠ	-1733
▁ዕቤት	-1734
▁መግለጺ	-1735
▁ኣድላዪ	-1736
ቆስ	-1737
ጻሕ	-1738
▁በብ	-1739
▁ሒደት	-1740
▁ኣንበ	-1741
▁ምፍላጥ	-1742
ቖም	-1743
▁ብተኣ	-1744
▁ኣጋጢ	-1745
▁ዝኸኣ	-1746
▁ደረጃ	-1747
▁ጌርና	-1748
▁ጥንቲ	-1749
▁ጽሕፈት	-1750
▁ኸተ	-1751
▁ወረ	-1752
▁ዚወ	-1753
▁ትንቢ	-1754
▁እቲኣ	-1755
▁ፈጣሪ	-1756
ኡስ	-1757
ኣን	-1758
ባዕተ	-1759
ግስቲ	-1760
▁ኢን	-1761
▁ድል	-1762
ርእይዎ	-1763
▁ርግጸ	-1764
▁ኽልተ	-1765
▁ዄንና	-1766
▁ፈተናታት	-1767
ባሩ	-1768
ቶምን	-1769
▁እብ	-1770
▁ጽን	-1771
መልክት	-1772
ርእዮም	-1773
▁ኬጋጥ	-1774
▁ተግባር	-1775
መሓ	-1776
ረኽቦ	-1777
ስሳ	-1778
▁ልዑ	-1779
▁ሕግ	-1780
▁ትዕ	-1781
▁ነጥ	-1782
▁ግደ	-1783
▁ጓል	-1784
▁ርእሰ	-1785
▁ወጻኢ	-1786
▁ተባሂሉ	-1787
▁ኣቐዲሙ	-1788
ማስ	-1789
ኾም	-1790
ዓብቱ	-1791
▁ምዝ	-1792
▁ሓጢኣ	-1793
▁ንርእ	-1794
▁ግሪኽ	-1795
▁ውሳነታት	-1796
▁ብተመሳሳሊ	-1797
ህን	-1798
ሎሞን	-1799
ጸናን	-1800
▁ሞተ	-1801
▁ኣቕ	-1802
▁ንምሕ	-1803
▁ዘርእስ	-1804
▁የሆዋን	-1805
▁ኣብነታት	-1806
▁እንግሊዝ	-1807
ሽቶ	-1808
ዓዝ	-1809
ዛት	-1810
ጋዝ	-1811
▁ጀሚ	-1812
▁ምሃብ	-1813
▁ኣባል	-1814
▁ኸምኡ	-1815
▁ውሽጢ	-1816
▁ንመንፈ	-1817
▁ኣትሒዙ	-1818
▁N	-1819
▁ባቢ	-1820
▁ንዓና	-1821
▁ኻብቶም	-1822
▁ዳንኤል	-1823
ድካ	-1824
▁ስቓ	-1825
▁ምዃኖም	-1826
ሓል	-1827
ሳን	-1828
ቦን	-1829
▁ጃ	-1830
ቈጻጸ	-1831
ውዓል	-1832
▁ንት	-1833
▁ተመር	-1834
▁ውልቀ	-1835
▁ከይተረፈ	-1836
ውዓ	-1837
▁ቝ	-1838
▁ደሊ	-1839
▁ዮሴፍ	-1840
▁ንእሽቶ	-1841
▁ግዝኣት	-1842
ሰት	-1843
በባ	-1844
እን	-1845
▁ኪቕ	-1846
▁ንደቂ	-1847
▁እዘን	-1848
▁ምስቶም	-1849
▁ቦታታት	-1850
▁ጉባኤታት	-1851
ሊክ	-1852
በን	-1853
ውት	-1854
▁ባሕ	-1855
▁ኽፍ	-1856
▁ቕድሚ	-1857
▁ንደቀ	-1858
▁ኣብተን	-1859
▁ኣወንታዊ	-1860
▁ሚእ	-1861
▁ኣዳም	-1862
▁መቕደስ	-1863
▁ተወሳኺ	-1864
▁ይገብር	-1865
▁ህይወተይ	-1866
ቐር	-1867
ጺኡ	-1868
ሓስብ	-1869
▁ብጸ	-1870
▁199	-1871
▁ኣኽቢ	-1872
▁ጭንቀ	-1873
▁ፖለቲ	-1874
ሃሩ	-1875
ምቲ	-1876
ወል	-1877
ዳር	-1878
ድዎ	-1879
ዛረቡ	-1880
▁ሓቀ	-1881
▁ክኢ	-1882
▁ብርቱ	-1883
ዓዪ	-1884
ዛብ	-1885
ጻም	-1886
ሰምዕ	-1887
▁ህያ	-1888
▁ዘሎኒ	-1889
▁ይሁዳ	-1890
▁ሰሎሞን	-1891
▁ሰማያዊ	-1892
ሸት	-1893
ኣኽ	-1894
እዘ	-1895
ጥረ	-1896
ጽሊ	-1897
▁በጃ	-1898
▁ብምሕ	-1899
▁ኸባቢ	-1900
▁ኤፌሶን	-1901
ርነት	-1902
ብታት	-1903
▁ንቕ	-1904
▁ዕግ	-1905
▁ሄዋን	-1906
▁ዕድመ	-1907
▁ገሊጹ	-1908
▁ሕቡራት	-1909
▁ውህበት	-1910
an	-1911
ታሕ	-1912
ጺር	-1913
ጻሊ	-1914
▁ሶ	-1915
▁ብዘየ	-1916
▁መሰረት	-1917
▁ንጥፈታት	-1918
ንጻ	-1919
ሰምዖ	-1920
▁ሂቡ	-1921
▁ኣርኣ	-1922
▁ግብጺ	-1923
▁ብተደጋ	-1924
▁ትፈልጥ	-1925
▁ኣይክእ	-1926
ጐጕ	-1927
ጻእ	-1928
▁ሆ	-1929
▁ቕዱ	-1930
▁ተዛ	-1931
▁ንፍ	-1932
▁ኣም	-1933
▁ዓቕ	-1934
▁ዚበሃል	-1935
▁መዓልታዊ	-1936
▁ተግባራት	-1937
ሓን	-1938
▁ረኣ	-1939
▁ተማሂ	-1940
▁ኣበር	-1941
▁ዘይነ	-1942
▁ትእዛዝ	-1943
▁ምግባራዊ	-1944
▁ብምግባር	-1945
▁ብተደጋጋሚ	-1946
▁ኣይነበረን	-1947
ረበ	-1948
ሪቡ	-1949
ጽዋ	-1950
ጾም	-1951
ፋት	-1952
▁ዶ	-1953
▁ሓጐ	-1954
▁መሪ	-1955
▁ተመራ	-1956
▁ኣካል	-1957
▁ዝገለ	-1958
▁ሓድነት	-1959
▁መዳያት	-1960
▁ማእሰር	-1961
▁ድያብሎስ	-1962
ላዕ	-1963
ዘር	-1964
▁40	-1965
▁ብዕ	-1966
▁ነዛ	-1967
▁ንሳቶም	-1968
▁ዓሰርተ	-1969
ሳብ	-1970
ንቅ	-1971
ጀመ	-1972
ጡብ	-1973
▁ቲ	-1974
▁ንፈ	-1975
▁ኣዋ	-1976
▁ጠቓ	-1977
▁ክንዳ	-1978
▁ኽፋል	-1979
▁ኪገብሩ	-1980
ሊሉ	-1981
ሱን	-1982
ፈልየ	-1983
ፍጸም	-1984
▁ሰብኣዊ	-1985
▁ብርቱዕ	-1986
▁ጀመርኩ	-1987
▁ጕዳያት	-1988
▁ፍቕርን	-1989
▁ንክርስትያ	-1990
▁ጕድ	-1991
▁መዓስ	-1992
▁ኣሎካ	-1993
▁ኪገብር	-1994
▁ኣርባዕተ	-1995
ሓድ	-1996
ቝጸ	-1997
▁ብሉጽ	-1998
▁ተሰማ	-1999
▁እተቐ	-2000
▁ፊልጲ	-2001
▁ንስድራ	-2002
ንታ	-2003
ንያ	-2004
ምሃር	-2005
▁ተኸ	-2006
▁ዓዲ	-2007
▁ደሴ	-2008
▁መራሕ	-2009
▁ንመጽ	-2010
▁ኢልካ	-2011
▁ግምት	-2012
▁ጸበባ	-2013
▁ነበሮም	-2014
▁ዚስዕብ	-2015
ላል	-2016
ብኡ	-2017
ደሉ	-2018
መርሕ	-2019
▁ኣበ	-2020
▁ጨን	-2021
▁ብዓል	-2022
▁ነይርዎ	-2023
▁ንጽህና	-2024
▁ኣዘውቲ	-2025
▁እተዛረ	-2026
▁እዚኣተን	-2027
ቡኣት	-2028
ኦምን	-2029
▁ካቶ	-2030
▁ሓደገ	-2031
▁ትብል	-2032
▁ኣፍሪ	-2033
▁ኸቢድ	-2034
▁ዕርክ	-2035
▁ዘጋጠመ	-2036
ህቡ	-2037
ረም	-2038
▁ሪ	-2039
ምለስ	-2040
▁ምሕረት	-2041
▁ዝበለጸ	-2042
▁ብዘየገድስ	-2043
▁ብተኣማንነት	-2044
ለካ	-2045
▁ኴ	-2046
ስነት	-2047
▁ሓራ	-2048
▁መዘ	-2049
ሰማማዕ	-2050
▁ንስም	-2051
▁ዘርእስታ	-2052
▁ቀጺ	-2053
▁ንድ	-2054
▁ንእተ	-2055
▁ፈጺሙ	-2056
▁እተመስ	-2057
▁ሚስዮናውያን	-2058
▁ትምህርትታት	-2059
ሮት	-2060
ሳእ	-2061
ምቀት	-2062
ታውን	-2063
▁ንኪ	-2064
▁እከ	-2065
▁ዀን	-2066
▁ኣለዋ	-2067
▁ክብሪ	-2068
▁ዄንካ	-2069
▁ዝሓገ	-2070
▁እትብል	-2071
▁ፍጻመታት	-2072
ዉታት	-2073
▁ጸሎ	-2074
ህልዎም	-2075
ንቀቕታ	-2076
▁ንደቅ	-2077
▁ዘይት	-2078
▁መስጐጕ	-2079
▁ብሕታዊ	-2080
▁ወንጌል	-2081
▁ፖለቲካ	-2082
ማር	-2083
ሞቱ	-2084
▁ዛ	-2085
ጽዕሩ	-2086
▁ምሁ	-2087
▁ጻድ	-2088
▁ሓጺር	-2089
▁ምግቢ	-2090
▁ሳዕቤ	-2091
▁ንምስ	-2092
▁ኣቦይ	-2093
▁P	-2094
▁ዚው	-2095
▁ዩኒ	-2096
▁ሰብኡት	-2097
▁እተመር	-2098
መቕ	-2099
ሩኽ	-2100
ሰብኩ	-2101
ያትን	-2102
▁ንጹ	-2103
▁የግ	-2104
▁ዚዀኑ	-2105
▁ጨንፈር	-2106
▁መላእኽቲ	-2107
▁ኣኽብሮት	-2108
ብኩ	-2109
▁ቢ	-2110
▁ሓለ	-2111
▁ድኽ	-2112
▁ዘርኢ	-2113
▁ጾታዊ	-2114
▁ርእሶም	-2115
▁ንእስራ	-2116
▁መንግስትታት	-2117
14	-2118
ሌት	-2119
ብካ	-2120
▁ራ	-2121
መስግ	-2122
▁ብዅ	-2123
▁ካር	-2124
▁ወፈ	-2125
▁ጀር	-2126
▁ቤትና	-2127
▁ዓለምለ	-2128
▁ዝዀነት	-2129
ሚቝ	-2130
ኽብሮ	-2131
▁ቤቱ	-2132
▁ባሕሪ	-2133
▁ዜሕዝን	-2134
▁ጥበባዊ	-2135
▁ብመንፈሳዊ	-2136
ይነ	-2137
▁ሓደገኛ	-2138
▁ምልክት	-2139
▁ባቢሎን	-2140
▁ኣገልጋ	-2141
▁መጠንቀቕታ	-2142
ቅስ	-2143
ቐት	-2144
እዎ	-2145
ጸል	-2146
ሙሽተ	-2147
ርኣይ	-2148
ዱሽተ	-2149
ጽንዕ	-2150
▁ዘብ	-2151
▁ዝጠ	-2152
▁ቍጽሪ	-2153
▁ዓስቢ	-2154
▁ሄዋንን	-2155
▁ሰላምን	-2156
▁ነበርና	-2157
▁ኣፍሪቃ	-2158
▁ውጽኢት	-2159
▁የግዳስ	-2160
ደር	-2161
ድኣ	-2162
መርቲ	-2163
ተኵር	-2164
▁ኒው	-2165
▁አሎ	-2166
▁ጠቓሚ	-2167
▁ብቐሊሉ	-2168
▁ንምድሪ	-2169
▁ኻልኦት	-2170
▁ክትገብር	-2171
ኦል	-2172
▁ፋ	-2173
ቐርብ	-2174
የናይ	-2175
▁ተሓጒ	-2176
▁ዓባይ	-2177
▁ዘይም	-2178
▁ኣገልጋሊ	-2179
ተሃ	-2180
ክን	-2181
ዝዎ	-2182
▁ንሃ	-2183
▁ማርያ	-2184
▁ሰሙን	-2185
▁ተኣም	-2186
▁ኪዳን	-2187
▁ዚደል	-2188
▁ሰዓብቲ	-2189
▁ዚደልዩ	-2190
▁ዝመልኦ	-2191
▁ዝዓበየ	-2192
ምዎ	-2193
ሪት	-2194
ክት	-2195
ጕል	-2196
▁ምህ	-2197
ሕግዘካ	-2198
▁ኣምለ	-2199
▁ዜፍቅ	-2200
▁ሓጐስን	-2201
▁ዜድልዮም	-2202
▁ዜጠቓልል	-2203
▁እተመስረተ	-2204
ሓዊ	-2205
ራም	-2206
ባሪ	-2207
ብሓ	-2208
ታም	-2209
ብዎም	-2210
▁ሕጉ	-2211
▁ብየ	-2212
▁ብድ	-2213
▁ደቡ	-2214
▁ባህጊ	-2215
▁ተራእ	-2216
▁ንኸነ	-2217
▁ዘይፍ	-2218
▁ሚልዮን	-2219
▁ተጠቒሱ	-2220
ስካ	-2221
ቡን	-2222
ኣቱ	-2223
ዕዞ	-2224
ልታት	-2225
ርዝር	-2226
▁ሰበ	-2227
ተሓሓዝ	-2228
▁ምብራ	-2229
▁ከለኹ	-2230
▁ዘረባ	-2231
▁መጻምድ	-2232
▁ቅዱስን	-2233
▁ብርሃን	-2234
▁ዝነበራ	-2235
▁ጽሑፋዊ	-2236
▁ክርስትና	-2237
▁ዚምልከት	-2238
ነሉ	-2239
ክስ	-2240
የይ	-2241
▁ጸቕ	-2242
▁ሰዓት	-2243
▁ዩኒቨ	-2244
▁ኣጸቢቑ	-2245
ልጦ	-2246
ሬት	-2247
ባረ	-2248
ጻት	-2249
ልክዕ	-2250
▁ሙዚ	-2251
▁ሰሜ	-2252
▁እዋ	-2253
▁ጥዑ	-2254
ታውያን	-2255
ዳስነት	-2256
▁194	-2257
▁መጻሕ	-2258
▁ስቓይ	-2259
▁ጽድቂ	-2260
ንግ	-2261
ዓለ	-2262
▁ሓቢ	-2263
▁ሕክ	-2264
▁ተጸ	-2265
▁ወደ	-2266
▁ኣዝየ	-2267
▁ክንድ	-2268
▁ግናኸ	-2269
▁እንስሳ	-2270
▁ዘይክእ	-2271
▁ይግባእ	-2272
er	-2273
or	-2274
ሰሉ	-2275
ጠና	-2276
▁ቀሊል	-2277
▁ቐንዲ	-2278
▁ዓሚቝ	-2279
▁ዘለና	-2280
▁ማርቆስ	-2281
▁ኪሕግዘና	-2282
▁ዕርክነት	-2283
▁ተመራመርቲ	-2284
ርት	-2285
ሰምዓ	-2286
▁ብኻ	-2287
▁ይስ	-2288
▁ሓቀኛ	-2289
▁ረብሓ	-2290
▁ንብዙ	-2291
▁ጕዕዞ	-2292
▁ኣህዛብ	-2293
▁ድሕርዚ	-2294
▁ጭንቀት	-2295
▁መስጐጕቲ	-2296
▁ብህይወት	-2297
▁ንህይወት	-2298
▁እንገብሮ	-2299
መካ	-2300
ረር	-2301
ሩን	-2302
እምማን	-2303
ገልግሎ	-2304
▁ኢልና	-2305
▁ጥቕሲ	-2306
▁ተሰማሚ	-2307
▁ተጠቒሙ	-2308
▁እተፈልየ	-2309
▁ንእስራኤላውያን	-2310
በብ	-2311
ዮን	-2312
ላታት	-2313
በጽሕ	-2314
▁ዚቕ	-2315
▁ድየ	-2316
▁ይዀኑ	-2317
▁ጀመሩ	-2318
▁ካቶሊክ	-2319
▁ፍቓደኛ	-2320
ርጽ	-2321
ታል	-2322
ትኻ	-2323
ይቶ	-2324
ገር	-2325
▁ሚዛ	-2326
▁ፈቃ	-2327
▁ዜብል	-2328
▁ብምሃብ	-2329
▁ዀይኖም	-2330
▁ዚመጽእ	-2331
▁ጀርመን	-2332
ዋት	-2333
ስተን	-2334
▁ናጽ	-2335
▁ስጋዊ	-2336
▁ቀረባ	-2337
▁ካብኡ	-2338
▁ክልቲ	-2339
▁ዚደሊ	-2340
▁የሱስን	-2341
▁ክንመሃር	-2342
▁ክንዳኡስ	-2343
ww	-2344
ላጽ	-2345
ስፍ	-2346
ድያ	-2347
ጥታት	-2348
▁ሜተር	-2349
▁ብምእ	-2350
▁ኢኹም	-2351
▁ውድብ	-2352
▁ጊልዓ	-2353
▁ሓቅታት	-2354
▁ዚግባእ	-2355
▁ንምንታይ	-2356
ምጽ	-2357
በጽ	-2358
ወሉ	-2359
ርድኦ	-2360
ውዕል	-2361
ጸንሐ	-2362
▁ንተ	-2363
መላለስ	-2364
▁ብዅሉ	-2365
▁ገዛእ	-2366
▁ጐይታ	-2367
▁መራሕቲ	-2368
▁ንህይወ	-2369
▁ዝሃቦም	-2370
▁እንግሊዝኛ	-2371
ሊን	-2372
ሮጳ	-2373
ዳል	-2374
ፍራ	-2375
▁ሱ	-2376
ተንስ	-2377
▁NW	-2378
▁ብጽ	-2379
▁ህዝቅ	-2380
▁ልብና	-2381
▁ናብታ	-2382
▁ግምቢ	-2383
▁ኣዳምን	-2384
▁ማእሰርቲ	-2385
▁ምግልጋል	-2386
▁ርግጸኛታት	-2387
ብዓ	-2388
▁ሓጥ	-2389
▁ይቕ	-2390
ረጋግጽ	-2391
▁ድዮም	-2392
ንጸባርቕ	-2393
▁ምርዳእ	-2394
▁ኺገብር	-2395
▁ዚፍጸም	-2396
▁ጊልዓድ	-2397
▁ምኽንያቱ	-2398
ረስ	-2399
ርዳእ	-2400
ንብብ	-2401
▁ልብ	-2402
▁ሕብ	-2403
▁ምጥ	-2404
▁ንን	-2405
▁ተዋሂ	-2406
▁ደገፍ	-2407
▁ጸላእ	-2408
▁ሓሙሽተ	-2409
▁ትብዓት	-2410
▁ኣመንቲ	-2411
▁ኣስታት	-2412
▁ኣገባብ	-2413
▁ፍርሃት	-2414
▁ስድራቤት	-2415
▁እትቕጽል	-2416
▁ዝነበርኩ	-2417
ለል	-2418
ምሮ	-2419
ረኒ	-2420
እከ	-2421
ሉታዊ	-2422
▁መበ	-2423
▁ቈሎ	-2424
▁አረ	-2425
▁ኪመ	-2426
▁ጥቓ	-2427
ማዕብል	-2428
▁መርዓ	-2429
▁መጥቃ	-2430
▁ዓለምለኻዊ	-2431
ኸዱ	-2432
ወር	-2433
ያሎ	-2434
▁ቪ	-2435
ብሃል	-2436
ብጻሕ	-2437
▁ሮማ	-2438
▁ሰሚ	-2439
▁ኽኢ	-2440
▁ዀኑ	-2441
▁ዳሕ	-2442
ልዮናት	-2443
ስምዖም	-2444
ጋጥሞም	-2445
▁መስተ	-2446
▁ሞትን	-2447
▁ብፍቕ	-2448
▁ተቐቢ	-2449
▁ነተን	-2450
▁ምዃንና	-2451
▁ብቐጻሊ	-2452
ላም	-2453
ማድ	-2454
ሳቐ	-2455
ስኻ	-2456
ያተ	-2457
ፈሉ	-2458
ገርም	-2459
ግብኣ	-2460
▁ልሙ	-2461
▁ብሩ	-2462
▁ዝሕ	-2463
▁ፈላ	-2464
▁ሓጊዙ	-2465
▁ብስም	-2466
▁ናብኡ	-2467
▁እከይ	-2468
▁ወተሃ	-2469
▁ዘይን	-2470
▁ምርኣይ	-2471
▁ንነዊሕ	-2472
▁ዜሐጕስ	-2473
▁የብሉን	-2474
▁ንመጽሓፍ	-2475
▁ኣሕዋትን	-2476
ናግ	-2477
ዶን	-2478
ጅምር	-2479
▁ዓቢ	-2480
▁ድኻ	-2481
ተባብዕ	-2482
▁ተመል	-2483
▁ንውሉ	-2484
▁እናተ	-2485
▁ኪነብሩ	-2486
▁እተፈጸመ	-2487
▁ተኣማንነት	-2488
ለኒ	-2489
ብሎ	-2490
ኽቱ	-2491
ዐኛ	-2492
ቝጸሩ	-2493
▁ዋጋ	-2494
▁195	-2495
▁ምሸት	-2496
▁ሚእታዊት	-2497
▁እምነትን	-2498
▁ንሓድሕዶም	-2499
▁ንመንፈሳዊ	-2500
ሃሉ	-2501
ሰድ	-2502
ዕል	-2503
▁ሻ	-2504
▁ልም	-2505
▁ሕጻ	-2506
▁በታ	-2507
▁ተመዝ	-2508
▁ንመር	-2509
▁ዝበሎ	-2510
▁ዝጀመ	-2511
▁ምንባር	-2512
▁ብምዃን	-2513
ቕቲ	-2514
ዋይ	-2515
ያየ	-2516
ፈሻ	-2517
ኽብር	-2518
▁36	-2519
▁45	-2520
▁ሞሳ	-2521
▁ጠቒ	-2522
▁ሕልና	-2523
▁ርእሱ	-2524
▁ቈሎሴ	-2525
▁ባዕሉ	-2526
▁ዚርአ	-2527
▁ፍልል	-2528
▁ሕግታት	-2529
▁ስልጠና	-2530
▁ሽዱሽተ	-2531
▁ባህርይ	-2532
▁ኣሓትን	-2533
▁ትንቢታት	-2534
ለዉ	-2535
ኩን	-2536
▁B	-2537
194	-2538
▁ብቑ	-2539
▁ፈለ	-2540
▁ሕጡብ	-2541
▁ሙዚቃ	-2542
▁ብምግ	-2543
▁ንኸይ	-2544
▁እኩይ	-2545
▁ዘለኣ	-2546
▁ዘሕለ	-2547
▁ዝመጹ	-2548
▁ገበር	-2549
▁ሰራዊት	-2550
▁ዘይፍጹ	-2551
▁ጥቕስታት	-2552
ሉኡ	-2553
ልአ	-2554
ኸና	-2555
ግደ	-2556
ጽር	-2557
ጠፍእ	-2558
▁ሒዙ	-2559
▁ምል	-2560
▁ኪሎ	-2561
▁ዘጸ	-2562
ውያንን	-2563
▁ሓልዮ	-2564
▁መጽሔ	-2565
▁ዝሓሸ	-2566
▁ጸሓፈ	-2567
▁ስድራቤ	-2568
▁እተጻሕ	-2569
▁ዘመናት	-2570
▁ብትብዓት	-2571
▁ንሰዓብቱ	-2572
ርግ	-2573
በሎ	-2574
ካይ	-2575
ረኽበ	-2576
ፍኣት	-2577
▁መሊ	-2578
▁ኣምላ	-2579
▁ንደቆም	-2580
▁ኣብያተ	-2581
▁ዘብዐኛ	-2582
▁ዘዳግም	-2583
▁ህይወትን	-2584
▁ብዚምልከት	-2585
▁ተገዳስነት	-2586
ይሽ	-2587
▁T	-2588
ሐጕሶ	-2589
ሰርሕ	-2590
▁መጸ	-2591
▁ሞይ	-2592
▁ስጋ	-2593
▁ስጳ	-2594
▁ኣላ	-2595
▁ዚስ	-2596
ጋጥመና	-2597
▁ሃብቲ	-2598
▁እተሓ	-2599
▁ኰይነ	-2600
▁ዕሽሽ	-2601
▁ደሊኻ	-2602
▁ንሓያሎ	-2603
▁ንፈልጥ	-2604
▁ዚርከቡ	-2605
▁ዝለዓለ	-2606
▁ዝገልጽ	-2607
▁ክንረክብ	-2608
▁ኣይክእልን	-2609
ብቂ	-2610
ኒት	-2611
ካል	-2612
ዘራ	-2613
ጠር	-2614
ገልጾ	-2615
▁44	-2616
▁ሰፊ	-2617
▁ቅን	-2618
▁ዜና	-2619
▁ዝን	-2620
▁ዮና	-2621
ላውነት	-2622
▁ብቕን	-2623
▁ትርጉ	-2624
▁ንወለ	-2625
▁ግበር	-2626
▁ዚስምዓ	-2627
▁ስምዒታት	-2628
▁ኣንበብቲ	-2629
▁ዚሕግዘና	-2630
ሳተ	-2631
ውዒ	-2632
ዓይ	-2633
ጡፍ	-2634
በልዎ	-2635
▁38	-2636
▁41	-2637
▁ርሕ	-2638
▁ሰም	-2639
▁ኣመሓ	-2640
▁ኣንስቲ	-2641
▁ኺገብሩ	-2642
ለዎ	-2643
ረጽ	-2644
ነኽ	-2645
ኻኸ	-2646
ዝያ	-2647
▁ጣ	-2648
ድሕሪ	-2649
▁ሳል	-2650
▁ልባዊ	-2651
▁ኽቡር	-2652
▁ዘቕረ	-2653
▁ሰባትን	-2654
▁ዚገብሩ	-2655
▁ንክርስትያናት	-2656
ሩብ	-2657
በላ	-2658
ኸፍ	-2659
▁ኔ	-2660
ምራሕ	-2661
▁መና	-2662
▁ብው	-2663
▁እምን	-2664
▁ዝርከ	-2665
▁ጽልኢ	-2666
▁ቐዳማይ	-2667
▁እተሓት	-2668
▁ዝኸኣለ	-2669
▁ዜመልክት	-2670
▁ክርስቶስን	-2671
ፍር	-2672
ተይን	-2673
ትኩም	-2674
▁ኣዒ	-2675
▁ክፉ	-2676
▁ኣስፋ	-2677
▁ኣይኪ	-2678
▁ኣርእዩ	-2679
▁ዘርኣየ	-2680
▁ዚምህር	-2681
▁የጠቓልል	-2682
ኪና	-2683
ወግ	-2684
ይሩ	-2685
ጋም	-2686
ግሳ	-2687
ህናት	-2688
ነትና	-2689
▁ርኽ	-2690
▁ኣረ	-2691
ፈልጥን	-2692
▁ልሙድ	-2693
▁ቕኑዕ	-2694
▁ጸቕጢ	-2695
▁ሕክምና	-2696
▁ብሓባር	-2697
▁ትኸውን	-2698
▁ኵላትና	-2699
▁መጥቃዕቲ	-2700
▁ነጥብታት	-2701
▁ክትከውን	-2702
▁ኣገዳስነት	-2703
ድሕን	-2704
ገልጹ	-2705
ጽኣሉ	-2706
▁ብገ	-2707
▁ዮሃ	-2708
ኽንያት	-2709
▁መሲሕ	-2710
▁ቕዱስ	-2711
▁ኴንና	-2712
▁ደሴት	-2713
▁ጥብቂ	-2714
▁ሕጉሳት	-2715
▁ተመሃሮ	-2716
▁ኣስተብ	-2717
▁ኣዕሩኽ	-2718
▁ይርከብ	-2719
▁ብምኽንያት	-2720
ለዩ	-2721
ቅን	-2722
ተት	-2723
ደና	-2724
▁ላ	-2725
▁–	-2726
ግበረ	-2727
▁43	-2728
▁ትም	-2729
▁እኹ	-2730
ጽንናዕ	-2731
▁መምህ	-2732
▁እያሱ	-2733
▁ዘድል	-2734
▁ሓደስቲ	-2735
▁ብኻልእ	-2736
▁ክእለት	-2737
▁ዚብሃል	-2738
▁መጻሕፍቲ	-2739
▁ኣገልግሎቱ	-2740
ቝባ	-2741
ሽሓት	-2742
ናድዎ	-2743
▁ብጥ	-2744
▁ከላ	-2745
▁ዲና	-2746
▁ልዑል	-2747
▁ሓዘን	-2748
▁በሎም	-2749
▁ትእዛ	-2750
▁ንምግ	-2751
▁ከለኻ	-2752
▁ዅሎም	-2753
▁ዓመጻ	-2754
▁ወለደይ	-2755
▁ዚነብር	-2756
▁ተኣምራት	-2757
▁ዝነበረሉ	-2758
▁መወዳእታኡ	-2759
ርሲ	-2760
ስጢ	-2761
ብላ	-2762
ንብ	-2763
ጉይ	-2764
ጣዊ	-2765
ስዕቡ	-2766
በርት	-2767
▁50	-2768
▁ኣሳ	-2769
▁ህያው	-2770
▁ተሰሚ	-2771
▁ንወዱ	-2772
▁ዝስሙ	-2773
▁ዝኣተ	-2774
▁ማርያም	-2775
▁ቤትኤል	-2776
▁ተመዝጊ	-2777
▁ፍጥረት	-2778
▁እንተላይ	-2779
▁ጥንታዊት	-2780
▁ዘለኣለማዊ	-2781
ራሒ	-2782
ስዎ	-2783
ትር	-2784
የን	-2785
▁A	-2786
▁ዎ	-2787
ሰምዑ	-2788
ሰብኽ	-2789
ትንክ	-2790
ጠባዊ	-2791
▁ኣጠ	-2792
▁ዚፈ	-2793
▁ላዕሊ	-2794
▁ቤተይ	-2795
▁እተነ	-2796
▁ኽፍሊ	-2797
▁የብል	-2798
▁ገላት	-2799
▁ፈረን	-2800
ተኣማመን	-2801
▁ተቐባል	-2802
▁ዝርዝር	-2803
▁ግብራዊ	-2804
ሓሰ	-2805
ብዩ	-2806
እት	-2807
ካፍ	-2808
ዳሪ	-2809
ድኩ	-2810
195	-2811
ላውን	-2812
▁ኢለ	-2813
ገልገል	-2814
▁ኣደይ	-2815
▁እተኣ	-2816
▁ወለዶ	-2817
▁ዕቝባ	-2818
▁ፍሉጥ	-2819
▁መምህር	-2820
▁ቅቡኣት	-2821
▁ብጸሎት	-2822
▁ዚገብሮ	-2823
▁ይገብሩ	-2824
▁ዳሕሮት	-2825
▁ገላትያ	-2826
▁ሕያውነት	-2827
▁መሰናድዎ	-2828
▁ይሕግዘና	-2829
ሕድ	-2830
ማጦ	-2831
ምካ	-2832
ሮን	-2833
ስያ	-2834
ቕና	-2835
ብዳ	-2836
ነይ	-2837
ክሲ	-2838
ጐድ	-2839
ጸሉ	-2840
▁ቻ	-2841
ስምዖ	-2842
▁መድ	-2843
▁ሰን	-2844
▁ሳላ	-2845
▁ስሙ	-2846
▁ቐጺ	-2847
▁ኣወ	-2848
▁ምዃና	-2849
▁ንቓል	-2850
▁ኣበይ	-2851
▁ዜድሊ	-2852
▁ዝጸሓ	-2853
▁ድልዱ	-2854
▁ፍትሒ	-2855
▁ምዉታት	-2856
▁ርእይቶ	-2857
▁ብግቡእ	-2858
▁ኣካላዊ	-2859
▁ዓንቀጻት	-2860
▁ዚገብርዎ	-2861
ረይ	-2862
ቛሒ	-2863
ታዐ	-2864
ኣዊ	-2865
ኰሰ	-2866
ኽዎ	-2867
ብባዕ	-2868
ክብብ	-2869
ወሳኺ	-2870
ደበት	-2871
▁ማሪ	-2872
▁ብደ	-2873
▁ብጻ	-2874
▁የል	-2875
▁ፈሪ	-2876
▁ረቛሒ	-2877
▁ኣቦና	-2878
▁እኹል	-2879
▁ይመስ	-2880
▁መክብብ	-2881
▁ምንታይ	-2882
▁ርእስና	-2883
▁ኣሉታዊ	-2884
▁ኪበሃል	-2885
▁ጥምቀት	-2886
▁ጥፍኣት	-2887
▁እትበሃል	-2888
▁ዝገበርዎ	-2889
ቃን	-2890
ቦት	-2891
ነቕ	-2892
ደልድ	-2893
ፍጽሞ	-2894
▁ሃበ	-2895
▁ከደ	-2896
▁ይፈ	-2897
▁ድም	-2898
▁ምስጋ	-2899
▁ተደሪ	-2900
▁ዕንቅ	-2901
▁ምንባሩ	-2902
▁ዓለማዊ	-2903
▁ዝበሃል	-2904
▁ይስምዓ	-2905
▁ለውጥታት	-2906
▁ዜጋጥሞም	-2907
▁ተቐባልነት	-2908
▁ኣገልገልቱ	-2909
ንጋ	-2910
ኦን	-2911
ይር	-2912
ጻወ	-2913
ታቱን	-2914
ዀነና	-2915
▁ነህ	-2916
▁ወድ	-2917
ገብረሉ	-2918
▁መደም	-2919
▁ግጉይ	-2920
▁ምርምር	-2921
▁ሸቶታት	-2922
▁ኣየናይ	-2923
▁ዝገብር	-2924
▁ብዛዕባኡ	-2925
▁ምኽንያታት	-2926
ለጽ	-2927
መራ	-2928
ውድ	-2929
ፍዎ	-2930
ፎን	-2931
ማትን	-2932
ጸልዎ	-2933
▁ብሪ	-2934
▁ተራ	-2935
▁ትጽ	-2936
▁ማእከ	-2937
▁ብእኡ	-2938
▁ነባሪ	-2939
▁እናኣ	-2940
▁ምድርን	-2941
▁ትርጉም	-2942
▁ኣዝዮም	-2943
▁ኣይከኣ	-2944
▁ጸሓፍቲ	-2945
▁ፍቕራዊ	-2946
▁መደምደም	-2947
▁ብተወሳኺ	-2948
▁እተጠቕሰ	-2949
▁የብልናን	-2950
▁ኣጋጣሚታት	-2951
ቲን	-2952
የት	-2953
org	-2954
መርሓ	-2955
ሞንተ	-2956
▁ብዜ	-2957
▁ዝቘ	-2958
▁ደው	-2959
▁መስከ	-2960
▁ብምፍ	-2961
▁ብእም	-2962
▁ዜኽእ	-2963
▁ደቆም	-2964
▁ምሁራት	-2965
▁ዘደንቕ	-2966
▁ዘጸኣት	-2967
▁ተመዝጊቡ	-2968
▁ሃይማኖታት	-2969
▁መደምደምታ	-2970
▁ምትእምማን	-2971
es	-2972
ማም	-2973
ክቶ	-2974
ካፈል	-2975
▁ሓሊ	-2976
▁ሽግ	-2977
▁በጽ	-2978
▁ተበ	-2979
▁ምባል	-2980
▁ብምት	-2981
▁እተማ	-2982
▁ማእከል	-2983
▁ብርታዐ	-2984
▁ዝገለጾ	-2985
▁የልቦን	-2986
▁ፍልልይ	-2987
▁ዘይብሎም	-2988
▁እተመርኰሰ	-2989
ሓር	-2990
ምያ	-2991
ወሃ	-2992
ጽዎ	-2993
ሐጕሰ	-2994
ሕግዙ	-2995
ሰማም	-2996
ትንስ	-2997
ኮታዊ	-2998
ግሳጽ	-2999
▁ሰነ	-3000
▁ተን	-3001
▁ኰኑ	-3002
▁ዕረ	-3003
▁ፈሊ	-3004
▁ብቑዕ	-3005
▁ብድሆ	-3006
▁ንምዕ	-3007
▁ማሕበር	-3008
▁ምርካብ	-3009
▁ረኺቦም	-3010
▁እኩያት	-3011
▁ኪረኽቡ	-3012
መኑ	-3013
▁S	-3014
ያዝያ	-3015
ፍጽሙ	-3016
▁42	-3017
▁በሎ	-3018
▁ደጊ	-3019
▁ፈር	-3020
▁ህዝቡ	-3021
▁ባርያ	-3022
▁ብኡን	-3023
▁ንምዃ	-3024
▁መልኣኽ	-3025
▁ኣንጻር	-3026
▁ሰበይትን	-3027
▁እተዛረቦ	-3028
መኒ	-3029
ርድኣ	-3030
ሳሰል	-3031
ኰኑን	-3032
ዝዎም	-3033
ዳዊት	-3034
▁ዓሌ	-3035
▁ዘተ	-3036
▁ዚበ	-3037
▁ዚኣ	-3038
▁መደብ	-3039
▁ስጳኛ	-3040
▁ንምን	-3041
ገልግልዎ	-3042
▁መርከብ	-3043
▁ምቕባል	-3044
▁ምብራቕ	-3045
▁ሳዕቤን	-3046
▁ወተሃደ	-3047
▁ዕግበት	-3048
▁ብኡንብኡ	-3049
▁ንብዙሓት	-3050
▁ኣይነበሮ	-3051
ልዕ	-3052
ልድ	-3053
ሒፉ	-3054
ራሽ	-3055
ውና	-3056
ይዳ	-3057
ፋን	-3058
ጥቀሙሉ	-3059
▁ብዘላ	-3060
▁ተኣከ	-3061
▁ኣንስ	-3062
▁እዚኸ	-3063
▁ዚምህ	-3064
▁ዝወረ	-3065
▁ደብዳ	-3066
▁ብኣንጻ	-3067
▁ናጽነት	-3068
▁ኤልያስ	-3069
▁ክገብር	-3070
▁ምጽንናዕ	-3071
▁ኣምለኽቲ	-3072
▁ዘይፍጹማት	-3073
at	-3074
on	-3075
ሃህ	-3076
ዉት	-3077
ዕር	-3078
ስዕቦ	-3079
ብርን	-3080
▁ብቐዳ	-3081
▁እተዳ	-3082
▁ፈተው	-3083
▁ባህርያ	-3084
▁ብምዃኑ	-3085
▁ተቐማጦ	-3086
▁ተኣዛዝ	-3087
▁ብኣንጻሩ	-3088
▁ዝኣመሰሉ	-3089
መነ	-3090
ተኛ	-3091
ነሱ	-3092
ኖስ	-3093
ዝና	-3094
▁ምኻ	-3095
▁ብሃ	-3096
▁ተጓ	-3097
▁ጸል	-3098
▁ፍጡ	-3099
ዋጽኣሉ	-3100
▁ሳኦል	-3101
▁ኣረጋ	-3102
▁ፓይነ	-3103
▁ሚያዝያ	-3104
▁ኣጋጢሙ	-3105
▁እብራይ	-3106
▁ይፈልጡ	-3107
▁ሰብኣይን	-3108
▁ነገራትን	-3109
▁ንምፍጻም	-3110
▁ብቐዳምነት	-3111
ላስ	-3112
ሌዋ	-3113
ልጢ	-3114
ውጽ	-3115
ዓዊ	-3116
▁ጎ	-3117
ሓልየ	-3118
ዝክር	-3119
▁መበቈ	-3120
▁ምምር	-3121
▁ብሓደ	-3122
▁ናይዚ	-3123
▁ዝሃበ	-3124
▁ዝወሰ	-3125
▁ዝገደ	-3126
▁ድሌት	-3127
▁መዝገብ	-3128
▁ብቛንቋ	-3129
▁ብፍቕሪ	-3130
▁ንርእስ	-3131
▁ዘጋጠሞ	-3132
▁ባህርያዊ	-3133
▁ዝነበረኒ	-3134
ኸብ	-3135
ዩን	-3136
▁ፒ	-3137
ሎንቄ	-3138
ነተይ	-3139
ጥቃም	-3140
▁ስዒ	-3141
▁ክብ	-3142
▁ድሮ	-3143
ርዓታት	-3144
▁ረኸበ	-3145
▁ሰራሕ	-3146
▁ቤቶም	-3147
▁ንምው	-3148
▁ንዓይ	-3149
▁ንገሊ	-3150
▁ምንባብ	-3151
▁ርእስኻ	-3152
▁ዘይብል	-3153
▁ዚመስል	-3154
▁ዜጋጥም	-3155
▁ደብዳበ	-3156
▁ተሰሎንቄ	-3157
▁እምነቶም	-3158
▁ዘይክእል	-3159
▁ፖለቲካዊ	-3160
ንቱ	-3161
ዓር	-3162
ልጡፍ	-3163
ሙናት	-3164
ጥፍኦ	-3165
▁ሃጸ	-3166
▁ማቴ	-3167
▁ሳይ	-3168
▁ናጻ	-3169
▁ዝር	-3170
▁ይመ	-3171
ድርኸና	-3172
▁ማኪና	-3173
▁ብምው	-3174
▁ተመሊ	-3175
▁ነሓሰ	-3176
▁ኣቕረ	-3177
▁ክቡር	-3178
▁ዓወት	-3179
▁ዚምር	-3180
▁ዝንባ	-3181
▁ፍቓዱ	-3182
▁ብሓፈሻ	-3183
▁ከነርኢ	-3184
▁ውሽጣዊ	-3185
▁ዜገርም	-3186
20	-3187
ሩይ	-3188
ጨን	-3189
ፈን	-3190
▁ዴ	-3191
ቕርቦ	-3192
▁ሞቱ	-3193
▁ስር	-3194
▁ቘልዑ	-3195
▁ኣሕሊ	-3196
▁ኰንኩ	-3197
▁ዀይነ	-3198
▁ወፈያ	-3199
▁ሓጢኣትን	-3200
▁ኣይኰኑን	-3201
▁ኽትከውን	-3202
▁ኽንምርምር	-3203
ልፊ	-3204
ራሐ	-3205
ስዐ	-3206
ቃቐ	-3207
ተና	-3208
ጦም	-3209
ፋእ	-3210
▁ቴ	-3211
▁ቶ	-3212
▁ዊ	-3213
ላዕለ	-3214
ጋጥም	-3215
▁ቈረ	-3216
▁ብወ	-3217
▁ዓው	-3218
▁ሰላማ	-3219
▁ኸለና	-3220
ተኣማምን	-3221
▁ተጠንቂ	-3222
▁ዘላትና	-3223
▁ዚኣምኑ	-3224
▁ህይወትካ	-3225
▁ኣመሓዳሪ	-3226
▁ከይጸንሐ	-3227
▁ንእተወሰነ	-3228
jw	-3229
ሕሉ	-3230
ሪስ	-3231
ዕዎ	-3232
ይና	-3233
199	-3234
ኮላዊ	-3235
ይዎም	-3236
▁ሓጋ	-3237
▁መጋ	-3238
▁ጥሪ	-3239
ራጽነት	-3240
▁ስብከ	-3241
▁ሸነኽ	-3242
▁ቐረባ	-3243
▁ብምቕ	-3244
▁ተዛረ	-3245
▁እተጠ	-3246
▁ካብታ	-3247
▁ክእለ	-3248
▁ዛንታ	-3249
▁ዝሓደ	-3250
▁ፈቃር	-3251
ደተኛታት	-3252
▁በየናይ	-3253
▁ኣገልጊ	-3254
▁ይኣምኑ	-3255
▁ጥንታዊ	-3256
▁ሓደጋታት	-3257
▁መስከረም	-3258
▁ቀዳምነት	-3259
▁መንፈሳውያን	-3260
ch	-3261
en	-3262
ስል	-3263
ሽቱ	-3264
በዮ	-3265
ባህ	-3266
ቤል	-3267
ኣሉ	-3268
እተ	-3269
ካዮ	-3270
ዀን	-3271
▁ዞ	-3272
መርጽ	-3273
በትን	-3274
ውዕሎ	-3275
▁ሓን	-3276
▁ንፉ	-3277
▁ደይ	-3278
▁ፖሊ	-3279
▁193	-3280
▁መሪሕ	-3281
▁በቶም	-3282
▁ኣይኰ	-3283
▁ተግሳጽ	-3284
▁ኣብዘን	-3285
▁እምንቶ	-3286
▁ዕላማኡ	-3287
▁ዕረፍቲ	-3288
▁ዚከኣል	-3289
▁ቋንቋታት	-3290
▁ብኣምላኽ	-3291
▁ክትረክብ	-3292
▁ዘይነበረ	-3293
▁ጸብጻባት	-3294
ቅዕ	-3295
ባኽ	-3296
ነታ	-3297
ጋር	-3298
ጻረ	-3299
ስትራ	-3300
ባህር	-3301
ክያስ	-3302
ውስቦ	-3303
▁39	-3304
▁መማ	-3305
▁ሜላ	-3306
▁ኣዚ	-3307
▁ኻባ	-3308
▁ይፍ	-3309
ረጋግጸ	-3310
ፈላለየ	-3311
▁ሰፊሕ	-3312
▁ቘልዓ	-3313
▁ሓጊዙኒ	-3314
▁ነገስት	-3315
▁እዋናት	-3316
▁መለኮታዊ	-3317
▁ቛንቋታት	-3318
▁ነይርዎም	-3319
▁ምስክርነት	-3320
ንዳ	-3321
የር	-3322
ጹን	-3323
▁መግ	-3324
▁ብቓ	-3325
▁ኣቋ	-3326
▁ኪሕ	-3327
▁ዝሞ	-3328
▁መራሒ	-3329
▁ኣውራ	-3330
▁ዝጠቐ	-3331
▁ዝፈጠ	-3332
▁ሚክያስ	-3333
▁ሸሞንተ	-3334
▁ብምሉኡ	-3335
▁ተራእዩ	-3336
▁ንስኻኸ	-3337
▁ዚኣክል	-3338
▁ንእግዚኣብሄር	-3339
18	-3340
ልኣ	-3341
ቀት	-3342
ጎም	-3343
▁M	-3344
ለኻኽ	-3345
ምጋም	-3346
▁48	-3347
▁ተዘ	-3348
▁ኸደ	-3349
▁ጸጋ	-3350
ውነትን	-3351
▁መዋእ	-3352
▁ምስታ	-3353
▁ምስጢ	-3354
▁ባህሪ	-3355
▁ብምጥ	-3356
▁ወሰን	-3357
▁ጀሚሩ	-3358
▁ሕብረተ	-3359
▁ብሓገዝ	-3360
▁ነህምያ	-3361
▁ንዳዊት	-3362
▁እዚአን	-3363
▁ጕድኣት	-3364
▁ኣልኮላዊ	-3365
▁ፍቓደኛታት	-3366
le	-3367
ርሻ	-3368
ቃዊ	-3369
ቡሉ	-3370
ናኸ	-3371
ዝሕ	-3372
የኒ	-3373
ደለ	-3374
ህብዎ	-3375
ሕግዞ	-3376
ምጽኦ	-3377
ናትን	-3378
▁ልቡ	-3379
▁ሓሲ	-3380
▁ብሚ	-3381
▁ብራ	-3382
ረጋገጸ	-3383
ግብኣና	-3384
▁ልደት	-3385
▁መጺኡ	-3386
▁ክዀኑ	-3387
▁ፈለጥ	-3388
▁ምስትን	-3389
▁ምድራዊ	-3390
▁ብየሆዋ	-3391
▁ትሑታት	-3392
▁ኣብቶም	-3393
▁ኣተባብ	-3394
▁ኣውሮጳ	-3395
▁ምትብባዕ	-3396
▁ንእምነት	-3397
▁የድልየና	-3398
▁እብራይስጢ	-3399
to	-3400
ur	-3401
ላዉ	-3402
ረጸ	-3403
ገን	-3404
▁©	-3405
ልያዊ	-3406
▁ሕሙ	-3407
▁ምሂ	-3408
▁በጺ	-3409
▁ኮም	-3410
▁ይብ	-3411
▁ሕሰብ	-3412
▁ምዕባ	-3413
▁ብምም	-3414
▁ይነግ	-3415
▁ደቡብ	-3416
▁ግለጽ	-3417
▁ሰዓታት	-3418
▁ዝንባለ	-3419
▁ዝግበር	-3420
▁ንምሕጋዝ	-3421
▁ንትምህር	-3422
▁እምነትና	-3423
▁እተዋህበ	-3424
▁እንረክብ	-3425
▁ኣገልግሎትና	-3426
ሓሉ	-3427
ሓዘ	-3428
ሙሴ	-3429
ረድ	-3430
ታተ	-3431
ካዶ	-3432
ኻእ	-3433
ጐሱ	-3434
▁ቆ	-3435
▁ጂ	-3436
ዙዛት	-3437
▁መጺ	-3438
▁ሩት	-3439
▁ኣከ	-3440
▁ኺመ	-3441
▁ጽም	-3442
ማስወሉ	-3443
▁ቀጺሉ	-3444
▁ንምቕ	-3445
▁ንጹህ	-3446
▁ኣርማ	-3447
▁ዚህብ	-3448
▁ዚጽበ	-3449
▁ዮርክ	-3450
▁ንህዝቢ	-3451
▁ንገዛእ	-3452
▁ድሕነት	-3453
▁ኣመለኻኽ	-3454
▁እተጻሕፈ	-3455
▁ኽንረክብ	-3456
▁የድልዮም	-3457
▁ተመክሮታት	-3458
▁እተሓትመት	-3459
ማዊ	-3460
ጥታ	-3461
ፋይ	-3462
▁ቱ	-3463
ሕልዉ	-3464
ረባብ	-3465
ብናዮ	-3466
▁ብና	-3467
▁ተዳ	-3468
▁ታሪ	-3469
▁ኢጣ	-3470
▁ዚም	-3471
▁ግሪ	-3472
▁100	-3473
▁ሕጉስ	-3474
▁ነበራ	-3475
▁እተወ	-3476
▁ገይረ	-3477
▁ኻልኣይ	-3478
▁ዚርከባ	-3479
▁ዝሃበና	-3480
▁ድልዱል	-3481
▁ጀመረት	-3482
▁ምሳታቶም	-3483
▁ኣበርክቶ	-3484
▁ኣውስትራ	-3485
▁ዜድልየና	-3486
▁ዜጋጥመና	-3487
15	-3488
ላኢ	-3489
ረቱ	-3490
ቀራ	-3491
ነብ	-3492
ጸግ	-3493
ፍአ	-3494
▁C	-3495
▁ኡ	-3496
ላትን	-3497
ስታን	-3498
በልና	-3499
ብርሃ	-3500
▁ሃና	-3501
▁ሓገ	-3502
▁ኪወ	-3503
ህልወካ	-3504
▁ልቦም	-3505
▁ሰማዕ	-3506
▁ንኸተ	-3507
▁ዚህቦ	-3508
▁ዝደሊ	-3509
▁ይህብ	-3510
▁ሂብዎም	-3511
▁መዝነት	-3512
▁መጽሔት	-3513
▁ንምዃን	-3514
▁ኣውራጃ	-3515
▁ጻድቃን	-3516
▁ህዝቅኤል	-3517
▁ትፈልጥዶ	-3518
▁ውጽኢታዊ	-3519
▁ዩኒቨርስ	-3520
▁ስደተኛታት	-3521
ቀር	-3522
ንበ	-3523
ልዎም	-3524
ታትና	-3525
ዳቶም	-3526
ጌዶን	-3527
ጽልዩ	-3528
▁60	-3529
▁ሓኪ	-3530
▁ተለ	-3531
▁ኢድ	-3532
▁ዚሓ	-3533
▁ገዲ	-3534
ቈጻጸሮ	-3535
▁ስለቲ	-3536
▁ኣለኹ	-3537
▁ካርታ	-3538
▁ኰይና	-3539
▁ጠንቂ	-3540
▁ፈላሚ	-3541
▁ብዕድመ	-3542
▁እተወል	-3543
▁ዘይፍት	-3544
▁ዚሕብሮ	-3545
▁ዚረኽቡ	-3546
▁ይሕብር	-3547
▁ሚስዮናዊ	-3548
▁ብእምነት	-3549
▁ጳውሎስን	-3550
▁እንስሳታት	-3551
ra	-3552
ሮስ	-3553
ክሎ	-3554
ጥዓ	-3555
193	-3556
ክሲኮ	-3557
▁ሽሕ	-3558
▁ተቓ	-3559
▁ድሉ	-3560
ጥንቀቕ	-3561
▁ልማድ	-3562
▁ብጥን	-3563
▁ነዞም	-3564
▁ዘይኰ	-3565
▁ገበሩ	-3566
▁ምስጋና	-3567
▁ንልዕሊ	-3568
▁ዝኽእሉ	-3569
▁ዝዀነሉ	-3570
▁ግንቦት	-3571
▁ዚተሓሓዝ	-3572
በኽ	-3573
ቲት	-3574
ዓዙ	-3575
ዕቅ	-3576
ዳኢ	-3577
▁ሐ	-3578
ጕልሕ	-3579
▁1,	-3580
▁ታሕ	-3581
▁ክቕ	-3582
▁ኽእ	-3583
▁ዓር	-3584
▁ጣኦ	-3585
ንጸባረ	-3586
▁ህንጻ	-3587
▁ቤቱን	-3588
▁ብምጽ	-3589
▁ተመደ	-3590
▁ንምም	-3591
▁ወይኒ	-3592
▁ዝፈጸ	-3593
▁ድምጺ	-3594
▁ገዛኢ	-3595
ሌዋውያን	-3596
▁ኣነባብ	-3597
▁ይረኽቡ	-3598
▁ብምንባሩ	-3599
▁እትኸውን	-3600
▁ንኣገልገል	-3601
▁ብእተፈላለየ	-3602
ቶን	-3603
ዓቢ	-3604
ዕቍ	-3605
ደኣ	-3606
ገስ	-3607
ጸለ	-3608
ፊሑ	-3609
197	-3610
መስሎ	-3611
ረትን	-3612
በልጽ	-3613
ኽእሎ	-3614
ውዓተ	-3615
▁ምክ	-3616
▁ንዜ	-3617
▁ዕል	-3618
▁ዝኽ	-3619
▁ጥር	-3620
ረኽብዎ	-3621
▁ሓምለ	-3622
▁ቀደም	-3623
▁ብሓድ	-3624
▁ትሑት	-3625
▁ንልቢ	-3626
▁ኣሎዶ	-3627
▁ኣመና	-3628
▁ኣየር	-3629
▁ክፉእ	-3630
▁ጥበበ	-3631
▁ጥዑይ	-3632
▁መዋእል	-3633
▁ሚዛናዊ	-3634
▁ምምራጽ	-3635
▁ስምረት	-3636
▁ብጾትና	-3637
▁ንኣሽቱ	-3638
▁ኣዋርሕ	-3639
▁ጥበብን	-3640
▁ነገስታት	-3641
▁ንርእስኻ	-3642
▁ኣይፈልጥን	-3643
▁መስዋእትታት	-3644
ሕዝ	-3645
ውዎ	-3646
ራርባ	-3647
ቅምቲ	-3648
▁ርሒ	-3649
▁ዘካ	-3650
▁ዚዝ	-3651
▁ግፍ	-3652
ርድእዎ	-3653
ገብረና	-3654
▁ሃቦም	-3655
▁ሕጋዊ	-3656
▁መናፍ	-3657
▁ምስት	-3658
▁ምፍላ	-3659
▁ተረዲ	-3660
▁ንነፍ	-3661
▁ኻብዚ	-3662
▁ሓልዮት	-3663
▁ሳልሳይ	-3664
▁ቅድሚኡ	-3665
▁ንስምዒ	-3666
▁እኽእል	-3667
▁ዚቝጸሩ	-3668
▁ድልድል	-3669
▁ማእከላይ	-3670
▁ምፍላጥና	-3671
▁ንመርምር	-3672
▁እንተደኣ	-3673
ib	-3674
ማቕ	-3675
ምሩ	-3676
ርቱ	-3677
ስፒ	-3678
ሽን	-3679
ክራ	-3680
ኽኣ	-3681
ዛር	-3682
ስተብ	-3683
ብረና	-3684
ግለጽ	-3685
ፈትዎ	-3686
▁ብኽ	-3687
▁ተቘ	-3688
▁ኪው	-3689
▁ዚጽ	-3690
ልኦትን	-3691
ረጋገጺ	-3692
▁ለይቲ	-3693
▁መደረ	-3694
▁ነዘን	-3695
▁ኣጽዋ	-3696
▁ኪህሉ	-3697
▁ዚድግ	-3698
▁ሓርነት	-3699
▁ብሓቂዶ	-3700
▁ንምምላ	-3701
▁ኣባይቲ	-3702
▁እተራእ	-3703
▁ኺህልዎ	-3704
▁ዝርርብ	-3705
▁መረጋገጺ	-3706
▁ኬጋጥመና	-3707
▁መምርሒታት	-3708
▁መብጽዓታት	-3709
▁ዜተኣማምን	-3710
▁ኣውስትራልያ	-3711
60	-3712
ct	-3713
ሰይ	-3714
ውል	-3715
ዕዘ	-3716
ያይ	-3717
ይይ	-3718
ንቀው	-3719
ጥመቕ	-3720
▁መዲ	-3721
▁መጹ	-3722
▁ርት	-3723
▁በዳ	-3724
▁ንማ	-3725
▁ኺወ	-3726
▁ፍጽ	-3727
▁ሓኪም	-3728
▁ሓጋዚ	-3729
▁ብሃን	-3730
▁ንሓቂ	-3731
▁ንባብ	-3732
▁ኣዝያ	-3733
▁ወሲዱ	-3734
▁ዚህሉ	-3735
▁ድሕን	-3736
▁ጻዕር	-3737
▁ዜምጽእ	-3738
▁መምህራን	-3739
▁ብትሕትና	-3740
▁ንሕናውን	-3741
▁እተረኽበ	-3742
▁እተገልጸ	-3743
▁እንርእዮ	-3744
▁ዕንቅፋት	-3745
▁ሓላፍነታት	-3746
▁ኣርማጌዶን	-3747
ዋም	-3748
ዓሉ	-3749
ዝሒ	-3750
የል	-3751
ዩኒ	-3752
ድኻ	-3753
▁ቡ	-3754
200	-3755
ሕድር	-3756
ምለሱ	-3757
ውጽእ	-3758
ግብኦ	-3759
▁46	-3760
▁ምብ	-3761
▁ኪስ	-3762
▁ካባ	-3763
▁ድኣ	-3764
▁ጃፓ	-3765
ሰምዓኒ	-3766
ሳውያን	-3767
ተሓሓዘ	-3768
▁ሂቡና	-3769
▁ሓብቲ	-3770
▁ሩስያ	-3771
▁ንኣቦ	-3772
▁ንዘሎ	-3773
▁ኣድል	-3774
▁ውሉድ	-3775
ገልጸልና	-3776
▁መውስቦ	-3777
▁ምጽራር	-3778
▁ሰዓብቱ	-3779
▁ንዓለም	-3780
▁ኽገብር	-3781
▁ዜጸናን	-3782
▁ጥቅምቲ	-3783
▁ብምእታው	-3784
▁ዘይብልና	-3785
ቅም	-3786
ንጠ	-3787
እቱ	-3788
ወና	-3789
ዳም	-3790
ጋጮ	-3791
ጽግ	-3792
ንዘቡ	-3793
▁ወፍ	-3794
▁ይሓ	-3795
▁ጆን	-3796
ኽእልን	-3797
▁ሆስፒ	-3798
▁ንኸም	-3799
▁ኣይፈ	-3800
▁ኸለኹ	-3801
▁ጽኑዕ	-3802
▁መበቈል	-3803
▁ሰሜናዊ	-3804
▁ሰበይቱ	-3805
▁ትጽቢት	-3806
▁ኢንሳይ	-3807
▁ኺገልጽ	-3808
▁ውጽኢቱ	-3809
▁ዝቐረበ	-3810
▁ይህበና	-3811
▁ይቕረታ	-3812
▁ብጥንቃቐ	-3813
▁ተኣከብቲ	-3814
▁ኣሕዋትና	-3815
▁ስርዓታትን	-3816
▁ንክርስቶስ	-3817
ላኸ	-3818
ስብ	-3819
ትካ	-3820
ዳዊ	-3821
ጕህ	-3822
ሕልፍ	-3823
ከይድ	-3824
ያዊት	-3825
▁ሓወ	-3826
▁ኺው	-3827
ራውያን	-3828
ትንስኡ	-3829
▁ማዕዳ	-3830
▁ምልክ	-3831
▁ትርኢ	-3832
▁ትደሊ	-3833
▁ኣማል	-3834
▁ኣብኣ	-3835
▁ኣዝማ	-3836
▁ደምበ	-3837
▁ብልክዕ	-3838
▁ተመርኲ	-3839
▁ተደሪኹ	-3840
▁ኢጣልያ	-3841
▁ከምቶም	-3842
▁ክበሃል	-3843
▁ዘካርያ	-3844
▁ዚሓትት	-3845
▁ድኽነት	-3846
▁ይመስለካ	-3847
▁ብሃንደበት	-3848
ልኩ	-3849
ቐደ	-3850
ቓቕ	-3851
ንዱ	-3852
ኣያ	-3853
ጅን	-3854
ገለ	-3855
ግሪ	-3856
▁I	-3857
www	-3858
ልጣን	-3859
በራዊ	-3860
ዝክሮ	-3861
▁ሉቃ	-3862
▁ነጊ	-3863
▁ኣዲ	-3864
ምልላስ	-3865
▁ቤትካ	-3866
▁ኔርና	-3867
▁ንብጻ	-3868
▁ንጥቕ	-3869
▁አሎኹ	-3870
▁ይምህ	-3871
▁ይደሊ	-3872
▁ፈታዊ	-3873
▁ፍቕሩ	-3874
ምጽኣልና	-3875
▁1990	-3876
▁መዘናግ	-3877
▁ምፍጻም	-3878
▁ቍጠባዊ	-3879
▁ንረክብ	-3880
▁ኣበርቲ	-3881
▁ኣቢሎም	-3882
▁ኣንስት	-3883
▁ኣዳራሽ	-3884
▁ዘይኰኑ	-3885
▁ደድሕሪ	-3886
▁ጸኒሖም	-3887
▁ኽትገብር	-3888
▁ፍልጠትን	-3889
▁መንግስታት	-3890
▁ስጕምትታት	-3891
ሑን	-3892
ሕጸ	-3893
ባን	-3894
ናሕ	-3895
ዕካ	-3896
የረ	-3897
የካ	-3898
ጽኡ	-3899
ፍና	-3900
ሃትን	-3901
ህበሉ	-3902
ራውን	-3903
ቓልቦ	-3904
ታማት	-3905
ኑዓት	-3906
ውከል	-3907
ዶምን	-3908
▁ሓብ	-3909
▁ሕሉ	-3910
▁ሞያ	-3911
▁ዕዳ	-3912
▁www	-3913
▁ሓዲጉ	-3914
▁ኽነሱ	-3915
▁ዓለወ	-3916
▁ዕድሚ	-3917
▁ዘተኰ	-3918
▁ግዜኡ	-3919
▁ምብጻሕ	-3920
▁ብብዝሒ	-3921
▁ተሰሚዑ	-3922
▁ታሕሳስ	-3923
▁ዝርከቡ	-3924
▁እተዳለወ	-3925
▁እንረኽቦ	-3926
▁ዕግበትን	-3927
▁ንመጀመርታ	-3928
ልከ	-3929
ንዚ	-3930
ኰስ	-3931
ውር	-3932
ጋእ	-3933
መንቲ	-3934
ርሕቕ	-3935
▁መጥ	-3936
▁ኢላ	-3937
▁ዕን	-3938
ፈልጥዎ	-3939
▁መሳር	-3940
▁ስስዐ	-3941
▁ሽግር	-3942
▁ብጾቱ	-3943
▁ተመባ	-3944
▁ተወሊ	-3945
▁ትርጕ	-3946
▁ነጥቢ	-3947
▁ንሱን	-3948
▁ንዘይ	-3949
▁ዚከኣ	-3950
▁ዝሞቱ	-3951
▁ግብር	-3952
▁ጠባይ	-3953
▁ፈለጠ	-3954
▁መጋቢት	-3955
▁ርሕራሐ	-3956
▁ባርነት	-3957
▁ንሰበይ	-3958
▁ንኸውን	-3959
▁ኣስፋሕ	-3960
▁ኣካላት	-3961
▁ኣኽቢሩ	-3962
▁ፈረንሳ	-3963
ረጋግጸልና	-3964
▁ረቛሒታት	-3965
▁ብምርኣይ	-3966
▁ኣምላኽና	-3967
▁ዚጥቀመሉ	-3968
▁ብሚልዮናት	-3969
▁ኣመለኻኽታ	-3970
▁ኣይነበሮን	-3971
ri	-3972
ላወ	-3973
ቀድ	-3974
ታቲ	-3975
ነቑ	-3976
ድስ	-3977
ድዮ	-3978
▁ቫ	-3979
ብክዎ	-3980
ቦምን	-3981
ክሎፔ	-3982
ኻኸሪ	-3983
ውዒት	-3984
ዓትን	-3985
ደልን	-3986
▁ሃቦ	-3987
▁ሄኖ	-3988
▁መሃ	-3989
▁ቃሉ	-3990
▁ዚዕ	-3991
▁ይም	-3992
▁ጋዜ	-3993
ምርምሮ	-3994
ጠቕመና	-3995
▁ሕዳር	-3996
▁መሬት	-3997
▁ምምሕ	-3998
▁ምሳኻ	-3999
▁ብትዕ	-4000
▁ኣሎኒ	-4001
▁ክፋል	-4002
▁ማሕበረ	-4003
▁ምዝራብ	-4004
▁ምድላው	-4005
▁ተዋሂቡ	-4006
▁ተጠመቕ	-4007
▁ትገልጽ	-4008
▁ኣርኣየ	-4009
▁ኵላቶም	-4010
▁ወድሰብ	-4011
▁ዚፍለጥ	-4012
▁ጻውዒት	-4013
▁ትዕግስቲ	-4014
▁ንኣብርሃ	-4015
70	-4016
ለዮ	-4017
ትለ	-4018
ዜኡ	-4019
ዪሩ	-4020
ጋፍ	-4021
ግዕ	-4022
ጥና	-4023
ጠቅስ	-4024
ፍትን	-4025
▁65	-4026
▁70	-4027
▁መዕ	-4028
▁ተላ	-4029
▁ነብ	-4030
▁ኣጥ	-4031
▁ዚእ	-4032
▁ዝና	-4033
▁ግጭ	-4034
▁ሞይቱ	-4035
▁ረኺቡ	-4036
▁በረኻ	-4037
▁ናይታ	-4038
▁ኣርዚ	-4039
▁ከረን	-4040
▁ዘለኻ	-4041
▁ደጊም	-4042
▁ጸላኢ	-4043
▁ጸሓይ	-4044
ክሎፔድያ	-4045
▁2010	-4046
▁2012	-4047
▁ርግጸኛ	-4048
▁ሰማያት	-4049
▁ሰንበት	-4050
▁ብቕዓት	-4051
▁ተፈጥሮ	-4052
▁ኣሳልጦ	-4053
▁ኣጋጠሞ	-4054
▁ዘለዎን	-4055
▁ዝገበሩ	-4056
▁የምጽእ	-4057
▁እንነብር	-4058
▁ዩኒቨርሲ	-4059
▁ምስትውዓል	-4060
▁ተኣዛዝነት	-4061
ለቱ	-4062
ላዲ	-4063
ረቡ	-4064
ቃወ	-4065
ቅያ	-4066
ቕል	-4067
በሪ	-4068
ነን	-4069
ይል	-4070
ዱን	-4071
ሃራይ	-4072
ለምቲ	-4073
ላለዩ	-4074
ረስዕ	-4075
ቋርጽ	-4076
ቕርብ	-4077
በሎም	-4078
ነታዊ	-4079
ጸንሕ	-4080
▁ኣታ	-4081
▁ደል	-4082
ብዓትን	-4083
ደልድል	-4084
▁ሕሉፍ	-4085
▁ቀልጢ	-4086
▁በጻሕ	-4087
▁ብብዙ	-4088
▁ንሙሴ	-4089
▁ንምእ	-4090
▁ንኣሕ	-4091
▁ንዓኻ	-4092
▁ዝወፈ	-4093
▁የለን	-4094
▁ሕጻናት	-4095
▁መስርሕ	-4096
▁ሸውዓተ	-4097
▁ንርእሱ	-4098
▁ኣፍልጦ	-4099
▁ክንርኢ	-4100
▁ውሉድካ	-4101
▁ይነብሩ	-4102
▁ይጽዕሩ	-4103
▁ፍልስፍ	-4104
▁ሆስፒታል	-4105
▁ረብሓታት	-4106
▁ስምዒታዊ	-4107
▁ብእተኻእ	-4108
▁ዝረኸብዎ	-4109
▁ሕብረተሰብ	-4110
▁እተተሓሓዘ	-4111
ለጡ	-4112
ልው	-4113
ራህ	-4114
ኛን	-4115
ካዊ	-4116
ኽብ	-4117
ዅሪ	-4118
ገደ	-4119
oto	-4120
ልኩም	-4121
ሓስቡ	-4122
መውት	-4123
ምታት	-4124
ምዎም	-4125
ቅስቓ	-4126
ባሮም	-4127
ኣትዉ	-4128
ወጽእ	-4129
ገብራ	-4130
ጐዓዝ	-4131
ጥፍእ	-4132
ፍለጥ	-4133
▁ቅድ	-4134
▁ተኻ	-4135
▁ትው	-4136
▁ኣፈ	-4137
ልክያስ	-4138
መስግኖ	-4139
▁መፍት	-4140
▁ምይይ	-4141
▁በጽሐ	-4142
▁ኣዒን	-4143
▁ኣይሂ	-4144
▁ኤድን	-4145
▁ኵለን	-4146
▁ኽብሪ	-4147
▁ዮናስ	-4148
▁ደዀን	-4149
▁ጃፓን	-4150
▁ፍጥረ	-4151
▁ብሰላም	-4152
▁ብቐጥታ	-4153
▁ብፍታው	-4154
▁ንነብር	-4155
▁ኸነርኢ	-4156
▁ኸይኰነ	-4157
▁ወለዶም	-4158
▁ዘመናዊ	-4159
▁ዘቕረቦ	-4160
▁ዚቐርብ	-4161
▁ዝሓገዞ	-4162
▁ጐረባብ	-4163
▁ንመንእሰ	-4164
▁ንርእስና	-4165
▁ኣንስትን	-4166
▁እንገብር	-4167
▁ክልቲኦም	-4168
▁ዜተባብዕ	-4169
▁ድልድልቲ	-4170
▁ክንምርምር	-4171
▁ስለምንታይከ	-4172
ላፍ	-4173
ምቁ	-4174
ርቲ	-4175
ርዋ	-4176
ሰግ	-4177
ሳድ	-4178
ንክ	-4179
ዓግ	-4180
ጹጽ	-4181
ዛዝኣ	-4182
ጸንሑ	-4183
▁ሽጋ	-4184
▁ናእ	-4185
▁ንዮ	-4186
መሓላል	-4187
ኽእለሉ	-4188
ገብሮም	-4189
▁ሕታም	-4190
▁ተራኸ	-4191
▁ተጠቐ	-4192
▁ተጠቕ	-4193
▁ንፉዕ	-4194
▁ኣልዩ	-4195
▁ዝስማ	-4196
▁ይስሃ	-4197
▁ደለየ	-4198
▁ፖሊስ	-4199
ተባብዓና	-4200
ገብረሎም	-4201
▁ለውሃት	-4202
▁ብየሱስ	-4203
▁ተማሃሮ	-4204
▁ተዛሪቡ	-4205
▁ተገንዚ	-4206
▁ካህናት	-4207
▁ሚልክያስ	-4208
▁ብኣኽብሮ	-4209
▁ንሰይጣን	-4210
▁እትነብር	-4211
▁ዘጠቓልል	-4212
▁ዝረኣናዮ	-4213
▁ዩኒቨርሲቲ	-4214
ለዋ	-4215
ሪን	-4216
ሪክ	-4217
ራቱ	-4218
ርቂ	-4219
ናዳ	-4220
ክዒ	-4221
ይሮ	-4222
ፊቱ	-4223
▁W	-4224
ቝሩብ	-4225
ክልቲ	-4226
ዕናን	-4227
ዕዎም	-4228
ገዝእ	-4229
ጭነቕ	-4230
▁ቝጽ	-4231
▁ኣጽ	-4232
ስተንት	-4233
ንቀውታ	-4234
▁ሓውና	-4235
▁ቅድም	-4236
▁ብራዚ	-4237
▁ተመረ	-4238
▁ተኣሲ	-4239
▁ወላዲ	-4240
▁ዘበሉ	-4241
▁የድሊ	-4242
▁ጐዳኢ	-4243
▁ጻድቕ	-4244
▁2011	-4245
▁ህዝባዊ	-4246
▁ምስዓብ	-4247
▁ምድሓን	-4248
▁ምጥቃም	-4249
▁ርኽሰት	-4250
▁ብደረጃ	-4251
▁ነየናይ	-4252
▁ንፈለማ	-4253
▁እተባህ	-4254
▁እፈልጥ	-4255
▁ዘለወን	-4256
▁የሐጕሰ	-4257
▁ገሊጽዎ	-4258
▁ኣምላኽካ	-4259
▁ኪሕግዘካ	-4260
▁ኽንከውን	-4261
▁ዜረጋግጽ	-4262
▁ንስርዓታት	-4263
▁ንመንእሰያት	-4264
:0	-4265
ሆም	-4266
ለለ	-4267
ሕብ	-4268
መድ	-4269
ሜት	-4270
ተራ	-4271
ኸይ	-4272
ድኒ	-4273
▁ቂ	-4274
▁ዑ	-4275
ላቶም	-4276
መያየ	-4277
ርእያ	-4278
ቃለስ	-4279
ትለት	-4280
ንጸት	-4281
ወስዱ	-4282
ዘኻኽ	-4283
ጥርን	-4284
ፈርህ	-4285
▁ለጋ	-4286
▁መሓ	-4287
▁ርኢ	-4288
▁በሉ	-4289
▁ኮሚ	-4290
▁ዚን	-4291
▁ደቁ	-4292
መላለሱ	-4293
ምህሮም	-4294
▁198	-4295
▁ልምዲ	-4296
▁ሕጻን	-4297
▁ሰብን	-4298
▁ንምዝ	-4299
▁ንዝነ	-4300
▁ደቅና	-4301
▁ድራኸ	-4302
▁ገንዘ	-4303
▁ጽሩይ	-4304
▁መልእኽ	-4305
▁ብሓጐስ	-4306
▁ብምግባ	-4307
▁ብጽቡቕ	-4308
▁ኣቓልቦ	-4309
▁ኣጽዋር	-4310
▁እዚውን	-4311
▁ዘሐጕስ	-4312
▁ዘርኣዮ	-4313
▁ዝነብሩ	-4314
▁መዘናግዒ	-4315
▁ማሕበራዊ	-4316
▁ንምፍላጥ	-4317
▁ኣማልኽቲ	-4318
▁ከተማታት	-4319
▁ዚሰማማዕ	-4320
▁ንኣብርሃም	-4321
▁ዝገበርናዮ	-4322
16	-4323
of	-4324
ti	-4325
ልኪ	-4326
ሩኒ	-4327
ስጥ	-4328
ቃለ	-4329
ዛን	-4330
ጺሙ	-4331
መይቲ	-4332
ሳተፉ	-4333
ስተር	-4334
ካፈሉ	-4335
▁በዓ	-4336
▁ቤታ	-4337
▁ውዳ	-4338
▁ዜብ	-4339
▁ጴጥ	-4340
ኽእለና	-4341
▁ልብኻ	-4342
▁ሓሊፉ	-4343
▁ሽጋራ	-4344
▁ቐሊል	-4345
▁በዅሪ	-4346
▁ባህሊ	-4347
▁ብምዕ	-4348
▁ብስነ	-4349
▁ብትን	-4350
▁ብዝሒ	-4351
▁ንሃዋ	-4352
▁ንምጥ	-4353
▁ኣልኣ	-4354
▁እንሆ	-4355
▁ከለዉ	-4356
▁ዚመር	-4357
▁ግፍዒ	-4358
▁ምሕጋዝ	-4359
▁ብዓልቲ	-4360
▁ተቐዪሩ	-4361
▁ተገዛእ	-4362
▁ነገሮም	-4363
▁ንባህር	-4364
▁ኣምጺኡ	-4365
▁እተመሃ	-4366
▁እናወሰ	-4367
▁ክኸይድ	-4368
▁ኺረክብ	-4369
▁ዚቕጽል	-4370
▁ዜድልዮ	-4371
▁ዝስዕብ	-4372
▁ድኻታት	-4373
▁ጸላእቲ	-4374
▁ጸሎትና	-4375
▁ፈተውቲ	-4376
▁ፈጣሪና	-4377
▁በብቝሩብ	-4378
▁ትንቢታዊ	-4379
▁ክንድኡስ	-4380
▁ኺህልወና	-4381
▁ዘካርያስ	-4382
▁የመልክት	-4383
▁ንኣምላኽን	-4384
▁ኢንሳይክሎፔድያ	-4385
ለኹ	-4386
ሊሑ	-4387
ሩዕ	-4388
ስታ	-4389
ቐና	-4390
ተሉ	-4391
ቱም	-4392
ካየ	-4393
ዓዉ	-4394
▁ጫ	-4395
198	-4396
ህናጽ	-4397
ለዓል	-4398
ላለሱ	-4399
በራት	-4400
ኣትን	-4401
ፈርሁ	-4402
▁of	-4403
▁ለኣ	-4404
▁ለካ	-4405
▁ይግ	-4406
▁ግዴ	-4407
▁ጽዩ	-4408
hoto	-4409
ግብኦም	-4410
▁ምሳና	-4411
▁ርግጽ	-4412
▁ንልዑ	-4413
▁ንዕዮ	-4414
▁ኣቱም	-4415
▁ኣንቢ	-4416
▁እተኸ	-4417
▁ኸምቲ	-4418
▁ዓመጽ	-4419
▁ዕዉት	-4420
▁ደልዩ	-4421
▁ደኣስ	-4422
▁ግዜን	-4423
▁ፕሮፌ	-4424
▁ሓቢሮም	-4425
▁ሰማይን	-4426
▁ብሪጣን	-4427
▁ብዝዀነ	-4428
▁ተኣማን	-4429
▁ተፈጺሙ	-4430
▁ናይቶም	-4431
▁ንገብር	-4432
▁ዝመጽእ	-4433
▁ዝዀንና	-4434
▁ዝጀመረ	-4435
▁ጌጋታት	-4436
▁መዘኻኸሪ	-4437
▁ተሓጒሶም	-4438
▁እትገብሮ	-4439
ሎጂ	-4440
ሩት	-4441
ሳሲ	-4442
ሽዓ	-4443
ብያ	-4444
ዩሉ	-4445
ደኒ	-4446
▁ኩ	-4447
ሽዓተ	-4448
ዓልቲ	-4449
▁47	-4450
▁55	-4451
▁መት	-4452
▁ሳራ	-4453
▁ተር	-4454
▁ኢዱ	-4455
▁ኤን	-4456
▁ይዝ	-4457
ማውያን	-4458
ሰምዕዎ	-4459
ተርነት	-4460
▁ማዕረ	-4461
▁ምምላ	-4462
▁ንግስ	-4463
▁ኢየን	-4464
▁እተሰ	-4465
▁እናሓ	-4466
▁ኪቐር	-4467
▁ዘድሊ	-4468
▁ዚብሎ	-4469
▁ዝኽሪ	-4470
▁ፍልይ	-4471
ሕግዝዎም	-4472
▁1914	-4473
▁2009	-4474
▁መክሲኮ	-4475
▁ቢልዮን	-4476
▁ብጥበብ	-4477
▁ተገይሩ	-4478
▁ኣኽራን	-4479
▁እዚኦም	-4480
▁ክንድዚ	-4481
▁ውጥረት	-4482
▁ዚመርሕ	-4483
▁ይሓትት	-4484
▁እንኸውን	-4485
▁ኺሕግዘና	-4486
▁ዚርእይዎ	-4487
▁የብሎምን	-4488
▁የገልግሉ	-4489
▁መስዋእታዊ	-4490
▁እተጠቕመሉ	-4491
et	-4492
ሁድ	-4493
ርቶ	-4494
በኒ	-4495
ባሕ	-4496
ታሊ	-4497
ታኒ	-4498
ከር	-4499
ዎት	-4500
ዒሉ	-4501
ገት	-4502
ጊጹ	-4503
ጠሉ	-4504
ጥሪ	-4505
▁p	-4506
ሃህራ	-4507
ለይን	-4508
ርጋሕ	-4509
▁ሕል	-4510
▁ኣሚ	-4511
▁ኦቭ	-4512
▁ዜዕ	-4513
▁ጊዜ	-4514
ደልድሎ	-4515
▁119	-4516
▁ሓጥእ	-4517
▁መእተ	-4518
▁ምስዚ	-4519
▁ረኺበ	-4520
▁ሰሜን	-4521
▁ባህል	-4522
▁ብልሽ	-4523
▁ንምጽ	-4524
▁ኺርአ	-4525
▁ኺዳን	-4526
▁ዘይቅ	-4527
▁ዜገድ	-4528
▁የርኢ	-4529
▁ይብሉ	-4530
▁ደሊና	-4531
▁ጽንኩ	-4532
▁ሓይልን	-4533
▁መለክዒ	-4534
▁ምዕራብ	-4535
▁ብሓድሽ	-4536
▁ብራዚል	-4537
▁ተመባጺ	-4538
▁ተነብዩ	-4539
▁ተወፋይ	-4540
▁ተጠምቀ	-4541
▁ትዕቢት	-4542
▁ንምሃብ	-4543
▁ንነፍሲ	-4544
▁ኣስዕብ	-4545
▁ኣካይዳ	-4546
▁እተመደ	-4547
▁ዚኸይድ	-4548
▁ዝረኸበ	-4549
▁ይመስል	-4550
▁ጀመርና	-4551
▁ህዝቅያስ	-4552
▁መሪሕነት	-4553
▁ምግባርን	-4554
▁ሰብኡትን	-4555
▁ቐዳምነት	-4556
▁ተጠቒሞም	-4557
▁ኸምኡውን	-4558
▁ኣይክእሉን	-4559
▁ንኣገልገልቱ	-4560
al	-4561
ትክ	-4562
ካር	-4563
ኽሊ	-4564
ፈና	-4565
196	-4566
ተረፉ	-4567
ታተይ	-4568
ክሊን	-4569
ኽብሩ	-4570
ድኩም	-4571
ጠቅም	-4572
ፍንቲ	-4573
▁ርኹ	-4574
▁በላ	-4575
▁ተሪ	-4576
▁ኤሊ	-4577
▁እሱ	-4578
▁ጽዒ	-4579
1914	-4580
ርእየሉ	-4581
▁ሄኖክ	-4582
▁ሓተተ	-4583
▁ምእካ	-4584
▁ረኣየ	-4585
▁ዓሌት	-4586
▁ዘይኣ	-4587
▁ዝነገ	-4588
▁ለካቲት	-4589
▁መሳርሒ	-4590
▁ቕዱሳት	-4591
▁ቤተይን	-4592
▁ንኸይን	-4593
▁ኪህልዎ	-4594
▁ወሰንኩ	-4595
▁ዚርእዮ	-4596
▁ዚበልጽ	-4597
▁ፈለምቲ	-4598
▁ምንቅስቓ	-4599
▁ብምስዓብ	-4600
▁ትኽእልዶ	-4601
▁ንየሆዋን	-4602
▁ኣንስትዮ	-4603
▁ኸገልግል	-4604
▁ዘጋጠሞም	-4605
▁የገልግል	-4606
▁ጕጅለታት	-4607
▁ማሕበረሰብ	-4608
▁ተሰማሚዕና	-4609
▁ንኽንከውን	-4610
▁ኣስፋሕፊሑ	-4611
ረኾ	-4612
ሰሰ	-4613
ቀደ	-4614
ወታ	-4615
ዘዝ	-4616
ዝሑ	-4617
ደረ	-4618
ጋጽ	-4619
ጓሰ	-4620
ጠን	-4621
ጠይ	-4622
ኣምኖ	-4623
እከብ	-4624
ዊትን	-4625
ጥቀመ	-4626
▁ሓዊ	-4627
▁መቕ	-4628
▁ስራ	-4629
▁ንክ	-4630
▁ዝቕ	-4631
▁ዞባ	-4632
▁ይጽ	-4633
▁ጓሂ	-4634
ስምማዕ	-4635
▁ሚእቲ	-4636
▁ምኻድ	-4637
▁ተወል	-4638
▁ካናዳ	-4639
▁ዕለት	-4640
▁ዘለኹ	-4641
▁ድንጋ	-4642
▁ፍርሂ	-4643
▁ፍጻሜ	-4644
▁ፕሮጀ	-4645
▁ህንጸት	-4646
▁ሓጥኣን	-4647
▁ምስጢር	-4648
▁ምይይጥ	-4649
▁ብብዙሕ	-4650
▁ነበረኒ	-4651
▁እተማህ	-4652
▁ኺበሃል	-4653
▁ወከፍና	-4654
▁ዘሕለፍ	-4655
▁ዚዛረቡ	-4656
▁ጸልማት	-4657
▁ፈለጥኩ	-4658
▁መሳፍንቲ	-4659
▁መናፍስቲ	-4660
▁መጻምድቲ	-4661
▁ሰይጣንን	-4662
▁ብድሆታት	-4663
▁ትእዛዛት	-4664
▁ንደቅሰብ	-4665
▁ኣዘራርባ	-4666
▁እተራእየ	-4667
▁እንተድኣ	-4668
▁ኪህልወና	-4669
▁ዜገልግሉ	-4670
▁ደይኰነን	-4671
▁መጻምድትኻ	-4672
ቡል	-4673
ነና	-4674
ጋገ	-4675
ጕሂ	-4676
ፈተ	-4677
▁ሴ	-4678
ህበኒ	-4679
ርስዋ	-4680
በሩን	-4681
እከቡ	-4682
ዀኖም	-4683
▁መቓ	-4684
▁ብኢ	-4685
▁ናዚ	-4686
▁ንሽ	-4687
▁ንጉ	-4688
▁ኣሰ	-4689
▁ኤው	-4690
▁ኪፈ	-4691
▁ክሕ	-4692
▁ዘር	-4693
▁ዚግ	-4694
▁ዝሙ	-4695
▁ዝአ	-4696
▁ጆር	-4697
▁ፕላ	-4698
ንዘብኩ	-4699
ግበረሉ	-4700
ጠራጥር	-4701
ፍቅርዎ	-4702
▁Bib	-4703
▁መገድ	-4704
▁ምንዝ	-4705
▁ሰረተ	-4706
▁ባሮት	-4707
▁ብዓይ	-4708
▁ነገሮ	-4709
▁ንግዲ	-4710
▁ኣሕዲ	-4711
▁ኣተሓ	-4712
▁ዜምል	-4713
▁ዜጨን	-4714
▁ይርአ	-4715
▁ጸለየ	-4716
▁ጽሒፉ	-4717
▁ጽዩፍ	-4718
ስተንትን	-4719
ዘርላንድ	-4720
▁ሃብታም	-4721
▁መእተዊ	-4722
▁ምምርማ	-4723
▁ርትዓዊ	-4724
▁ቅኑዕን	-4725
▁ትእዛዛ	-4726
▁ኣፍቅሮ	-4727
▁ክልቲኡ	-4728
▁ዚጽዕሩ	-4729
▁ኣርእዮም	-4730
▁ኣነባብራ	-4731
▁ዚመሳሰል	-4732
▁ዚስምዖም	-4733
▁ንሓድሕድና	-4734
▁ኣብርሃምን	-4735
▁መንፈሳውነት	-4736
▁ኣይንኽእልን	-4737
17	-4738
ለያ	-4739
ልም	-4740
ልፍ	-4741
በካ	-4742
በዩ	-4743
ኑን	-4744
ንኩ	-4745
ዑን	-4746
ዕድ	-4747
ዖን	-4748
ፍሕ	-4749
ስጥኤ	-4750
ቕርቡ	-4751
በጽሑ	-4752
ከላኸ	-4753
ከናኸ	-4754
ዕወት	-4755
ጽጻር	-4756
▁ሆሴ	-4757
▁መዳ	-4758
▁ሱር	-4759
▁ቕን	-4760
▁ንበ	-4761
▁ንኤ	-4762
▁ኢሳ	-4763
▁ኣሶ	-4764
▁ኣቀ	-4765
▁ኣዴ	-4766
▁ከየ	-4767
▁ዕሽ	-4768
▁ዘው	-4769
▁ዘዕ	-4770
▁ዚኽ	-4771
▁ይእ	-4772
▁ድያ	-4773
▁ጕል	-4774
ሕግዘኒ	-4775
ኸውንን	-4776
ዚኣቶም	-4777
▁ህዝበ	-4778
▁ሓሽሽ	-4779
▁በይኑ	-4780
▁ብመን	-4781
▁ብናጻ	-4782
▁ንግሆ	-4783
▁ኣለኻ	-4784
▁ወለን	-4785
▁ዘይእ	-4786
▁ዚዓዪ	-4787
▁ዝሞተ	-4788
▁ዝወጸ	-4789
▁ገዓዝ	-4790
ንጸባርቑ	-4791
▁ሕውነት	-4792
▁ሰላማዊ	-4793
▁ብክርስ	-4794
▁ተማሂረ	-4795
▁ተገብረ	-4796
▁ተጻረር	-4797
▁ነይረን	-4798
▁ንመጻኢ	-4799
▁ንኣሕዋ	-4800
▁ንኻልእ	-4801
▁ንዝዀነ	-4802
▁ኤውሮጳ	-4803
▁ኽኢሎም	-4804
▁ዚህበና	-4805
▁ዝፈጸሞ	-4806
▁ይደልዩ	-4807
▁ዳዊትን	-4808
▁ኣምላኻዊ	-4809
▁ኣገዳሲት	-4810
▁ይነግረና	-4811
▁ተገንዘብኩ	-4812
▁ንመንግስቲ	-4813
▁ዘይፍትሓዊ	-4814
ሃድ	-4815
ልሰ	-4816
መጥ	-4817
ቭያ	-4818
ከም	-4819
ዓዘ	-4820
ዝም	-4821
ጺሩ	-4822
ሃርን	-4823
ህለሉ	-4824
ሕልፉ	-4825
መሃሮ	-4826
ቀድሖ	-4827
ዓታት	-4828
ይትን	-4829
ጸንዕ	-4830
ፋላት	-4831
▁መአ	-4832
▁ብሮ	-4833
▁ብሱ	-4834
▁ተም	-4835
▁ኣኻ	-4836
▁ኺሕ	-4837
▁ውፉ	-4838
▁ዝም	-4839
▁ይው	-4840
▁ድሌ	-4841
▁ግር	-4842
▁ፈጠ	-4843
መርሓና	-4844
ምስርት	-4845
ተስታን	-4846
ፍቅሮም	-4847
▁197	-4848
▁ሓለፈ	-4849
▁መሲህ	-4850
▁ቤታት	-4851
▁ብምዝ	-4852
▁ንድሕ	-4853
▁ንፍቕ	-4854
▁ኣህጉ	-4855
▁ኣይክ	-4856
▁ዝከኣ	-4857
▁ደሓር	-4858
▁ገበን	-4859
ገልግሎት	-4860
ጠራጥርን	-4861
▁መንበሪ	-4862
▁ምምሃር	-4863
▁ምስባኽ	-4864
▁ምግላጽ	-4865
▁ሞይቶም	-4866
▁ተሓታቲ	-4867
▁ትምኒት	-4868
▁ንሓሳብ	-4869
▁ኣጋንን	-4870
▁ኻህናት	-4871
▁ዘተኰረ	-4872
▁ዚህቦም	-4873
▁ዝሓደጎ	-4874
▁ይርእዮ	-4875
▁ህዝብታት	-4876
▁ሰማያዊት	-4877
▁ሰበይቱን	-4878
▁ቈራጽነት	-4879
▁ተጠመቕኩ	-4880
▁ትብዓትን	-4881
▁ኣልኣዛር	-4882
▁ኣጸቢቖም	-4883
▁እተዋህቦ	-4884
▁እናወሰኸ	-4885
▁የጋጥሞም	-4886
▁ፕሮፌሰር	-4887
▁ንስኻትኩም	-4888
▁እተዋህቦም	-4889
▁ዜንጸባርቕ	-4890
13	-4891
ለድ	-4892
ሑቕ	-4893
ራሪ	-4894
ቃል	-4895
ቃብ	-4896
ቴና	-4897
ውዖ	-4898
ዘዞ	-4899
ጋዕ	-4900
ግን	-4901
ፋፍ	-4902
ላትና	-4903
ርናዮ	-4904
ርካዮ	-4905
ሮምን	-4906
ነይቲ	-4907
ክተር	-4908
ፍቅር	-4909
▁ሊቀ	-4910
▁ምቅ	-4911
▁ስቕ	-4912
▁ቈሪ	-4913
▁ንቑ	-4914
▁ዘድ	-4915
▁ደር	-4916
▁ገማ	-4917
ልአይቲ	-4918
ረኽበሉ	-4919
ቈጻጸር	-4920
ትታትን	-4921
ትንክፍ	-4922
ነታዊት	-4923
ነግሮም	-4924
▁ልበይ	-4925
▁ሒዞም	-4926
▁ሓሳባ	-4927
▁ማለቱ	-4928
▁ቍጥዓ	-4929
▁ቐጺሉ	-4930
▁ኖህን	-4931
▁ኣለና	-4932
▁ዓርኪ	-4933
▁ዓይኒ	-4934
▁ግብረ	-4935
▁ግዴታ	-4936
▁ጠቒሱ	-4937
▁2008	-4938
▁መሰላት	-4939
▁መተባብ	-4940
▁ምሕሳብ	-4941
▁ረኸብኩ	-4942
▁ሰብኣያ	-4943
▁ብድሕሪ	-4944
▁ንውሰድ	-4945
▁እዙዛት	-4946
▁ዕልወት	-4947
▁የድልዮ	-4948
▁ጽቡቕን	-4949
▁ፍልቀት	-4950
▁ምልክታት	-4951
▁ምሳልያዊ	-4952
▁ሮማውያን	-4953
▁ብቕንዕና	-4954
▁ኣመሃህራ	-4955
▁ኣገዛዝኣ	-4956
▁ክንፈልጥ	-4957
▁ኽትረክብ	-4958
▁መርትዖታት	-4959
▁ሰብኣውያን	-4960
▁ብእተወሰነ	-4961
▁ንምግልጋል	-4962
▁ዝረኸብክዎ	-4963
▁ዝገበርክዎ	-4964
▁ኣየጠራጥርን	-4965
us	-4966
ለው	-4967
ለዓ	-4968
ሓጎ	-4969
ማሪ	-4970
ነጽ	-4971
ኒን	-4972
ኤት	-4973
ከሉ	-4974
ዘዘ	-4975
▁፤	-4976
ለታት	-4977
ራኸብ	-4978
ስያስ	-4979
ዀነሉ	-4980
ፈትዉ	-4981
▁80	-4982
▁ልኡ	-4983
▁ምቝ	-4984
▁ምጕ	-4985
▁ራብ	-4986
▁ካል	-4987
▁ዕድ	-4988
▁ዜስ	-4989
▁ዝው	-4990
▁ፊሊ	-4991
ገልጸሉ	-4992
▁196	-4993
▁ሕስብ	-4994
▁መግቢ	-4995
▁ሞገስ	-4996
▁ረኸቡ	-4997
▁ንሓጢ	-4998
▁ንገለ	-4999
▁ንጸሎ	-5000
▁ኣርእ	-5001
▁ካበይ	-5002
▁ኺብል	-5003
▁ዓዶም	-5004
▁ዘገል	-5005
▁ዝሰፈ	-5006
▁ዝዀና	-5007
▁ጋዜጣ	-5008
▁ጥርጣ	-5009
▁ጸሓፊ	-5010
▁ፈተነ	-5011
▁ሃጸያዊ	-5012
▁መማህር	-5013
▁መርመራ	-5014
▁መከራን	-5015
▁ምትዕር	-5016
▁ርእሰይ	-5017
▁ብዘይም	-5018
▁ታሪኻዊ	-5019
▁ንመልእ	-5020
▁ኣጋጠመ	-5021
▁ኺፍጸም	-5022
▁ይፈልጦ	-5023
▁ዮስያስ	-5024
▁ደሴታት	-5025
▁ደቡባዊ	-5026
▁ጽንኩር	-5027
▁ፈርኦን	-5028
▁ብሩክሊን	-5029
▁ተሰምዓኒ	-5030
▁ኣስፋሕቲ	-5031
▁እነፍቅሮ	-5032
▁ክንገብሮ	-5033
▁ክኢላታት	-5034
▁ዝነበርና	-5035
▁ጻዕርታት	-5036
▁ፍልስፍና	-5037
▁ኣይትረስዕ	-5038
▁ፕሮተስታን	-5039
ህዮ	-5040
ቋር	-5041
ክለ	-5042
ዋስ	-5043
ዳሎ	-5044
ዶር	-5045
ገበ	-5046
ጋል	-5047
ፈለ	-5048
▁ኑ	-5049
▁ጄ	-5050
ልናን	-5051
ቅበል	-5052
ታንን	-5053
ነቱን	-5054
እታት	-5055
ኽእላ	-5056
ውስኽ	-5057
ገበር	-5058
ጥቀስ	-5059
ጻዕቲ	-5060
▁ቀስ	-5061
▁ተተ	-5062
▁ቲኦ	-5063
▁ከቶ	-5064
▁ኪሓ	-5065
▁ክው	-5066
▁ወብ	-5067
▁ዓሳ	-5068
▁ዓየ	-5069
▁ዚሰ	-5070
▁ዚጸ	-5071
▁ደን	-5072
▁ፈት	-5073
▁ፈጢ	-5074
ስዕብዎ	-5075
ፍጽምና	-5076
▁ሓቅን	-5077
▁መዝሙ	-5078
▁ሙሴን	-5079
▁ምሁር	-5080
▁ስልጣ	-5081
▁ቈልዓ	-5082
▁ንቕሑ	-5083
▁ንብም	-5084
▁ንደሊ	-5085
▁ንጽል	-5086
▁እናሃ	-5087
▁ከሎና	-5088
▁ኮሚተ	-5089
▁ወረዳ	-5090
▁ወሰነ	-5091
▁ዝሰር	-5092
▁ዝነፈ	-5093
▁ይጽበ	-5094
▁ድሉው	-5095
▁ጣኦት	-5096
▁ፕሮግ	-5097
▁ሓንሳእ	-5098
▁ብጾቶም	-5099
▁ተመልሰ	-5100
▁ተዘክሮ	-5101
▁ኣሽሓት	-5102
▁ኪረክብ	-5103
▁ኽንርኢ	-5104
▁ኽእለት	-5105
▁ዝረኸቦ	-5106
▁ዝቝጸሩ	-5107
▁ይኸይድ	-5108
▁ይጥቀሙ	-5109
▁ፓይነር	-5110
▁መልእኽቱ	-5111
▁ስእልታት	-5112
▁ብቕልጡፍ	-5113
▁ተመባጺዑ	-5114
▁ኣሓትናን	-5115
▁እምነታት	-5116
▁እተነበዮ	-5117
▁እትመጽእ	-5118
▁ዝምልከት	-5119
▁ፍልስጥኤ	-5120
▁ስምዒታውን	-5121
▁ብሃንቀውታ	-5122
▁ንህይወትና	-5123
▁ንኽንገብር	-5124
▁ኣረጋውያን	-5125
▁ወተሃደራት	-5126
▁ዘሌዋውያን	-5127
▁ንኣገልግሎት	-5128
40	-5129
ማቱ	-5130
ረካ	-5131
ርዳ	-5132
ቦና	-5133
ተም	-5134
ንት	-5135
ዘኒ	-5136
ጓስ	-5137
ፕዩ	-5138
▁>	-5139
▁ቨ	-5140
wer	-5141
ሃቦም	-5142
ለክት	-5143
ሕጐስ	-5144
ርራብ	-5145
ስፋሕ	-5146
ባንያ	-5147
ተኵሩ	-5148
ንቀቐ	-5149
እዘዞ	-5150
ወግዶ	-5151
ጋንዳ	-5152
ጠንቅ	-5153
ጥቃጥ	-5154
ጽዋዕ	-5155
▁ሄሮ	-5156
▁ሊቃ	-5157
▁ሰና	-5158
▁ስላ	-5159
▁እግ	-5160
▁ኪብ	-5161
▁ዚዓ	-5162
▁ገጹ	-5163
መስልዎ	-5164
ሰምዖም	-5165
ዳውያን	-5166
▁ሓለፍ	-5167
▁መዛኑ	-5168
▁ቐሪቡ	-5169
▁ብሕያ	-5170
▁ተመለ	-5171
▁ተባዕ	-5172
▁ንቕዱ	-5173
▁ንዓመ	-5174
▁ኣመስ	-5175
▁ኣተወ	-5176
▁እስያ	-5177
▁እተሸ	-5178
▁ከይን	-5179
▁ዋህዮ	-5180
▁ደቅኻ	-5181
▁ድሩት	-5182
▁ጸወታ	-5183
▁ፍራን	-5184
▁ሓዲጎም	-5185
▁መቓብር	-5186
▁መጺኦም	-5187
▁ቅኑዓት	-5188
▁ተኣምር	-5189
▁ትሽዓተ	-5190
▁ትዕግስ	-5191
▁ንኽልተ	-5192
▁ንዘለዉ	-5193
▁ኺረኽቡ	-5194
▁ዚዛረብ	-5195
▁ዝሕብር	-5196
▁ዝመልአ	-5197
▁ይመጽእ	-5198
▁ጽድቃዊ	-5199
▁ፍጡራት	-5200
▁ፍጹማት	-5201
▁ልምድታት	-5202
▁መዓልትን	-5203
▁ብሪጣንያ	-5204
▁ንሃዋርያ	-5205
▁ንዓታቶም	-5206
▁እተላዕለ	-5207
▁እተሰምዖ	-5208
▁ክንጥቀም	-5209
▁ኻባታቶም	-5210
▁ኣዘውቲርና	-5211
ለዪ	-5212
ሊና	-5213
ሓኒ	-5214
ሕዎ	-5215
ርዮ	-5216
ሳሰ	-5217
ሳው	-5218
ንዎ	-5219
ኻት	-5220
ይካ	-5221
ዳድ	-5222
ጋድ	-5223
ጣበ	-5224
ጦስ	-5225
▁ፐ	-5226
ምልሶ	-5227
ሳቐዩ	-5228
ሳትን	-5229
ቅድሚ	-5230
ቅጽል	-5231
ባረኽ	-5232
ብካዮ	-5233
ዝነት	-5234
ጻረር	-5235
ጽህና	-5236
▁53	-5237
▁ህቡ	-5238
▁ቓሉ	-5239
▁ኣጕ	-5240
▁ወሪ	-5241
▁ዴቪ	-5242
ቅጥቃጥ	-5243
ተባብዑ	-5244
ነብረሉ	-5245
ጳውሎስ	-5246
ፈልጡን	-5247
▁ህጹጽ	-5248
▁ሓለቓ	-5249
▁ምርኮ	-5250
▁ምንም	-5251
▁ርሑቕ	-5252
▁ትካል	-5253
▁ንሰማ	-5254
▁ንእም	-5255
▁ኻብኡ	-5256
▁ውርሻ	-5257
▁ዝለኣ	-5258
▁ግጭት	-5259
ምጽኣሎም	-5260
▁ሕጂውን	-5261
▁መለለዪ	-5262
▁ምህላዉ	-5263
▁ርእዮም	-5264
▁ብተኣም	-5265
▁ኣተባቢ	-5266
▁ኣድልዎ	-5267
▁ክገብሩ	-5268
▁ኽንደይ	-5269
▁ዘርኣዩ	-5270
▁ዚሕግዝ	-5271
▁ዚገልጾ	-5272
▁ይስሃቅ	-5273
▁ገምጋም	-5274
▁መቕጻዕቲ	-5275
▁ብቕንኣት	-5276
▁ንምግላጽ	-5277
▁ንእሙናት	-5278
▁ዘይከኣል	-5279
▁ዝገብርዎ	-5280
▁ፓይነራት	-5281
▁ልዑላውነት	-5282
▁መንፈሳውን	-5283
▁ብትዕግስቲ	-5284
11	-5285
HI	-5286
ላሕ	-5287
መቑ	-5288
ሪባ	-5289
ስጋ	-5290
ቓት	-5291
ቕካ	-5292
ተኽ	-5293
ዋኽ	-5294
ዘመ	-5295
ይሊ	-5296
ደግ	-5297
ድቕ	-5298
ጀው	-5299
ጶስ	-5300
ጽሉ	-5301
ፈቱ	-5302
and	-5303
ion	-5304
ህልዋ	-5305
መሓይ	-5306
ቀርቦ	-5307
ባቆም	-5308
ተርፍ	-5309
ተንከ	-5310
ወስዶ	-5311
ውንቲ	-5312
ዓባብ	-5313
ዕባል	-5314
ግሃት	-5315
ፍቅሩ	-5316
▁ሕተ	-5317
▁ምጅ	-5318
▁ሰረ	-5319
▁ቅዳ	-5320
▁ባር	-5321
▁ብጭ	-5322
▁ተሸ	-5323
▁ንጐ	-5324
▁ንጻ	-5325
▁እኒ	-5326
▁ዓብ	-5327
▁ዝጐ	-5328
ሓስበሉ	-5329
ኻትኩም	-5330
▁ሓላፊ	-5331
▁ሳውል	-5332
▁ቀሪቡ	-5333
▁ብቓል	-5334
▁ነርኢ	-5335
▁ንሕጊ	-5336
▁ንመብ	-5337
▁ንምት	-5338
▁ኣሓት	-5339
▁ከይተ	-5340
▁ኪኸዱ	-5341
▁ኸይን	-5342
▁ዀነት	-5343
▁ወሲኹ	-5344
▁ዚኸዱ	-5345
▁ይድግ	-5346
▁ሕብረት	-5347
▁መፍትሒ	-5348
▁ቕቡኣት	-5349
▁ተመለስ	-5350
▁ተጻሒፉ	-5351
▁ነበረና	-5352
▁ንሕናኸ	-5353
▁ንብዙሕ	-5354
▁ንኪዀኑ	-5355
▁ኣብራም	-5356
▁እተመባ	-5357
▁ኪፈልጡ	-5358
▁ኺፈልጥ	-5359
▁ዓሌታዊ	-5360
▁ዝረኣዮ	-5361
▁ዝኸኣሉ	-5362
▁ዝደልዩ	-5363
▁ዝገብሮ	-5364
▁ይሁዳን	-5365
▁ጕድለት	-5366
▁ሓድነትን	-5367
▁ምርጫታት	-5368
▁ሰብኣየይ	-5369
▁ባህርያቱ	-5370
▁ብቕዓታት	-5371
▁ተመረቕቲ	-5372
▁ተመርዓና	-5373
▁ትሕትናን	-5374
▁ንሰለስተ	-5375
▁ንኣምልኾ	-5376
▁ንጳውሎስ	-5377
▁ኪህልዎም	-5378
▁ይስምዖም	-5379
▁ምስትንታን	-5380
▁ኢንተርነት	-5381
▁ኣሕዋትናን	-5382
▁ዘይፍጽምና	-5383
▁ወለንተኛታት	-5384
▁ንክርስትያናዊ	-5385
ag	-5386
ልስ	-5387
ልት	-5388
መመ	-5389
ራሲ	-5390
ሻት	-5391
ብለ	-5392
ክኖ	-5393
ዕብ	-5394
ደመ	-5395
ፍሐ	-5396
▁U	-5397
▁ሬ	-5398
500	-5399
ህበካ	-5400
ለምን	-5401
ላለኸ	-5402
ረበሉ	-5403
ሰበሉ	-5404
ባርን	-5405
ዮምን	-5406
ጥፍኣ	-5407
ጽንዑ	-5408
▁90	-5409
▁መዐ	-5410
▁ረድ	-5411
▁ሳን	-5412
▁ኖር	-5413
▁ኣና	-5414
▁ኪም	-5415
▁ዝረ	-5416
▁ጠቐ	-5417
▁ጠባ	-5418
ቍጽጻር	-5419
ተንብብ	-5420
ግንዘብ	-5421
ፈልጦን	-5422
▁ህያብ	-5423
▁ሓቢሩ	-5424
▁ምኽኣ	-5425
▁ምፍቃ	-5426
▁ሰምዐ	-5427
▁ብሓን	-5428
▁ብእን	-5429
▁ተፈጢ	-5430
▁ንምኽ	-5431
▁ንኣይ	-5432
▁ኣእዳ	-5433
▁ኣዚና	-5434
▁ኣይፋ	-5435
▁እዝራ	-5436
▁ዝርአ	-5437
▁ሃብትን	-5438
▁መገድን	-5439
▁ምስማዕ	-5440
▁ምዃኑን	-5441
▁ብስምዒ	-5442
▁ተዛረበ	-5443
▁ንነጀው	-5444
▁ንእዮብ	-5445
▁ንጸሎት	-5446
▁ኣርኣያ	-5447
▁እትደሊ	-5448
▁ከባቢኻ	-5449
▁ዕሽነት	-5450
▁ዕንወት	-5451
▁ዚስምዖ	-5452
▁ይህቦም	-5453
▁ይሓልየ	-5454
▁ይነብር	-5455
▁ጉባኤን	-5456
▁ጸሎትን	-5457
▁ፈጺሞም	-5458
▁ምምልላስ	-5459
▁ብምንታይ	-5460
▁ተቐቢሎም	-5461
▁ኣካላውን	-5462
▁ኣጋጢምዎ	-5463
▁እተባህለ	-5464
▁ዘይክእሉ	-5465
▁ዜገልግል	-5466
▁ድሕንነት	-5467
▁ጸገማትን	-5468
▁ምንቅጥቃጥ	-5469
▁ብኣኽብሮት	-5470
▁እተገብረሉ	-5471
▁እንኽእለሉ	-5472
▁ንልዑላውነት	-5473
▁ኣይኪኸውንን	-5474
30	-5475
ሃቦ	-5476
ላር	-5477
ልቍ	-5478
ሰና	-5479
ባእ	-5480
ብቦ	-5481
ትስ	-5482
ትዮ	-5483
ነዌ	-5484
ኣድ	-5485
እና	-5486
ዘዙ	-5487
ጣር	-5488
ጸና	-5489
ጻል	-5490
ፊኡ	-5491
ፍኡ	-5492
ርድኡ	-5493
ሰይቲ	-5494
ቀርብ	-5495
ቆስጠ	-5496
በላሽ	-5497
ኖምን	-5498
ከታተ	-5499
ካየድ	-5500
ክሳን	-5501
ደልዮ	-5502
ጀመረ	-5503
ጻወሮ	-5504
ጽሕፍ	-5505
▁ሰሌ	-5506
▁ባእ	-5507
▁ነጋ	-5508
▁ንቘ	-5509
▁ንና	-5510
▁ኪቐ	-5511
▁ክዳ	-5512
▁ወግ	-5513
▁ዘሁ	-5514
▁ዝፍ	-5515
▁ጳጳ	-5516
ፍጽምዎ	-5517
ፎንያስ	-5518
▁ሓበረ	-5519
▁ምሓዝ	-5520
▁ምድላ	-5521
▁ርእዩ	-5522
▁በዳሂ	-5523
▁ብሕቲ	-5524
▁ብስጋ	-5525
▁ብቐስ	-5526
▁ቪድዮ	-5527
▁ተፈል	-5528
▁ናታን	-5529
▁ንብዘ	-5530
▁ንኣባ	-5531
▁ንድኻ	-5532
▁ኣኽኢ	-5533
▁ከንቱ	-5534
▁ዚቐር	-5535
▁ዚድር	-5536
▁ዝበሉ	-5537
▁ጆርጅ	-5538
▁ገይራ	-5539
ተባብዖም	-5540
▁ምሕታት	-5541
▁ቅዱሳዊ	-5542
▁ቕትለት	-5543
▁ብምምር	-5544
▁ብግብሪ	-5545
▁ተመልሱ	-5546
▁ንኸምዚ	-5547
▁ኣሕዋቱ	-5548
▁እንደሊ	-5549
▁ኬጋጥም	-5550
▁ዘርኣይ	-5551
▁ዘይብላ	-5552
▁ዝሃብዎ	-5553
▁ዝተንስ	-5554
▁ይኣምን	-5555
▁ይፍጸም	-5556
▁ጉባኤና	-5557
▁ጥርጣረ	-5558
▁ጥበበኛ	-5559
▁ሓጢኣትና	-5560
▁መተባብዒ	-5561
▁ሰራሕተኛ	-5562
▁ብምዃኖም	-5563
▁ብኣሽሓት	-5564
▁ንምርኣይ	-5565
▁ኣእምሮኻ	-5566
▁ኽትፈልጥ	-5567
▁ዚስምዓኒ	-5568
▁ዜጸናንዕ	-5569
▁ይምህረና	-5570
▁ጽሑፋትን	-5571
▁ምንቅስቓስ	-5572
▁ኣኽብሮትን	-5573
▁ኣጋጢምዎም	-5574
▁ሰራሕተኛታት	-5575
▁የረጋግጸልና	-5576
ሩና	-5577
ራዝ	-5578
ርዩ	-5579
ሳል	-5580
ሳኒ	-5581
ኩሉ	-5582
ውም	-5583
ዕላ	-5584
ዕቢ	-5585
ፋር	-5586
▁D	-5587
▁L	-5588
ለንን	-5589
ለይቲ	-5590
ሓልፍ	-5591
ርስዕ	-5592
ሽክለ	-5593
በርግ	-5594
ዳትን	-5595
ድሕኑ	-5596
ጠራጠ	-5597
▁ሓቲ	-5598
▁ሓግ	-5599
▁ሕጕ	-5600
▁መነ	-5601
▁ማህ	-5602
▁ሰሪ	-5603
▁ሳም	-5604
▁ቀይ	-5605
▁ብሞ	-5606
▁ብኡ	-5607
▁ታይ	-5608
▁ንይ	-5609
▁ኣሞ	-5610
▁እጃ	-5611
▁ዚነ	-5612
▁ይን	-5613
▁ጸጕ	-5614
▁ፈቲ	-5615
atch	-5616
ህናትን	-5617
ሕግዙኻ	-5618
ተባብዓ	-5619
▁ህላወ	-5620
▁ህንዲ	-5621
▁ርጡብ	-5622
▁ስእለ	-5623
▁ቐጺላ	-5624
▁ብሞት	-5625
▁ተረኺ	-5626
▁ተወከ	-5627
▁ንሓዋ	-5628
▁ንባዕ	-5629
▁ኣዋጅ	-5630
▁እርጋ	-5631
▁እተጸ	-5632
▁ከነኣ	-5633
▁ክኢለ	-5634
▁ወልፊ	-5635
▁ዕድል	-5636
▁ዚህቡ	-5637
▁ዚምስ	-5638
▁ዜቕር	-5639
▁ይመር	-5640
▁ጐድኒ	-5641
▁ፍርቂ	-5642
ሎናውያን	-5643
ሩሳሌምን	-5644
▁ማእለያ	-5645
▁ምእማን	-5646
▁ምግልጋ	-5647
▁ምጽላይ	-5648
▁ብምኽኣ	-5649
▁ተግባራ	-5650
▁ኣቕረበ	-5651
▁እሱራት	-5652
▁ኪመጽእ	-5653
▁ኺመጽእ	-5654
▁ዓመታዊ	-5655
▁ዚምህሮ	-5656
▁ዚወስድ	-5657
▁ዚፈልጥ	-5658
▁ዜምጽኦ	-5659
▁ዝነፈሶ	-5660
▁ዝኸይድ	-5661
▁ዝገለጸ	-5662
▁ዝጸንሐ	-5663
▁ይዛረቡ	-5664
▁ገማግም	-5665
▁Bible	-5666
▁ሚልዮናት	-5667
▁ብዚግባእ	-5668
▁ትውክልቲ	-5669
▁ንኣእምሮ	-5670
▁ኣህጉራዊ	-5671
▁ኣተዓባብ	-5672
▁እትገልጽ	-5673
▁እናሓለፈ	-5674
▁ዚምርኰስ	-5675
▁ዜጠራጥር	-5676
▁ይስምዓኒ	-5677
▁ይግብኣና	-5678
▁ጸፎንያስ	-5679
▁ባህርያትን	-5680
▁ኣተባብዖም	-5681
▁ኣእምሮኣዊ	-5682
▁ኣይከኣለን	-5683
▁ወተሃደራዊ	-5684
▁ጥንታውያን	-5685
▁ንኣተሓሳስባ	-5686
in	-5687
ሃነ	-5688
ህባ	-5689
ልወ	-5690
ራግ	-5691
ራጺ	-5692
ሰበ	-5693
ቪዥ	-5694
ኖት	-5695
ክሩ	-5696
ውዋ	-5697
ዩም	-5698
ደሙ	-5699
ዱእ	-5700
ድሪ	-5701
ግኡ	-5702
ጣዕ	-5703
▁ኲ	-5704
ላስን	-5705
ሓንን	-5706
ሰልጥ	-5707
ስያዊ	-5708
ቓቕማ	-5709
በልዑ	-5710
ንብቡ	-5711
ዎምን	-5712
▁54	-5713
▁ሓዉ	-5714
▁ሓዘ	-5715
▁ምሃ	-5716
▁ብነ	-5717
▁ኣቝ	-5718
▁ደጋ	-5719
▁ጸን	-5720
▁ፈረ	-5721
ማዕብሉ	-5722
ዘራረብ	-5723
ጸልወና	-5724
▁and	-5725
▁ሓካይ	-5726
▁ምልእ	-5727
▁ርኹስ	-5728
▁ተሃን	-5729
▁ተማህ	-5730
▁ነፍስ	-5731
▁ኣማዕ	-5732
▁ኣስዒ	-5733
▁ኣቤል	-5734
▁ኣቦን	-5735
▁ኣገደ	-5736
▁ዚብሉ	-5737
▁ዚዛረ	-5738
▁የጸግ	-5739
▁ይኸብ	-5740
ስተውዕል	-5741
ንጠቆስጠ	-5742
▁መስመር	-5743
▁መስተን	-5744
▁ምግብን	-5745
▁ቀቅድሚ	-5746
▁ብኡብኡ	-5747
▁ብዝበለ	-5748
▁ኣይተቐ	-5749
▁ኪኸይድ	-5750
▁ውድድር	-5751
▁ዘይከኣ	-5752
▁ዝኸፍአ	-5753
▁ገለልተ	-5754
▁ገሊአን	-5755
▁ግሪኽኛ	-5756
▁ፖላንድ	-5757
▁ሃብታማት	-5758
▁ሃዋርያቱ	-5759
▁ሃገራትን	-5760
▁ብልሽውና	-5761
▁ንምብጻሕ	-5762
▁ንኺገብሩ	-5763
▁ኣስተውዓ	-5764
▁ኣዒንቶም	-5765
▁እነቕርቦ	-5766
▁ኻልአይቲ	-5767
▁ዘመልክት	-5768
▁ያእቆብን	-5769
▁እተሓላለኸ	-5770
▁እተፈላለዩ	-5771
▁ፕሮተስታንት	-5772
oc	-5773
th	-5774
ስኮ	-5775
ሻይ	-5776
ቅድ	-5777
ትሪ	-5778
ካነ	-5779
የዮ	-5780
ጌጋ	-5781
ግሲ	-5782
ግና	-5783
ጐኒ	-5784
ፓብ	-5785
▁G	-5786
▁ጁ	-5787
ict	-5788
ሃህላ	-5789
ሃነም	-5790
ላዎም	-5791
ልክዎ	-5792
ሓላለ	-5793
ሳውን	-5794
በሉን	-5795
ባርኾ	-5796
ብራቕ	-5797
እዘዙ	-5798
እዘዝ	-5799
ኽልቲ	-5800
ውትን	-5801
ዳእኩ	-5802
ድግፍ	-5803
ግዕዝ	-5804
ጴጥሮ	-5805
ጽበዮ	-5806
ፈሎም	-5807
▁72	-5808
▁ሽኮ	-5809
▁በር	-5810
▁ኪን	-5811
▁ኺም	-5812
▁ወጺ	-5813
▁ውል	-5814
▁ዜጋ	-5815
▁ድን	-5816
▁ገበ	-5817
▁ጓሳ	-5818
▁ጸረ	-5819
▁ጸዓ	-5820
▁ጾታ	-5821
▁ፈራ	-5822
▁ፈቒ	-5823
▁ፊን	-5824
ስምዓና	-5825
ዋኽብቲ	-5826
▁ሓይሉ	-5827
▁ሕሙም	-5828
▁መዓት	-5829
▁ሪፓብ	-5830
▁ሰሌዳ	-5831
▁ቀረበ	-5832
▁ብሰሪ	-5833
▁ተመስ	-5834
▁ተኣኪ	-5835
▁ተዓዘ	-5836
▁ተጠሚ	-5837
▁ነነዌ	-5838
▁ኣስቴ	-5839
▁ኣትዩ	-5840
▁ኣጽኒ	-5841
▁እተዓ	-5842
▁እናዓ	-5843
▁ወሰደ	-5844
▁ወሳኒ	-5845
▁ዝሓተ	-5846
▁ዝመሃ	-5847
▁ዝሙት	-5848
▁ዝበጽ	-5849
▁ድኻም	-5850
▁ጀሚረ	-5851
▁ግሪኻ	-5852
▁ምሕላው	-5853
▁ሮበርት	-5854
▁በዓላት	-5855
▁በዓልቲ	-5856
▁ብዓወት	-5857
▁ተስፋን	-5858
▁ተፈላጥ	-5859
▁ቲኦክራ	-5860
▁ንምሃር	-5861
▁ንጉባኤ	-5862
▁ንጴጥሮ	-5863
▁ንፈጣሪ	-5864
▁ኣዒንቲ	-5865
▁ኣየድል	-5866
▁ኤለክት	-5867
▁እሙንን	-5868
▁ዓመትን	-5869
▁ዜጨንቕ	-5870
▁ዝመስል	-5871
▁ዝነብር	-5872
▁ዮናታን	-5873
▁ፍጽምና	-5874
▁ሓሳባትን	-5875
▁ሓቀኛታት	-5876
▁ብምሕጋዝ	-5877
▁ብምግላጽ	-5878
▁ተመሃራይ	-5879
▁ተባሂሎም	-5880
▁ንሰበይቱ	-5881
▁ኣመሪካን	-5882
▁ኣስተብሂ	-5883
▁ኣበሃህላ	-5884
▁እትገብር	-5885
▁እናኣጋጠ	-5886
▁ኺህልዎም	-5887
▁ዚደልይዎ	-5888
▁ዜፍቅርዎ	-5889
▁ይርእይዎ	-5890
▁ይስምዓካ	-5891
▁ትምህርትን	-5892
▁ንህይወተይ	-5893
▁ኣስተብህል	-5894
▁ኣጋንንቱን	-5895
▁ዓለወኛታት	-5896
▁ብተወሳኺውን	-5897
▁ክርስትያናትን	-5898
12	-5899
li	-5900
ሚን	-5901
ሳሕ	-5902
ሸል	-5903
እው	-5904
የስ	-5905
ጠቓ	-5906
▁ቺ	-5907
ህሉን	-5908
ልእን	-5909
ልያን	-5910
ርያን	-5911
ተራነ	-5912
ተርጐ	-5913
ውስን	-5914
ገበረ	-5915
ጥፍኡ	-5916
▁51	-5917
▁ህል	-5918
▁ለዋ	-5919
▁ብቝ	-5920
▁ንሸ	-5921
▁ንፋ	-5922
▁ኢደ	-5923
▁ኣቤ	-5924
▁ኪዋ	-5925
▁ኪዕ	-5926
▁ኪፍ	-5927
▁ካሌ	-5928
▁ኽፉ	-5929
▁ወጸ	-5930
▁ውዲ	-5931
▁ዜግ	-5932
▁ደሞ	-5933
▁ዳግ	-5934
ሰማምዑ	-5935
እዘዝዎ	-5936
ጋጥመካ	-5937
ግባእን	-5938
ጥፍኦም	-5939
▁ሂቦም	-5940
▁ሆሴእ	-5941
▁መጠይ	-5942
▁ማይን	-5943
▁ሞተት	-5944
▁ሳጹን	-5945
▁ስማት	-5946
▁ብለው	-5947
▁ብምል	-5948
▁ተንስ	-5949
▁እምብ	-5950
▁ኸለኻ	-5951
▁ኺህሉ	-5952
▁ዀይና	-5953
▁ውቅያ	-5954
▁ውዳሰ	-5955
▁ዘይር	-5956
▁ዚጋጮ	-5957
▁ደቀይ	-5958
▁ድኽመ	-5959
▁ጌጋን	-5960
▁ግድን	-5961
▁ጥሜት	-5962
▁ጸገማ	-5963
▁ፋስጋ	-5964
ictur	-5965
ተራነያን	-5966
▁ሄሮድስ	-5967
▁ህያዋን	-5968
▁ሓቅነት	-5969
▁መዳጐኒ	-5970
▁ረኺብና	-5971
▁ብዓይኒ	-5972
▁ተኽእሎ	-5973
▁ነበርቲ	-5974
▁ንገሊኡ	-5975
▁ኣቕዋም	-5976
▁ኣቢልና	-5977
▁ኤልሳእ	-5978
▁እምነቱ	-5979
▁ኪመሃሩ	-5980
▁ክረክብ	-5981
▁ወለድና	-5982
▁ዓቕምና	-5983
▁ዘሕዝን	-5984
▁ዚብልዎ	-5985
▁ዝመሃሮ	-5986
▁ዝርከባ	-5987
▁ዝጸሓፎ	-5988
▁ይምህር	-5989
▁ይቕይር	-5990
▁ይጥቀም	-5991
▁ገሃነም	-5992
▁ገይርካ	-5993
▁ጽንዓት	-5994
▁መዝሙራት	-5995
▁ብገምጋም	-5996
▁ተጻረርቲ	-5997
▁ንምጥፋእ	-5998
▁ንብምሉኡ	-5999
▁ንኪኸውን	-6000
▁ኣጠቓቕማ	-6001
▁ካልኦትን	-6002
▁ዋህዮታት	-6003
▁ዘድልዮም	-6004
▁ዚሕግዞም	-6005
▁ዝሓገዞም	-6006
▁ግብርታት	-6007
▁ጥቕምታት	-6008
▁ጴጥሮስን	-6009
▁ፍጥረታት	-6010
▁ተግባራትን	-6011
▁ኣይኰነትን	-6012
▁እተረጋገጸ	-6013
▁መዲተራነያን	-6014
22	-6015
ሓቕ	-6016
ሸግ	-6017
ቐን	-6018
ቒቕ	-6019
በሳ	-6020
ትግ	-6021
ዐን	-6022
ዓዮ	-6023
ዕሉ	-6024
ፊል	-6025
ፋቐ	-6026
ሃርኩ	-6027
ላእከ	-6028
መናን	-6029
ምልስ	-6030
ርኩም	-6031
ሴፍን	-6032
ባውን	-6033
ኣውን	-6034
ግኣት	-6035
ፈቕደ	-6036
▁49	-6037
▁ሃን	-6038
▁ሒዛ	-6039
▁ንሄ	-6040
▁ወኪ	-6041
▁ደስ	-6042
▁ጸር	-6043
መስዋእ	-6044
ምጽኣሉ	-6045
ሽክለታ	-6046
ተንስኦ	-6047
▁ህዝብ	-6048
▁መገዱ	-6049
▁ምርኣ	-6050
▁ሰዓል	-6051
▁ስሩዕ	-6052
▁ቀጻሊ	-6053
▁ብቓሉ	-6054
▁ተሓቲ	-6055
▁ተንሲ	-6056
▁ነገድ	-6057
▁ንዘመ	-6058
▁ኣዕሩ	-6059
▁እኽሊ	-6060
▁ኪህቡ	-6061
▁ኪቐት	-6062
▁ካልቪ	-6063
▁ኰነት	-6064
▁ወለዱ	-6065
▁ወሓደ	-6066
▁ዋላኳ	-6067
▁ዘሎን	-6068
▁ዘይሕ	-6069
▁ዜሐጕ	-6070
▁ዝናም	-6071
▁ይዓዪ	-6072
▁ጥሪት	-6073
▁ሕሙማት	-6074
▁ሕማምን	-6075
▁ሜላታት	-6076
▁ረድኤት	-6077
▁በጻሕና	-6078
▁ብብሕቲ	-6079
▁ንሓንቲ	-6080
▁ንሓዋሩ	-6081
▁ንብዓት	-6082
▁ንብዘሎ	-6083
▁ኣማራጺ	-6084
▁ኣጋይሽ	-6085
▁እንተሎ	-6086
▁ኮምፕዩ	-6087
▁ኻብተን	-6088
▁ኽንሕሉ	-6089
▁ወለድኻ	-6090
▁ዓየይቲ	-6091
▁ዘሁልቍ	-6092
▁ዘይምዃ	-6093
▁ዘይርአ	-6094
▁ዚሓልየ	-6095
▁ዚመውት	-6096
▁ዚኣምን	-6097
▁ዚዀነና	-6098
▁ዜርእዩ	-6099
▁ዝግባእ	-6100
▁ይገልጹ	-6101
▁ሓይልታት	-6102
▁ሪፓብሊክ	-6103
▁ሰበይተይ	-6104
▁ብሓንሳእ	-6105
▁ብምፍላጥ	-6106
▁ተመለስኩ	-6107
▁ንምፍታሕ	-6108
▁ንገሊኦም	-6109
▁ኣታኽልቲ	-6110
▁ኣንባቆም	-6111
▁እንተዀኑ	-6112
▁ክንስዕብ	-6113
▁ወንጌላት	-6114
▁ውሉዳቶም	-6115
▁ብእንግሊዝ	-6116
▁ንውሉዳቶም	-6117
▁ንየሩሳሌም	-6118
▁ኣረኣእያን	-6119
▁ኣይግባእን	-6120
▁ከነኣናውያን	-6121
EN	-6122
om	-6123
ምኑ	-6124
ሞስ	-6125
ሽሮ	-6126
ኣሎ	-6127
ኻድ	-6128
ውዑ	-6129
ዛም	-6130
ዛዘ	-6131
ድሶ	-6132
ግሶ	-6133
ግዎ	-6134
ጐሰ	-6135
ፖር	-6136
▁F	-6137
▁ጉ	-6138
oci	-6139
ሰብከ	-6140
ቝጸር	-6141
ናዕቲ	-6142
ንብቦ	-6143
ንደን	-6144
እትዎ	-6145
ዓመት	-6146
ዘርግ	-6147
ገልጻ	-6148
ግቡእ	-6149
ግደስ	-6150
ፋታት	-6151
▁ምኸ	-6152
▁ርክ	-6153
▁ሰር	-6154
▁ቘሪ	-6155
▁ብማ	-6156
▁ኣሃ	-6157
▁ኦም	-6158
▁ከዱ	-6159
▁ጸሊ	-6160
▁ፍቑ	-6161
መስግነ	-6162
ርእየና	-6163
ቀራረብ	-6164
ድልድል	-6165
▁ህቡብ	-6166
▁ልብን	-6167
▁ልዕል	-6168
▁ሕተት	-6169
▁መጓሰ	-6170
▁ሙማቱ	-6171
▁ስላሴ	-6172
▁ብምድ	-6173
▁ተጓዒ	-6174
▁ንቡር	-6175
▁ኣበሳ	-6176
▁ኣብሎ	-6177
▁ኣይም	-6178
▁ክኢሉ	-6179
▁ውዕል	-6180
▁ዘንበ	-6181
▁ዚመስ	-6182
▁ዜፍር	-6183
▁ዝህብ	-6184
▁ዝህቦ	-6185
▁ዝፋን	-6186
▁ይደል	-6187
▁ደቒቕ	-6188
▁ገሊላ	-6189
▁ገዓዘ	-6190
▁ገዲፉ	-6191
▁ፈቐደ	-6192
ሳውያንን	-6193
▁2000	-6194
▁Soci	-6195
▁ሕያዋይ	-6196
▁መሳርሕ	-6197
▁ምህላው	-6198
▁ምጽናዕ	-6199
▁ብምርካ	-6200
▁ብስጋዊ	-6201
▁ንብረት	-6202
▁ንዮሴፍ	-6203
▁ንደቅኻ	-6204
▁ኣስቴር	-6205
▁ኣቦኦም	-6206
▁ኣየገር	-6207
▁ኪገልጽ	-6208
▁ክረኽቡ	-6209
▁ክብርን	-6210
▁ዜኽብር	-6211
▁ዜኽእል	-6212
▁ዜፍቅሮ	-6213
▁ዝኣተዎ	-6214
▁ገበርቲ	-6215
▁ገይርዎ	-6216
▁ጐይታና	-6217
▁ፍትሕን	-6218
▁ሓጊዝዎም	-6219
▁ብመልክዕ	-6220
▁ብድሕሪኡ	-6221
▁ተማሂሮም	-6222
▁ተጠቒሶም	-6223
▁ንስልጣን	-6224
▁ንኣመንቲ	-6225
▁ንኺረኽቡ	-6226
▁ንግስነት	-6227
▁ኣምለኽቱ	-6228
▁ኣጋጠሞም	-6229
▁እምነትካ	-6230
▁እትብሃል	-6231
▁ክንቀድሖ	-6232
▁ዘርኣይዎ	-6233
▁ዚግብኣና	-6234
▁ገነታዊት	-6235
▁ፍልጠታዊ	-6236
▁ፕሮግራም	-6237
▁ምትዕርራይ	-6238
▁እተመልክት	-6239
▁ክንጥንቀቕ	-6240
▁ብምትእምማን	-6241
▁ኣገልግሎቶም	-6242
ሕና	-6243
ምዲ	-6244
ረቕ	-6245
ረየ	-6246
ረጹ	-6247
ሪኮ	-6248
ሪያ	-6249
ራስ	-6250
ተቴ	-6251
ንዛ	-6252
ክሕ	-6253
ክዋ	-6254
የደ	-6255
ደደ	-6256
ድአ	-6257
ድእ	-6258
ጐል	-6259
ጐም	-6260
▁ቸ	-6261
:00	-6262
ማስዉ	-6263
ራኸቢ	-6264
ሳተፍ	-6265
ስትሪ	-6266
ቃለሱ	-6267
ቕዎም	-6268
ባሕቲ	-6269
ንቀቑ	-6270
ውዕሉ	-6271
ዳድና	-6272
ድዎም	-6273
ጽኡሉ	-6274
▁52	-6275
▁jw	-6276
▁ልማ	-6277
▁መመ	-6278
▁መኽ	-6279
▁በጻ	-6280
▁ክሊ	-6281
▁ዚድ	-6282
▁ዝባ	-6283
▁ያን	-6284
▁ገን	-6285
▁ጐይ	-6286
ታቶምን	-6287
ጠራጠር	-6288
▁150	-6289
▁ልምድ	-6290
▁ሕርሻ	-6291
▁ምትካ	-6292
▁ስዒቡ	-6293
▁ባሪኽ	-6294
▁ቤትን	-6295
▁ብሩህ	-6296
▁ብርእ	-6297
▁ብሮሹ	-6298
▁ንሓቅ	-6299
▁ንሞት	-6300
▁ንኣን	-6301
▁ንኤል	-6302
▁ንጢሞ	-6303
▁ኣበየ	-6304
▁ኣባና	-6305
▁ኣወጅ	-6306
▁ኣይከ	-6307
▁እንጌ	-6308
▁እደሊ	-6309
▁ከድኩ	-6310
▁ወፈራ	-6311
▁ወፍሪ	-6312
▁ዚወር	-6313
▁ዝሓለ	-6314
▁ዝመሰ	-6315
▁ዝበል	-6316
▁ደለዩ	-6317
▁ደራሲ	-6318
▁ዴቪድ	-6319
▁ዶላር	-6320
▁ግብጻ	-6321
▁ፈለጡ	-6322
ተኣማመኑ	-6323
▁2013	-6324
▁ሃገራዊ	-6325
▁ሓካይም	-6326
▁ሓዳሮም	-6327
▁መለሰሉ	-6328
▁መንነት	-6329
▁ምብራቓ	-6330
▁ምእዛዝ	-6331
▁ተመሊሱ	-6332
▁ተጠምቁ	-6333
▁ተፈጸመ	-6334
▁ነብያት	-6335
▁ንኣቦኡ	-6336
▁ኣቕሽሽ	-6337
▁ኣቦታት	-6338
▁ከጽንዕ	-6339
▁ኪቕጽል	-6340
▁ኪግበር	-6341
▁ካብተን	-6342
▁ዓለምን	-6343
▁ዘሕለፎ	-6344
▁ዚወጽእ	-6345
▁ዚግብኦ	-6346
▁ዝበዝሕ	-6347
▁ዝተረፈ	-6348
▁ይስምዖ	-6349
▁ይዛረብ	-6350
▁ዮሴፍን	-6351
▁መንግስቱ	-6352
▁ቘራጽነት	-6353
▁ብትግሃት	-6354
▁ብኣእምሮ	-6355
▁ንምምላስ	-6356
▁ኣእምሮና	-6357
▁እተፈጥረ	-6358
▁ክንጽዕር	-6359
▁ኸተማታት	-6360
▁ዘለዎምን	-6361
▁ዘጋጥሞም	-6362
▁ዚስምዓካ	-6363
▁የኽእለና	-6364
▁ይሕግዞም	-6365
▁ፕሮጀክት	-6366
▁Pictur	-6367
▁ሕያውነትን	-6368
▁ምጽንናዕን	-6369
▁ተወፋይነት	-6370
▁ንጢሞቴዎስ	-6371
▁ኣተዓባብያ	-6372
▁ይገልጸልና	-6373
▁ፈሪሳውያን	-6374
▁ባቢሎናውያን	-6375
▁ንሓድሕድኩም	-6376
25	-6377
is	-6378
ህው	-6379
ለሰ	-6380
መጡ	-6381
ረላ	-6382
ሳነ	-6383
ናኒ	-6384
ዀና	-6385
ዉዕ	-6386
የሽ	-6387
ያር	-6388
ጥሕ	-6389
▁ጅ	-6390
Jan	-6391
ety	-6392
ሖምን	-6393
መሃሩ	-6394
ስናዮ	-6395
ባትን	-6396
ታዎት	-6397
ትዮጵ	-6398
ዘንቱ	-6399
ዳምን	-6400
ጐድእ	-6401
ጥመቑ	-6402
ፈጥሮ	-6403
▁56	-6404
▁58	-6405
▁Ar	-6406
▁ቀና	-6407
▁ብሸ	-6408
▁ኣሌ	-6409
▁እዙ	-6410
▁ኪደ	-6411
▁ኸየ	-6412
▁ውሕ	-6413
▁ይኽ	-6414
▁ገም	-6415
▁ጫፍ	-6416
ኣውያን	-6417
ወሃቦም	-6418
▁144	-6419
▁ሃጸይ	-6420
▁ሕልሚ	-6421
▁ርሒቓ	-6422
▁ሳይት	-6423
▁ሸለል	-6424
▁ቅዱሱ	-6425
▁ብልሹ	-6426
▁ብምህ	-6427
▁ብድሕ	-6428
▁ብግህ	-6429
▁ብጾት	-6430
▁ተነሲ	-6431
▁ቲቶስ	-6432
▁ናዕቢ	-6433
▁ንሕግ	-6434
▁ኣባጊ	-6435
▁ኣትኵ	-6436
▁ኣይደ	-6437
▁እናነ	-6438
▁ኪምር	-6439
▁ኸይዱ	-6440
▁ኽፉእ	-6441
▁ወደይ	-6442
▁ወዱን	-6443
▁ወድና	-6444
▁ዓቕሊ	-6445
▁ገለጹ	-6446
▁ፋርስ	-6447
▁ፖርቱ	-6448
ግበረሎም	-6449
▁ሕሰበሉ	-6450
▁ምኽባር	-6451
▁ራብዓይ	-6452
▁ስቓይን	-6453
▁ቀጺልና	-6454
▁ብሓይሊ	-6455
▁ተመርዓ	-6456
▁ተምሃር	-6457
▁ተቐበለ	-6458
▁ተቐየረ	-6459
▁ንሓዳር	-6460
▁ንግዜኡ	-6461
▁ንጹሃት	-6462
▁ኢትዮጵ	-6463
▁ኣብነቱ	-6464
▁ኣይረኸ	-6465
▁ኣደይን	-6466
▁ኬርእዩ	-6467
▁ወግዓዊ	-6468
▁ዓዓመት	-6469
▁ዚህብዎ	-6470
▁ዚበሃሉ	-6471
▁ዜጕልሕ	-6472
▁ዝገብሩ	-6473
▁ዝጠቐሶ	-6474
▁ዝፈጠረ	-6475
▁ግዝኣቱ	-6476
▁ፈቃርን	-6477
ስተንትነሉ	-6478
▁መምርሕን	-6479
▁መጥባሕቲ	-6480
▁ምምሕዳር	-6481
▁ምንባሮም	-6482
▁ቐዳመይቲ	-6483
▁በረኸትን	-6484
▁ብኸመይከ	-6485
▁ብዛዕባና	-6486
▁ብዝበለጸ	-6487
▁ንሃይማኖ	-6488
▁ንምምሃር	-6489
▁ንምምላእ	-6490
▁ንዘመናት	-6491
▁ንጴጥሮስ	-6492
▁ንጽህናና	-6493
▁ኣኽቢሮም	-6494
▁እተወልደ	-6495
▁ኽንርእዮ	-6496
▁የጋጥመና	-6497
▁ሃይማኖትን	-6498
▁ብምስምማዕ	-6499
▁ብስርዓታት	-6500
▁ተዋሂብዎም	-6501
▁ተጠንቂቕና	-6502
▁ንመብዛሕት	-6503
▁ንኽንርዳእ	-6504
▁ንድያብሎስ	-6505
▁እተዋህበና	-6506
▁Society	-6507
ia	-6508
ላቱ	-6509
ልል	-6510
ልባ	-6511
ልጠ	-6512
ማል	-6513
ረታ	-6514
ቶት	-6515
ናቱ	-6516
አት	-6517
ኳር	-6518
ዋጋ	-6519
ውዐ	-6520
ዱሉ	-6521
ጥቅ	-6522
ጽሎ	-6523
▁J	-6524
our	-6525
ልካዶ	-6526
ረብሓ	-6527
ረይን	-6528
ረጽኩ	-6529
ትያን	-6530
ንናን	-6531
ዓብዩ	-6532
ደላት	-6533
ጅምሩ	-6534
ፈርሆ	-6535
▁2,	-6536
▁ምተ	-6537
▁ሞኣ	-6538
▁ቃለ	-6539
▁ኣሐ	-6540
▁ካም	-6541
▁ዓዱ	-6542
በላሽዎ	-6543
ባርኾም	-6544
ውዕልዎ	-6545
▁ላቲን	-6546
▁ሓተት	-6547
▁መማሰ	-6548
▁ምርካ	-6549
▁ምሳይ	-6550
▁ረኣዩ	-6551
▁ሰራዊ	-6552
▁ሶርያ	-6553
▁ቓልሲ	-6554
▁በርና	-6555
▁በደል	-6556
▁ተዛራ	-6557
▁ንስሓ	-6558
▁ንትእ	-6559
▁ንኪቕ	-6560
▁ኣመን	-6561
▁ኣንጸ	-6562
▁ኣእት	-6563
▁እምኒ	-6564
▁እተኻ	-6565
▁እናቐ	-6566
▁ኪብል	-6567
▁ኪነግ	-6568
▁ዚገዝ	-6569
▁ዝጠፍ	-6570
▁ገበሮ	-6571
▁ጐሊሑ	-6572
▁ጐደና	-6573
▁ጥምቀ	-6574
▁ጭፍራ	-6575
▁ፊልም	-6576
▁ፍታሕ	-6577
▁ለንደን	-6578
▁ለይትን	-6579
▁ሕማማት	-6580
▁መልክዕ	-6581
▁ምስኦም	-6582
▁ምክፋል	-6583
▁ምዕያይ	-6584
▁ሰበኽቲ	-6585
▁ቅልጡፍ	-6586
▁ብቐንዱ	-6587
▁ተረኺቡ	-6588
▁ተስፋና	-6589
▁ተወልደ	-6590
▁ንጥቕሚ	-6591
▁ኣትሒዘ	-6592
▁ኣትኵሮ	-6593
▁ኣወጅቲ	-6594
▁እተሰር	-6595
▁እተነግ	-6596
▁ከነኣን	-6597
▁ኪገብሮ	-6598
▁ኬምጽእ	-6599
▁ወረቐት	-6600
▁ውግእን	-6601
▁ዘዳለዎ	-6602
▁ዘገርም	-6603
▁ዚገብረ	-6604
▁ዝሓትት	-6605
▁የርእዩ	-6606
▁ገለልት	-6607
▁ገዓዝና	-6608
▁ፍትሓዊ	-6609
▁Watch	-6610
▁ለውሃትን	-6611
▁ስልጣንን	-6612
▁ብትምህር	-6613
▁ብትንቢት	-6614
▁ተመደብኩ	-6615
▁ተዋሂቡና	-6616
▁ተደሪኾም	-6617
▁ትንሳኤን	-6618
▁ትእዛዛቱ	-6619
▁ንብጻይካ	-6620
▁ንኣባላት	-6621
▁ንኺገብር	-6622
▁ንዘለዎም	-6623
▁ኣትሒዞም	-6624
▁ኣከዳድና	-6625
▁ኣኽቢርና	-6626
▁እንታይከ	-6627
▁ኬገልግሉ	-6628
▁ኺሕግዘካ	-6629
▁ኽንነብር	-6630
▁ኽንፈልጥ	-6631
▁ወንጌላዊ	-6632
▁ዘንጸባረ	-6633
▁ዘይፈልጥ	-6634
▁ዝነበረና	-6635
▁ዝነበሩሉ	-6636
▁መለክዒታት	-6637
▁ብተኣምራዊ	-6638
▁ተፈላጥነት	-6639
▁ኣዘውቲርካ	-6640
▁ከነማዕብል	-6641
▁የምጽኣልና	-6642
▁ግሪኻውያን	-6643
▁ምስትውዓልን	-6644
▁ብእንግሊዝኛ	-6645
▁ኣይነበሮምን	-6646
▁ኣገልግሎትን	-6647
▁ንትምህርትታት	-6648
ar	-6649
el	-6650
it	-6651
ns	-6652
ህዲ	-6653
ሊካ	-6654
ልጺ	-6655
ሓብ	-6656
ሜን	-6657
ባራ	-6658
ተዉ	-6659
ትሮ	-6660
ኖን	-6661
ኻል	-6662
ዳኽ	-6663
ገሱ	-6664
ግጹ	-6665
ጥዎ	-6666
ጽአ	-6667
▁ዱ	-6668
▁ፎ	-6669
van	-6670
ሓትን	-6671
ሓድቲ	-6672
ሕክሕ	-6673
ማሃር	-6674
ርለስ	-6675
ርያም	-6676
ሰትን	-6677
ስራት	-6678
ብልን	-6679
ታትካ	-6680
ናሕኩ	-6681
ናውን	-6682
እምን	-6683
ዳድር	-6684
ጻምድ	-6685
ፍረት	-6686
▁ሃቡ	-6687
▁ባይ	-6688
▁እዮ	-6689
▁ኪነ	-6690
▁ወሃ	-6691
▁ይነ	-6692
▁ይድ	-6693
▁ጽሙ	-6694
ድሕኖም	-6695
▁ሕብሪ	-6696
▁መሊሱ	-6697
▁መዕቈ	-6698
▁መድሃ	-6699
▁ምስላ	-6700
▁ምዝካ	-6701
▁ምጅማ	-6702
▁ቀጸለ	-6703
▁ቃልሲ	-6704
▁ቃየል	-6705
▁ቍልዕ	-6706
▁በጺሑ	-6707
▁ብኣካ	-6708
▁ተርጐ	-6709
▁ተበጊ	-6710
▁ተኣዚ	-6711
▁ተዛሪ	-6712
▁ናትና	-6713
▁ንሓድ	-6714
▁ንእከ	-6715
▁ንኽእ	-6716
▁ኣሞጽ	-6717
▁እትሕ	-6718
▁እንዳ	-6719
▁እንድ	-6720
▁እዋኑ	-6721
▁እዝን	-6722
▁ኦርቶ	-6723
▁ኪህብ	-6724
▁ዀንና	-6725
▁ወጻእ	-6726
▁ዕዮና	-6727
▁ዕዳጋ	-6728
▁ዘመና	-6729
▁ዚነግ	-6730
▁ዚጠቕ	-6731
▁ዝቘመ	-6732
▁ጕልበ	-6733
ation	-6734
ስካሕክሕ	-6735
▁ሃዋህው	-6736
▁ሓለውቲ	-6737
▁መንሽሮ	-6738
▁ምልእቲ	-6739
▁ምእንታ	-6740
▁በጻሕቲ	-6741
▁ተሓጒሱ	-6742
▁ተባሂላ	-6743
▁ንረብሓ	-6744
▁ንሰማዕ	-6745
▁ንቘልዑ	-6746
▁ንባዕሉ	-6747
▁ንዕላማ	-6748
▁ኣረማዊ	-6749
▁ኣስተን	-6750
▁ኪብሃል	-6751
▁ኪጥቀሙ	-6752
▁ኺብሃል	-6753
▁ኺፈልጡ	-6754
▁ኼጋጥም	-6755
▁ኽንጽሊ	-6756
▁ኽፋላት	-6757
▁ዚረክብ	-6758
▁ዚወሃብ	-6759
▁ዚፍትን	-6760
▁ዝጸንሑ	-6761
▁ይገብሮ	-6762
▁ገሊጾም	-6763
▁ግብዝና	-6764
▁ግዳያት	-6765
▁ጸላእቱ	-6766
▁ፍሉያት	-6767
▁ምግባርና	-6768
▁ብምንባብ	-6769
▁ብምጽናዕ	-6770
▁ንምዉታት	-6771
▁ንምድርን	-6772
▁ንስድራቤ	-6773
▁ንኣይሁድ	-6774
▁ኣሕሊፎም	-6775
▁ኣገደስቲ	-6776
▁ኣጸቢቕና	-6777
▁ክሕግዘና	-6778
▁ወተሃደር	-6779
▁ዚስምዓና	-6780
▁ዝገበረሉ	-6781
▁ይኽእልዶ	-6782
▁ምግባራውን	-6783
▁ብሕያውነት	-6784
▁ብክርስቶስ	-6785
▁ተሰማሚዖም	-6786
▁ንኣገልግሎ	-6787
▁ንኽንረክብ	-6788
▁ኣዘውቲሮም	-6789
▁የሩሳሌምን	-6790
▁መልእኽትታት	-6791
▁መብዛሕትአን	-6792
▁ፈሪሳውያንን	-6793
29	-6794
ሃስ	-6795
ላሊ	-6796
ምዕ	-6797
ቁን	-6798
ታለ	-6799
ኮት	-6800
ኵር	-6801
ገሉ	-6802
ገላ	-6803
ገዳ	-6804
ጎን	-6805
ጸት	-6806
ጻኡ	-6807
ጽፊ	-6808
▁ዌ	-6809
ሓዊት	-6810
ሕልፎ	-6811
ማልኣ	-6812
ማንን	-6813
ምህሮ	-6814
ምርዖ	-6815
ሩያት	-6816
ሰርሑ	-6817
ባኽን	-6818
ብዓም	-6819
ተርጒ	-6820
ንንቲ	-6821
ኸፍተ	-6822
ወሃቦ	-6823
ውጽዋ	-6824
ዴዎን	-6825
ድስና	-6826
ግደሱ	-6827
ጐዓዙ	-6828
ፖርት	-6829
▁TE	-6830
▁To	-6831
▁ህር	-6832
▁ሎጥ	-6833
▁ርብ	-6834
▁ሰኣ	-6835
▁ስኢ	-6836
▁ቆጵ	-6837
▁በል	-6838
▁ተጋ	-6839
▁ናዝ	-6840
▁ንቓ	-6841
▁ኤስ	-6842
▁ኪኽ	-6843
▁ወዳ	-6844
▁ዚሽ	-6845
▁ዝሸ	-6846
ሕጸኖም	-6847
ምልኽዎ	-6848
ረኣእያ	-6849
▁Tra	-6850
▁ልቦና	-6851
▁መለሰ	-6852
▁ርሕሩ	-6853
▁ርኢና	-6854
▁ሲኦል	-6855
▁ስፍራ	-6856
▁ሶዶም	-6857
▁ባሩኽ	-6858
▁ብጽሑ	-6859
▁ተመሓ	-6860
▁ተኣስ	-6861
▁ትጽቢ	-6862
▁ንሕቶ	-6863
▁ንበል	-6864
▁ንተኣ	-6865
▁ኣረኣ	-6866
▁ኣየቋ	-6867
▁ክኢላ	-6868
▁ዊልያ	-6869
▁ዋዕላ	-6870
▁ዘየለ	-6871
▁ዘይወ	-6872
▁ዘይፈ	-6873
▁ህይወታ	-6874
▁ልብኻን	-6875
▁መአረም	-6876
▁ምምስሳ	-6877
▁ምቝራጽ	-6878
▁ርእይዎ	-6879
▁ርክብን	-6880
▁ሰሙናት	-6881
▁ሰሚዖም	-6882
▁ሽኮርያ	-6883
▁ብሱላት	-6884
▁ብስለት	-6885
▁ተረኽበ	-6886
▁ተራእየ	-6887
▁ተተርጒ	-6888
▁ተደሪኽ	-6889
▁ተዳልዩ	-6890
▁ተጀመረ	-6891
▁ትርኢት	-6892
▁ትገብር	-6893
▁ነፍስኻ	-6894
▁ንምርግ	-6895
▁ንምድል	-6896
▁ንኣረጋ	-6897
▁ንፍቕሪ	-6898
▁ኣሕዲሩ	-6899
▁ኣመልኪ	-6900
▁ኣኻይዳ	-6901
▁እስራኤ	-6902
▁እንጌራ	-6903
▁ኪርከብ	-6904
▁ኪስበኽ	-6905
▁ኪደርዝ	-6906
▁ኺግበር	-6907
▁ዚደልዮ	-6908
▁ዚጥቀም	-6909
▁ዝሓገዘ	-6910
▁ዝረኽቡ	-6911
▁ይባረኽ	-6912
▁ይዀነና	-6913
▁ደቀባት	-6914
▁ጽድቅን	-6915
▁ፍጽምቲ	-6916
▁ምድላዋት	-6917
▁ሳዕቤናት	-6918
▁ስብከትና	-6919
▁በረኸታት	-6920
▁ብዝርዝር	-6921
▁ተመለስና	-6922
▁ተመደብና	-6923
▁ተዋሂብዎ	-6924
▁ንምሕላው	-6925
▁ንምስክር	-6926
▁ንምዕቃብ	-6927
▁ንቕዱሳት	-6928
▁ንወለዶም	-6929
▁ንድኻታት	-6930
▁ኣምልኾና	-6931
▁ኣረጋገጸ	-6932
▁ኣረጋጊጹ	-6933
▁ኣቐዲምና	-6934
▁እተመሃር	-6935
▁እትርእዮ	-6936
▁ክንመስሎ	-6937
▁ኽንገብሮ	-6938
▁ውሕስነት	-6939
▁ውቅያኖስ	-6940
▁ዚደልየና	-6941
▁ዝነበረን	-6942
▁ሃዋርያትን	-6943
▁ትዕግስትን	-6944
▁ንመልእኽቲ	-6945
▁ንእምነትና	-6946
▁ንኻልኦትን	-6947
▁ዕንቅፋታት	-6948
▁ዘይንኽእል	-6949
▁ዝረኸብናዮ	-6950
▁ግብጻውያን	-6951
▁መዘኻኸሪታት	-6952
▁እተመሃርካዮ	-6953
▁ሃይማኖታውያን	-6954
10	-6955
BL	-6956
ce	-6957
ለዱ	-6958
ለፍ	-6959
ሐን	-6960
ሚሩ	-6961
ሲስ	-6962
ሳር	-6963
ስሑ	-6964
ሹእ	-6965
ተወ	-6966
ክያ	-6967
ኺሉ	-6968
ዉር	-6969
ዕሎ	-6970
ደዱ	-6971
ዳሉ	-6972
ድሮ	-6973
ገሩ	-6974
ግዝ	-6975
ጸበ	-6976
ጽና	-6977
ጽዖ	-6978
ፋሕ	-6979
ፍሪ	-6980
▁H	-6981
▁ሌ	-6982
age	-6983
ህልዉ	-6984
ለትን	-6985
ለዎም	-6986
ሕታዊ	-6987
ሰልጠ	-6988
ባራዊ	-6989
ቪዥን	-6990
ንዎም	-6991
ክፋል	-6992
ወግድ	-6993
ውድሶ	-6994
ዛረቦ	-6995
ፍራህ	-6996
▁ህቦ	-6997
▁ሕነ	-6998
▁ማን	-6999
▁ሰራ	-7000
▁ስዊ	-7001
▁ተአ	-7002
▁ተጣ	-7003
▁ትካ	-7004
▁ነቐ	-7005
▁ንኖ	-7006
▁ኢኺ	-7007
▁ኣኪ	-7008
▁ኩን	-7009
▁ኪድ	-7010
▁ክሪ	-7011
▁ዓባ	-7012
▁ዕቤ	-7013
▁ዘስ	-7014
▁ዝዕ	-7015
▁ይወ	-7016
▁ጠቢ	-7017
▁ጭቈ	-7018
ላውነቱ	-7019
ካፍሎም	-7020
ውዓልቲ	-7021
ውጽኦም	-7022
ድንግጸ	-7023
▁300	-7024
▁500	-7025
▁ሓላዪ	-7026
▁ሓተቶ	-7027
▁ሕክም	-7028
▁መስቀ	-7029
▁ምስሊ	-7030
▁ርእስ	-7031
▁ሰንቲ	-7032
▁ቝጽሪ	-7033
▁ባህግ	-7034
▁ብውል	-7035
▁ብጻይ	-7036
▁ንምር	-7037
▁ንኣር	-7038
▁ንድፊ	-7039
▁አለዎ	-7040
▁ኢልዎ	-7041
▁ኣስኣ	-7042
▁ኣቋሪ	-7043
▁ከኣለ	-7044
▁ኴንካ	-7045
▁ኸፊቱ	-7046
▁ወድን	-7047
▁ዓመተ	-7048
▁ዘይስ	-7049
▁ዝመስ	-7050
▁ይህቡ	-7051
▁ደረት	-7052
▁ጓህን	-7053
▁ጨካን	-7054
▁ፈጠረ	-7055
▁ሓጊዞም	-7056
▁መራኸቢ	-7057
▁መርምሮ	-7058
▁መድሓኒ	-7059
▁ምትካኽ	-7060
▁ምዃነይ	-7061
▁ምዃንካ	-7062
▁ቅዳሓት	-7063
▁በርናባ	-7064
▁ብምሳሌ	-7065
▁ብቓላት	-7066
▁ብግህዶ	-7067
▁ተምሃሮ	-7068
▁ተኣሲሩ	-7069
▁ነንብብ	-7070
▁ነይሩኒ	-7071
▁ንመሃር	-7072
▁ንነብዪ	-7073
▁ኣሎካዶ	-7074
▁ኣረኣኢ	-7075
▁ኣብዚሑ	-7076
▁ኣጠንቂ	-7077
▁እምብዛ	-7078
▁እከይን	-7079
▁ኦርቶዶ	-7080
▁ኪገልጹ	-7081
▁ኪፍጸም	-7082
▁ኬጥፍኦ	-7083
▁ክቕጽል	-7084
▁ክንብል	-7085
▁ኮምዩኒ	-7086
▁ዘምጽእ	-7087
▁ዘምጽኦ	-7088
▁ዚስዕቡ	-7089
▁ዚጠቅም	-7090
▁ዝረኸቡ	-7091
▁ዝወፈዩ	-7092
▁ዝፈልጥ	-7093
▁የፍቅሮ	-7094
▁ይሰብኩ	-7095
▁ይግበር	-7096
▁ጽውጽዋ	-7097
▁ፍልይቲ	-7098
▁ፍጻሜኡ	-7099
▁Tower	-7100
▁Tract	-7101
▁photo	-7102
▁ሓጢኣቶም	-7103
▁ሕግታትን	-7104
▁ስርዓታቱ	-7105
▁ብምውዓል	-7106
▁ብድሕርዚ	-7107
▁ንመጻምድ	-7108
▁ንምድሓን	-7109
▁ንሰማያዊ	-7110
▁ንኣዳምን	-7111
▁ኣርእስቲ	-7112
▁ኣቕሽሽቲ	-7113
▁ኣእምሮኡ	-7114
▁ኣየነይቲ	-7115
▁እተጠቕመ	-7116
▁እናሃለወ	-7117
▁ክትፈልጥ	-7118
▁ክንርእዮ	-7119
▁ክንነብር	-7120
▁ዚምህረና	-7121
▁ዚትንስኡ	-7122
▁ዜተሓሳስ	-7123
▁ዜኽእሎም	-7124
▁ኣይፈልጡን	-7125
▁እንጥቀመሉ	-7126
▁ካብዚኣቶም	-7127
▁መሰናድዎታት	-7128
▁ተኣማንነትን	-7129
▁ንኣረጋውያን	-7130
▁ገለልተኛታት	-7131
yl	-7132
ህለ	-7133
ሉል	-7134
ሐይ	-7135
ማኒ	-7136
ረሙ	-7137
ሪሕ	-7138
ራፍ	-7139
ርሂ	-7140
ስዱ	-7141
ቀኛ	-7142
በስ	-7143
ቢዱ	-7144
ብዋ	-7145
ኸካ	-7146
ኻዮ	-7147
ዋር	-7148
ውከ	-7149
ዓዩ	-7150
ዛቢ	-7151
ዝዝ	-7152
ጥዐ	-7153
ጻዕ	-7154
ፋዕ	-7155
ፍል	-7156
▁◆	-7157
ላለስ	-7158
ሓደር	-7159
ማልእ	-7160
ምልሰ	-7161
ሞምን	-7162
ርኣዮ	-7163
ርከቡ	-7164
ሮምዎ	-7165
ሰሙን	-7166
ሰግሮ	-7167
ቃዊት	-7168
ታተን	-7169
ታታሊ	-7170
ንስሑ	-7171
ዋይን	-7172
ዓይዩ	-7173
ዘራር	-7174
ጥፈት	-7175
ጭነቑ	-7176
ፈሻዊ	-7177
▁ሓሚ	-7178
▁ሓር	-7179
▁ሕው	-7180
▁መላ	-7181
▁ረሲ	-7182
▁ርስ	-7183
▁ሰጊ	-7184
▁ትሕ	-7185
▁ነጺ	-7186
▁ኣቘ	-7187
▁ኵነ	-7188
▁ኺስ	-7189
▁ዋና	-7190
▁ውር	-7191
▁ዕም	-7192
▁ዚቐ	-7193
▁ይዕ	-7194
▁ድራ	-7195
▁ጨካ	-7196
▁ፍሽ	-7197
enns	-7198
ህልወኒ	-7199
ኣምነሉ	-7200
ክልኻል	-7201
ዳድርቲ	-7202
ጸናንዕ	-7203
▁ሓላዊ	-7204
▁ምናሴ	-7205
▁ምኸኣ	-7206
▁ሳራን	-7207
▁ቅንኢ	-7208
▁ብማይ	-7209
▁ብምኽ	-7210
▁ብዘሎ	-7211
▁ተቐራ	-7212
▁ቻይና	-7213
▁ንብረ	-7214
▁ንኸየ	-7215
▁ንጸገ	-7216
▁ክነሱ	-7217
▁ክንሕ	-7218
▁ዝህሉ	-7219
▁ዝሓቘ	-7220
▁ዝሰዓ	-7221
▁ዝኸደ	-7222
▁ድሕር	-7223
▁ጽሬት	-7224
vania	-7225
▁1940	-7226
▁1950	-7227
▁ሓሰብኩ	-7228
▁ሓያልን	-7229
▁ሓፈሻዊ	-7230
▁መምህራ	-7231
▁መርኣያ	-7232
▁መደባት	-7233
▁ምህናጽ	-7234
▁ብልጽግ	-7235
▁ብሕልፊ	-7236
▁ብሕማም	-7237
▁ብሮሹር	-7238
▁ተላዒሉ	-7239
▁ተሰምዖ	-7240
▁ተቐበሉ	-7241
▁ቻርለስ	-7242
▁ንምባል	-7243
▁ንስኻን	-7244
▁ንወለዲ	-7245
▁ኣስዒቡ	-7246
▁ኣዘዞም	-7247
▁ኪሰብኩ	-7248
▁ክፉእን	-7249
▁ውፉያት	-7250
▁ዘይምር	-7251
▁ዚጥቀሙ	-7252
▁ዝኣምን	-7253
▁ዝከኣል	-7254
▁ዝፈጸመ	-7255
▁ይብለና	-7256
▁ይኽእላ	-7257
▁ድሉዋት	-7258
▁ገበርኩ	-7259
▁ጥዕናን	-7260
▁ፈላሚት	-7261
▁ፈታዊኻ	-7262
ennsyl	-7263
▁2,000	-7264
▁መልስታት	-7265
▁ምንባብን	-7266
▁ተዛራባይ	-7267
▁ተገዛእቲ	-7268
▁ተጠቐመሉ	-7269
▁ነፍስኻን	-7270
▁ንዝነበሩ	-7271
▁ኣይከኣል	-7272
▁እምነተይ	-7273
▁እትስዕብ	-7274
▁ክንርድኦ	-7275
▁ኽንመሃር	-7276
▁ዘይፍትሓ	-7277
▁ዝተንስአ	-7278
▁ገንዘብን	-7279
▁ፖርቱጋል	-7280
▁ህዝብታትን	-7281
▁መወዳድርቲ	-7282
▁ስድራቤታት	-7283
▁ብምምርማር	-7284
▁ብምግልጋል	-7285
▁ንመጽናዕቲ	-7286
▁ንምርግጋጽ	-7287
▁ንምድልዳል	-7288
▁ኣይነበሩን	-7289
▁ከምዚኣቶም	-7290
▁ክንመላለስ	-7291
▁ዝገበረሎም	-7292
▁144,000	-7293
▁Pennsyl	-7294
▁ንክርስትያን	-7295
▁Pennsylvania	-7296
NG	-7297
eu	-7298
ሃዮ	-7299
ሊት	-7300
መቱ	-7301
መጹ	-7302
ረጾ	-7303
ራድ	-7304
ሳፋ	-7305
ቀኒ	-7306
ቐሉ	-7307
ትሉ	-7308
ንኛ	-7309
ኸሉ	-7310
ወካ	-7311
ውኢ	-7312
ዑኒ	-7313
ዓኒ	-7314
ዛሕ	-7315
ያሽ	-7316
ዳሕ	-7317
ገዲ	-7318
ጊት	-7319
ጥዕ	-7320
ጽቲ	-7321
607	-7322
ሎትን	-7323
ምልኽ	-7324
ረኽባ	-7325
ራይን	-7326
ርኣዩ	-7327
ርእን	-7328
ሶምን	-7329
በላሸ	-7330
በይዎ	-7331
ባብሮ	-7332
ኩምን	-7333
ክይቲ	-7334
ጋይል	-7335
ጠፍኡ	-7336
ጽልን	-7337
ፋሪት	-7338
▁75	-7339
▁ለም	-7340
▁ሕሱ	-7341
▁መሕ	-7342
▁መም	-7343
▁ርኣ	-7344
▁ቀተ	-7345
▁ቅሳ	-7346
▁በጅ	-7347
▁ነቦ	-7348
▁ነን	-7349
▁ንቝ	-7350
▁ኢዛ	-7351
▁ኣሸ	-7352
▁ኤፍ	-7353
▁ካሊ	-7354
▁ክል	-7355
▁ይበ	-7356
▁ይጸ	-7357
▁ዶብ	-7358
▁ግሬ	-7359
▁ጽሒ	-7360
ልውላው	-7361
መያየጥ	-7362
ማእታት	-7363
ስታትን	-7364
ወርዶም	-7365
ዋርነት	-7366
ፓጋንዳ	-7367
▁120	-7368
▁ሂብዎ	-7369
▁ሒዝዎ	-7370
▁ሓወይ	-7371
▁በለኒ	-7372
▁ብንእ	-7373
▁ብእግ	-7374
▁ብጌጋ	-7375
▁ቦታን	-7376
▁ተሓቢ	-7377
▁ተክኖ	-7378
▁ተፈር	-7379
▁ናበይ	-7380
▁ንልብ	-7381
▁ንነገ	-7382
▁ንኣካ	-7383
▁እንኮ	-7384
▁ኻበይ	-7385
▁ዘይመ	-7386
▁ዝመር	-7387
▁ዲግሪ	-7388
▁ገጾም	-7389
▁ግዳይ	-7390
▁ጓሶት	-7391
▁ጽባሕ	-7392
▁ጽዓር	-7393
▁ፍጡር	-7394
ንጸባረቕ	-7395
ገልጸሎም	-7396
▁2001	-7397
▁ህዝብን	-7398
▁ሓጐስና	-7399
▁ሕጕስቲ	-7400
▁መሰውኢ	-7401
▁ምምላስ	-7402
▁ምንዝር	-7403
▁ምእካብ	-7404
▁ረኸበት	-7405
▁ሰሰሙን	-7406
▁ብሪታኒ	-7407
▁ብሸነኽ	-7408
▁ብጻይና	-7409
▁ብጾቱን	-7410
▁ተማሂሩ	-7411
▁ተረዲኡ	-7412
▁ተቐበል	-7413
▁ተዓዛቢ	-7414
▁ተጓዓዝ	-7415
▁ተጠቕመ	-7416
▁ነይርዋ	-7417
▁ንሱውን	-7418
▁ንጽቡቕ	-7419
▁ንፉዓት	-7420
▁ኣቦሓጎ	-7421
▁ኣይተረ	-7422
▁እተፈል	-7423
▁እክይቲ	-7424
▁ኪቐርብ	-7425
▁ክነብሩ	-7426
▁ክንጽሊ	-7427
▁ዘጋጠማ	-7428
▁ዚዝረብ	-7429
▁ዜዕግብ	-7430
▁ዝርእዮ	-7431
▁ዝሰፈረ	-7432
▁ዝበዝሑ	-7433
▁ዝኣምኑ	-7434
▁ዝኣተወ	-7435
▁ዝዀንኩ	-7436
▁ዝወሰደ	-7437
▁ዝፍጸም	-7438
▁ይጸልዎ	-7439
▁ጳጳሳት	-7440
▁ጽልእን	-7441
▁ፈላስፋ	-7442
▁ፍቕርና	-7443
▁ፍቕሮም	-7444
▁ሌዋውያን	-7445
▁ምምርማር	-7446
▁ምብራቓዊ	-7447
▁ስርዓትን	-7448
▁ብምጥቃስ	-7449
▁ብዜደንቕ	-7450
▁ተሰማሚዑ	-7451
▁ተኣኪቦም	-7452
▁ተጠቒምና	-7453
▁ንሓቅነት	-7454
▁ንሓጢኣት	-7455
▁ንምህናጽ	-7456
▁ንንጽህና	-7457
▁ንዅነታት	-7458
▁ንውሉዳት	-7459
▁ኣመልኪቱ	-7460
▁ኣዘውቲሩ	-7461
▁ኣጋንንቲ	-7462
▁እተላእከ	-7463
▁ከተንብብ	-7464
▁ከይተረፉ	-7465
▁ኪሕግዞም	-7466
▁ካባታቶም	-7467
▁ክትመሃር	-7468
▁ክንምሃር	-7469
▁ኼገልግል	-7470
▁ኼጋጥመና	-7471
▁ዘርእስቱ	-7472
▁ዚጥቀሙሉ	-7473
▁ዝገበረት	-7474
▁ዮሃንስን	-7475
▁ንኽትገብር	-7476
▁ክንጥቀመሉ	-7477
▁ዜገልግልዎ	-7478
▁ፈተናታትን	-7479
▁ቲኦክራስያዊ	-7480
▁ኣይነበረንን	-7481
▁ኣይከኣልኩን	-7482
▁ብእግዚኣብሄር	-7483
24	-7484
ig	-7485
ለጠ	-7486
ሉኒ	-7487
ላላ	-7488
ረቶ	-7489
ራቡ	-7490
ስፈ	-7491
ብሊ	-7492
ተዓ	-7493
ቱር	-7494
ነስ	-7495
ናሉ	-7496
ንጎ	-7497
ንጭ	-7498
ኣል	-7499
ክተ	-7500
ኮስ	-7501
ዋጅ	-7502
ደስ	-7503
ዳግ	-7504
ጻጽ	-7505
ፈሎ	-7506
▁ቄ	-7507
BLE	-7508
NGS	-7509
ላይን	-7510
ሓብር	-7511
መነሉ	-7512
ምልከ	-7513
ምልኹ	-7514
ምጽኡ	-7515
ሳይኛ	-7516
ብርህ	-7517
ትለር	-7518
ንኩም	-7519
ኽትን	-7520
ውስኑ	-7521
ውጽኣ	-7522
ዛብን	-7523
ዳደር	-7524
ድገት	-7525
ጋግባ	-7526
ጋጥሞ	-7527
ጕልሐ	-7528
ጨነቑ	-7529
ጸሎም	-7530
ጸምዎ	-7531
ፈለጥ	-7532
ፈትሖ	-7533
ፎርድ	-7534
▁66	-7535
▁86	-7536
▁BI	-7537
▁ሉዓ	-7538
▁ልሄ	-7539
▁ልዕ	-7540
▁ብጹ	-7541
▁ተሃ	-7542
▁ተሐ	-7543
▁ተሳ	-7544
▁ንጕ	-7545
▁ንጭ	-7546
▁ክነ	-7547
▁ውዕ	-7548
▁ዕቡ	-7549
▁ጂን	-7550
▁ገጸ	-7551
▁ጋሻ	-7552
▁ጕዳ	-7553
ላትኩም	-7554
መሓይሾ	-7555
ሪሕነት	-7556
ቕርበሉ	-7557
ትርጐም	-7558
ዘራረቡ	-7559
ጽብራቕ	-7560
▁Mus	-7561
▁ሃዋሁ	-7562
▁ለጋስ	-7563
▁ልግሲ	-7564
▁መለበ	-7565
▁መፈን	-7566
▁ማርክ	-7567
▁ምትን	-7568
▁ምትእ	-7569
▁ምዀነ	-7570
▁ምጥቃ	-7571
▁ረሃብ	-7572
▁በጃኻ	-7573
▁ብሕጊ	-7574
▁ተመሪ	-7575
▁ናብዚ	-7576
▁ናእዳ	-7577
▁ንመዘ	-7578
▁ንስሙ	-7579
▁ንእኡ	-7580
▁ኣማኒ	-7581
▁ኣርኢ	-7582
▁ኣቢላ	-7583
▁ኣቤሴ	-7584
▁ኣታዊ	-7585
▁ኣይወ	-7586
▁ኣደል	-7587
▁ኣዲኡ	-7588
▁ኤሳው	-7589
▁እናመ	-7590
▁ከይጸ	-7591
▁ውዲት	-7592
▁ዓውዲ	-7593
▁ዘብል	-7594
▁ዘይክ	-7595
▁ጸርፊ	-7596
▁ጸኒሐ	-7597
▁ፍትሕ	-7598
ምህርዎም	-7599
ሰብከሎም	-7600
▁1997	-7601
▁ሓገዝን	-7602
▁መጠይቕ	-7603
▁ምቕራብ	-7604
▁ምዕባይ	-7605
▁ምፍቃር	-7606
▁ሳዕቤኑ	-7607
▁ስራሕን	-7608
▁ቆጵሮስ	-7609
▁ቐዳሞት	-7610
▁ብምስት	-7611
▁ብምኻድ	-7612
▁ተቐበሎ	-7613
▁ተባዓት	-7614
▁ትደሊዶ	-7615
▁ናብራና	-7616
▁ንሄዋን	-7617
▁ንሰላም	-7618
▁ንቑሓት	-7619
▁ንግበር	-7620
▁ንጥዕና	-7621
▁ኣለዎዶ	-7622
▁እተወሰ	-7623
▁እጽዕር	-7624
▁ኪመውት	-7625
▁ኪድሕን	-7626
▁ካቶሊካ	-7627
▁ኺወስድ	-7628
▁ኽረክብ	-7629
▁ዕድሚኡ	-7630
▁ዚወርድ	-7631
▁ዚጅምር	-7632
▁ዚጸልዎ	-7633
▁ዜጋታት	-7634
▁ዝሓዘሉ	-7635
▁ዝቕጽል	-7636
▁ዝኣክል	-7637
▁ዝዀነን	-7638
▁ዝጸሓፋ	-7639
▁ይውስኽ	-7640
▁ደሓንን	-7641
▁ዳግማይ	-7642
▁ድኽመት	-7643
▁ዶክተር	-7644
▁ጐይታይ	-7645
ስተብህለሉ	-7646
▁BIBLE	-7647
▁Photo	-7648
▁መሲሓዊት	-7649
▁መንጎኦም	-7650
▁ምቍጽጻር	-7651
▁ምዃንኩም	-7652
▁ምድራዊት	-7653
▁ምፍላጠይ	-7654
▁ብኸመይን	-7655
▁ተመሃርኩ	-7656
▁ተቐበልዎ	-7657
▁ንምንባር	-7658
▁ንምድጋፍ	-7659
▁ንውሉድካ	-7660
▁ንጥቕምና	-7661
▁ኣቢጋይል	-7662
▁ኣኽቢርካ	-7663
▁ኣዚዝዎም	-7664
▁ኣይደልን	-7665
▁ኣገልጊሉ	-7666
▁እንመሃር	-7667
▁ኬጋጥመካ	-7668
▁ኬጋጥሞም	-7669
▁ኵነታትና	-7670
▁ዘይብሉን	-7671
▁ዘይኰይኑ	-7672
▁ዘይግቡእ	-7673
▁ዜኽእለና	-7674
▁ዝሕግዘና	-7675
▁የሐጕሰኒ	-7676
▁ይህልወና	-7677
▁ግበርዎም	-7678
▁መዛሙርቱን	-7679
▁መጻሕፍትን	-7680
▁ርእይቶታት	-7681
▁ብዝምልከት	-7682
▁እስራኤልን	-7683
▁ኽንሕግዞም	-7684
▁ዜተባብዓና	-7685
▁ሽማግለታትን	-7686
▁ኣይሁዳውያን	-7687
23	-7688
AC	-7689
ta	-7690
un	-7691
ሓዙ	-7692
ምዋ	-7693
ረቑ	-7694
ረዚ	-7695
ርኪ	-7696
ቕለ	-7697
ብጽ	-7698
ኣስ	-7699
ካት	-7700
ዋፍ	-7701
ውሕ	-7702
ዓም	-7703
ዝገ	-7704
ዩና	-7705
ደቕ	-7706
ደበ	-7707
ድነ	-7708
ገሰ	-7709
ገፍ	-7710
ጥስ	-7711
ጥእ	-7712
ጲላ	-7713
ጽካ	-7714
ፍዩ	-7715
▁ሁ	-7716
tes	-7717
ሃንጽ	-7718
ልናዮ	-7719
ልእታ	-7720
ልካን	-7721
ሕግዛ	-7722
መልክ	-7723
ረኾም	-7724
ራኽብ	-7725
ርዚሩ	-7726
ሮንን	-7727
ሰፍን	-7728
ሳሰር	-7729
ተሓባ	-7730
ትታቱ	-7731
ኽክል	-7732
ዘዝኩ	-7733
ይንኻ	-7734
ድኣት	-7735
ገደደ	-7736
ግብን	-7737
ፋቐሩ	-7738
▁57	-7739
▁ti	-7740
▁ሕደ	-7741
▁ሰሙ	-7742
▁ሲና	-7743
▁ትራ	-7744
▁ትሮ	-7745
▁ነዳ	-7746
▁ኪዝ	-7747
▁ኪጽ	-7748
▁ክስ	-7749
▁ኸላ	-7750
▁ኺፈ	-7751
▁ኽብ	-7752
▁ዕጉ	-7753
▁ዘበ	-7754
▁ዜቝ	-7755
▁ዝል	-7756
▁ይኸ	-7757
▁ጸዊ	-7758
ACHI	-7759
ማስዉሉ	-7760
ሳልያዊ	-7761
ነታተይ	-7762
ኽእሎም	-7763
▁ልሄም	-7764
▁ሓሳዊ	-7765
▁ሓተታ	-7766
▁መዓሙ	-7767
▁ማሪያ	-7768
▁ምዉት	-7769
▁ርዱእ	-7770
▁ሰዓቢ	-7771
▁ስምካ	-7772
▁ስኣሎ	-7773
▁ቐልጢ	-7774
▁ቝሸት	-7775
▁ብሓጢ	-7776
▁ብመጽ	-7777
▁ብሰብ	-7778
▁ብኸም	-7779
▁ኒሳን	-7780
▁ንሓሳ	-7781
▁ንጽድ	-7782
▁ኣሶር	-7783
▁ኣቦኣ	-7784
▁እግረ	-7785
▁ከከም	-7786
▁ካሊፎ	-7787
▁ክውን	-7788
▁ኽንሕ	-7789
▁ወሃብ	-7790
▁ወርቂ	-7791
▁ዕርቂ	-7792
▁ዘላቶ	-7793
▁ዘጠቓ	-7794
▁ዚፈር	-7795
▁ዚፈቱ	-7796
▁ዜጕሂ	-7797
▁ዝቐየ	-7798
▁ዝወጹ	-7799
▁ዮሳፋ	-7800
▁ደሓን	-7801
▁ደርቢ	-7802
▁ጄምስ	-7803
▁ግንዛ	-7804
▁ጸልዩ	-7805
▁ጸዓት	-7806
ተኣሳሰር	-7807
▁1919	-7808
▁1945	-7809
▁ህልውና	-7810
▁ሓባራዊ	-7811
▁ሓጢኣቱ	-7812
▁መሲሓዊ	-7813
▁ማሕደር	-7814
▁ምልውዋ	-7815
▁ምንጋር	-7816
▁ምእታው	-7817
▁ቝጠባዊ	-7818
▁ባህልን	-7819
▁ብሓጺሩ	-7820
▁ብዙሓን	-7821
▁ተሓጐስ	-7822
▁ተሓጒሰ	-7823
▁ተነበየ	-7824
▁ተወሊደ	-7825
▁ተወሊዱ	-7826
▁ተዋህቦ	-7827
▁ተዛዘመ	-7828
▁ትዝክሮ	-7829
▁ንበይኑ	-7830
▁ኣሕሊፉ	-7831
▁ኣራዊት	-7832
▁ኣቋረጸ	-7833
▁ኣቐዲማ	-7834
▁ኣተኵር	-7835
▁ኣንበብ	-7836
▁ኣጸቢቐ	-7837
▁እንህቦ	-7838
▁ከይዶም	-7839
▁ኪነብር	-7840
▁ኺሕልዉ	-7841
▁ኺርከብ	-7842
▁ዕላማን	-7843
▁ዕዮኦም	-7844
▁ዘየድሊ	-7845
▁ዚህልዎ	-7846
▁ዜተኵር	-7847
▁ዝለኣኾ	-7848
▁ዝዀነና	-7849
▁ዝዀኖም	-7850
▁ዝወሰዶ	-7851
▁ዝደለየ	-7852
▁ዝገደደ	-7853
▁ይመርሕ	-7854
▁ይፈላለ	-7855
▁ድንጋጽ	-7856
▁ገይርና	-7857
▁ፊደላት	-7858
▁ማርያምን	-7859
▁ምምሃርን	-7860
▁ምምስሳል	-7861
▁ምዕራፋት	-7862
▁ብለውሃት	-7863
▁ብንጥፈት	-7864
▁ብገንዘብ	-7865
▁ተሰሚዑኒ	-7866
▁ተጠምቀት	-7867
▁ትምህርቱ	-7868
▁ናብራኦም	-7869
▁ንምድላው	-7870
▁ንርእሶም	-7871
▁ንሰብኣያ	-7872
▁ንሽዱሽተ	-7873
▁ንኤልያስ	-7874
▁ኣመጋግባ	-7875
▁ኣስተውዒ	-7876
▁ኣቐዲምካ	-7877
▁እተሓትመ	-7878
▁እተወልዱ	-7879
▁እትኣምን	-7880
▁እንመሃሮ	-7881
▁እንጽዕር	-7882
▁ክትነብር	-7883
▁ዘተባብዕ	-7884
▁ዘይርሳዕ	-7885
▁ዘይተመር	-7886
▁ዘይደልዩ	-7887
▁ዚረኽብዎ	-7888
▁ዚርእዮም	-7889
▁ዝረኣይዎ	-7890
▁ዝሰማማዕ	-7891
▁ዝጥቀመሉ	-7892
▁የጸግሞም	-7893
ACHINGS	-7894
▁ሚስዮናዊት	-7895
▁ምምርማርና	-7896
▁ብምንባሮም	-7897
▁ብዚተሓሓዝ	-7898
▁ንባህርያት	-7899
▁ኽንጥንቀቕ	-7900
▁ዓሰርተታት	-7901
▁ዝነበርኩሉ	-7902
▁ጥበበኛታት	-7903
▁ጴንጠቆስጠ	-7904
,000,000	-7905
▁ኣእምሮኣውን	-7906
▁እተመሃርናዮ	-7907
▁ኽንተኣማመን	-7908
▁TEACHINGS	-7909
ለብ	-7910
ለጦ	-7911
ሉዶ	-7912
ልቃ	-7913
ልኻ	-7914
ልዉ	-7915
ልጣ	-7916
ማዲ	-7917
ምራ	-7918
ርኔ	-7919
ርዕ	-7920
ሮኒ	-7921
ስር	-7922
ቃዕ	-7923
በኹ	-7924
ቡካ	-7925
ባሉ	-7926
ቨን	-7927
ተነ	-7928
ኑሉ	-7929
ገም	-7930
ጊሙ	-7931
ጋን	-7932
ጓን	-7933
ጥም	-7934
ፈካ	-7935
ፊክ	-7936
▁E	-7937
▁R	-7938
▁d	-7939
▁ሺ	-7940
ለምደ	-7941
ለዋወ	-7942
ላለያ	-7943
ሌዎስ	-7944
ልማት	-7945
ሓሎም	-7946
ሓድገ	-7947
ምላዊ	-7948
ረጸን	-7949
ራሻት	-7950
ርንያ	-7951
በላሹ	-7952
ባረኹ	-7953
ብሎም	-7954
ዕቅብ	-7955
ዖምን	-7956
ዲዶም	-7957
ዴክስ	-7958
ጓዓዝ	-7959
ጥርዩ	-7960
ጻጸር	-7961
ፒንስ	-7962
▁3,	-7963
▁62	-7964
▁73	-7965
▁መኣ	-7966
▁መዋ	-7967
▁ማራ	-7968
▁ሰይ	-7969
▁ስታ	-7970
▁ቅር	-7971
▁ተሌ	-7972
▁ተጨ	-7973
▁ቻይ	-7974
▁ንቤ	-7975
▁ንያ	-7976
▁ንጓ	-7977
▁ኣቃ	-7978
▁ኣቡ	-7979
▁ከማ	-7980
▁ዓቂ	-7981
▁ዘን	-7982
▁ጾር	-7983
▁ፈቐ	-7984
tesy	-7985
ረኽቦም	-7986
ስምዓኒ	-7987
ዛሕትና	-7988
▁130	-7989
▁ሃናን	-7990
▁ሉተር	-7991
▁ላዕለ	-7992
▁ሓላው	-7993
▁ሓንጎ	-7994
▁ሙቐት	-7995
▁ምሹእ	-7996
▁ምውሳ	-7997
▁ራዘር	-7998
▁ሰፈር	-7999
▁በብመ	-8000
▁ብስሙ	-8001
▁ብኣይ	-8002
▁ብዝኸ	-8003
▁ብገለ	-8004
▁ተረጋ	-8005
▁ተቐሚ	-8006
▁ተቐቲ	-8007
▁ተንኪ	-8008
▁ተወኪ	-8009
▁ተጠራ	-8010
▁ትምኒ	-8011
▁ናትካ	-8012
▁ንስነ	-8013
▁ንግዜ	-8014
▁ኣስዓ	-8015
▁ኣከኣ	-8016
▁ኣውረ	-8017
▁ኣይር	-8018
▁እዙዝ	-8019
▁እገዳ	-8020
▁እጽሊ	-8021
▁ከሎኻ	-8022
▁ከይዱ	-8023
▁ኪመር	-8024
▁ካባና	-8025
▁ኬቕን	-8026
▁ክርአ	-8027
▁ክብል	-8028
▁ኺመር	-8029
▁ኺሰር	-8030
▁ኽብል	-8031
▁ወሃቢ	-8032
▁ወሰኽ	-8033
▁ወጺኡ	-8034
▁ዓርክ	-8035
▁ዓቕም	-8036
▁ዘክር	-8037
▁ዘውጽ	-8038
▁ዚሞቱ	-8039
▁ዜብሉ	-8040
▁ዝኸዱ	-8041
▁ያሪኮ	-8042
▁ይጠቕ	-8043
▁ድቃስ	-8044
▁ግራም	-8045
▁ጥንሲ	-8046
መሓላልፍ	-8047
ርኔሌዎስ	-8048
ርእይዎም	-8049
▁መዐቀኒ	-8050
▁መጸናን	-8051
▁ምስናይ	-8052
▁ምውሳድ	-8053
▁ምውጻእ	-8054
▁ምግባሩ	-8055
▁በጻሕኩ	-8056
▁ብልዕሊ	-8057
▁ብመገዲ	-8058
▁ብነብዪ	-8059
▁ብግልጺ	-8060
▁ተሓቲሙ	-8061
▁ናዝሬት	-8062
▁ንኣምለ	-8063
▁ንዕኦም	-8064
▁ንዘሎና	-8065
▁ንፈተና	-8066
▁ኣባጊዕ	-8067
▁ኣዋልድ	-8068
▁ኣደራሽ	-8069
▁ኣጕሊሑ	-8070
▁እምንቲ	-8071
▁እነርኢ	-8072
▁እያሱን	-8073
▁ኪሕልዉ	-8074
▁ካልቪን	-8075
▁ክዛረብ	-8076
▁ኽበሃል	-8077
▁ኽንብል	-8078
▁ዊልያም	-8079
▁ውግኣት	-8080
▁ዓለምና	-8081
▁ዘላቶም	-8082
▁ዘተስፈ	-8083
▁ዘይተኣ	-8084
▁ዘይደሊ	-8085
▁ዘድልዮ	-8086
▁ዚምራሕ	-8087
▁ዚድግፍ	-8088
▁ዚፈልጦ	-8089
▁ዜሐጕሶ	-8090
▁ዜምልኹ	-8091
▁ዝመርሕ	-8092
▁ዝኣዘዞ	-8093
▁ዝወሃብ	-8094
▁ዝደረኾ	-8095
▁ዝገደፎ	-8096
▁ዝፈቐደ	-8097
▁ዝፈጠሮ	-8098
▁ይሕግዝ	-8099
▁ይጽዕር	-8100
▁ደልዮም	-8101
▁ጃምላዊ	-8102
▁ገበሮም	-8103
▁ጠቒስዎ	-8104
▁ጻዕርን	-8105
▁ፈጺምና	-8106
▁ሃንደበት	-8107
▁መንፈቕን	-8108
▁መጽሔታት	-8109
▁መፈንጠራ	-8110
▁ምልውዋጥ	-8111
▁ምሕረትን	-8112
▁ምሕዝነት	-8113
▁ምምዕባል	-8114
▁ርኽሰትን	-8115
▁ብሃይማኖ	-8116
▁ብምስትን	-8117
▁ብምውሳድ	-8118
▁ብምጥቃም	-8119
▁ብተግባር	-8120
▁ተመራማሪ	-8121
▁ተማሂርና	-8122
▁ተስፋታት	-8123
▁ተገንዚቡ	-8124
▁ትርጕማት	-8125
▁ንሰማዕቱ	-8126
▁ንዓሰርተ	-8127
▁ንድሕነት	-8128
▁አመስግነ	-8129
▁ኣበየናይ	-8130
▁ኣይሁድን	-8131
▁እተጠምቁ	-8132
▁እተጠቕሱ	-8133
▁ከባቢኦም	-8134
▁ኪመስልዎ	-8135
▁ክህልወና	-8136
▁ኽንጥቀም	-8137
▁ዘይኣምኑ	-8138
▁ዘይፍጽም	-8139
▁ዘገልገለ	-8140
▁ዘገልግል	-8141
▁ዚህልዎም	-8142
▁ዚሕግዘካ	-8143
▁ዚትንክፍ	-8144
▁ዜቕርብዎ	-8145
▁ይሕብረና	-8146
▁ዳንኤልን	-8147
▁ጽሑፋትና	-8148
▁ፍልልያት	-8149
ourtesy	-8150
▁ብምኽኣለይ	-8151
▁ተፈጥሮኣዊ	-8152
▁ንኤርምያስ	-8153
▁ኣሕዋተይን	-8154
▁ኣየገርምን	-8155
▁እስራኤላዊ	-8156
▁ከይጸናሕኩ	-8157
▁ክንሕግዞም	-8158
▁ኽንመላለስ	-8159
▁ዘይነበሮም	-8160
▁ፕሮፓጋንዳ	-8161
▁መጽናዕትታት	-8162
▁ንመብዛሕትኡ	-8163
▁ትምህርትታትን	-8164
26	-8165
ላድ	-8166
ሪኹ	-8167
ሰስ	-8168
ብረ	-8169
ታታ	-8170
ቶቡ	-8171
ነወ	-8172
እካ	-8173
ከና	-8174
ኪን	-8175
ኳን	-8176
ኽታ	-8177
ዀኖ	-8178
ዝሐ	-8179
ደሩ	-8180
ጠዓ	-8181
ጣጠ	-8182
ፍካ	-8183
ፍያ	-8184
▁ሹ	-8185
▁ቮ	-8186
▁ዙ	-8187
▁ጵ	-8188
▁●	-8189
ህነት	-8190
ለልና	-8191
ለይዎ	-8192
ላለሰ	-8193
ላሕታ	-8194
ልላይ	-8195
ልያድ	-8196
ሓድጎ	-8197
ሕቦም	-8198
ሕድሩ	-8199
ምንጭ	-8200
ሬትን	-8201
ርሃት	-8202
ቃወሞ	-8203
ቋርጾ	-8204
በኩም	-8205
ባሪቑ	-8206
ብርቲ	-8207
ቭየት	-8208
ታታት	-8209
ትኹም	-8210
እመን	-8211
እትዉ	-8212
ወስደ	-8213
ዓልቱ	-8214
ዝሙር	-8215
ድዳእ	-8216
ገልና	-8217
▁83	-8218
▁ሄን	-8219
▁ሓቁ	-8220
▁ሜሪ	-8221
▁ቨር	-8222
▁ተና	-8223
▁ነቒ	-8224
▁ንሚ	-8225
▁ንቐ	-8226
▁ክወ	-8227
▁ኸቶ	-8228
▁ኹን	-8229
▁ኽሲ	-8230
▁ኽነ	-8231
▁ዘሐ	-8232
▁ዚል	-8233
▁ጕህ	-8234
▁ጥቐ	-8235
▁ጲላ	-8236
▁ጸብ	-8237
መሓይሽ	-8238
ምርኰስ	-8239
ርድኣኒ	-8240
ሰልጥን	-8241
ቡካድነ	-8242
ተንከፈ	-8243
ንስቶም	-8244
ክልትን	-8245
ግባርን	-8246
▁103	-8247
▁145	-8248
▁ለኣኾ	-8249
▁ምድረ	-8250
▁ራስል	-8251
▁ርሒቑ	-8252
▁ስራሑ	-8253
▁ሽበራ	-8254
▁ቀሪባ	-8255
▁ባይታ	-8256
▁ብሕጂ	-8257
▁ብምር	-8258
▁ተነጊ	-8259
▁ተጻረ	-8260
▁ትሕዝ	-8261
▁ንኣገ	-8262
▁ንደቁ	-8263
▁ንጡፍ	-8264
▁ኢዶም	-8265
▁ኣባይ	-8266
▁ኣኺሉ	-8267
▁ኣይሕ	-8268
▁ኪጠቕ	-8269
▁ኬንያ	-8270
▁ውሱን	-8271
▁ዓብዩ	-8272
▁ዓውደ	-8273
▁ዕዮኡ	-8274
▁ዕጣን	-8275
▁ዕጽፊ	-8276
▁ዘይሓ	-8277
▁ዘፍቀ	-8278
▁ዚመጹ	-8279
▁ዚኸብ	-8280
▁ዝብሉ	-8281
▁ዝደኸ	-8282
▁ዝፈቐ	-8283
▁የማን	-8284
▁ይሞቱ	-8285
▁ይጸል	-8286
▁ደለኹ	-8287
▁ድራማ	-8288
▁ጥንቁ	-8289
▁ጥዑም	-8290
▁ጸኒሓ	-8291
▁ፍለጥ	-8292
▁1999	-8293
▁2002	-8294
▁ህቦብላ	-8295
▁ህያውን	-8296
▁ልብናን	-8297
▁ልዑላዊ	-8298
▁መለበሚ	-8299
▁መበለት	-8300
▁መዓሙቝ	-8301
▁መድረኽ	-8302
▁ምምጻኡ	-8303
▁ምብዛሕ	-8304
▁ምጥራይ	-8305
▁ምፍላጡ	-8306
▁ሰማዕቱ	-8307
▁ቀናኣት	-8308
▁ቝጽጽር	-8309
▁ባዕሎም	-8310
▁ቤተሰብ	-8311
▁ቤትካን	-8312
▁ብተግባ	-8313
▁ብጽሑፍ	-8314
▁ተሓተት	-8315
▁ተሓድሶ	-8316
▁ተተባቢ	-8317
▁ትሓስብ	-8318
▁ትርከብ	-8319
▁ናብቶም	-8320
▁ንሕልና	-8321
▁ንሰብኡ	-8322
▁ንሳኦል	-8323
▁ንስራሕ	-8324
▁ንትእዛ	-8325
▁ንንጉስ	-8326
▁ንዓይን	-8327
▁ንጉስን	-8328
▁ንጹርን	-8329
▁ንጻዕር	-8330
▁ኣረጋገ	-8331
▁ከባቢና	-8332
▁ከነጥሪ	-8333
▁ኩባንያ	-8334
▁ኪዀነና	-8335
▁ኪጥቀስ	-8336
▁ኪጽልዩ	-8337
▁ክህልዎ	-8338
▁ክትኰኑ	-8339
▁ክንክን	-8340
▁ኺዛረብ	-8341
▁ዓለወኛ	-8342
▁ዓመጽን	-8343
▁ዕዉታት	-8344
▁ዘሕለፈ	-8345
▁ዚሰብኩ	-8346
▁ዜሐጕሰ	-8347
▁ዝደፍኡ	-8348
▁ዝጀመር	-8349
▁ዝጥቀም	-8350
▁የኽብር	-8351
▁ደገፍን	-8352
▁ጀሚሮም	-8353
▁ገለጸት	-8354
▁ገበረት	-8355
▁ግንዛበ	-8356
▁ፊልጶስ	-8357
ቡካድነጻር	-8358
▁ህንጻታት	-8359
▁ላዕለዋይ	-8360
▁መነባብሮ	-8361
▁መንፈስን	-8362
▁መድሃኒት	-8363
▁ምህላዎም	-8364
▁ሰብኣያን	-8365
▁ብሪታኒካ	-8366
▁ብሽክለታ	-8367
▁ብተፈጥሮ	-8368
▁ብኻልኦት	-8369
▁ተመሊሶም	-8370
▁ተተርጒሙ	-8371
▁ተዓዘብቲ	-8372
▁ትጽቢታት	-8373
▁ንምምራሕ	-8374
▁ንዅላትና	-8375
▁ንጸሎትና	-8376
▁ንጽህናኡ	-8377
▁ኣሕዋቶም	-8378
▁ኣቤሴሎም	-8379
▁ኣብነቶም	-8380
▁እናገደደ	-8381
▁እንፈልጥ	-8382
▁ካህናትን	-8383
▁ኺሕግዞም	-8384
▁ኺወርስዋ	-8385
▁ኽንመስሎ	-8386
▁ኽንፈልጦ	-8387
▁ዘድልየና	-8388
▁ዚሕብረና	-8389
▁ዚገብረና	-8390
▁ዚግብኦም	-8391
▁ዛንታታት	-8392
▁ዜድልየኒ	-8393
▁ዜድልዩሉ	-8394
▁ዝፈጸምዎ	-8395
▁ድኽነትን	-8396
▁ገይርዎም	-8397
▁ጭንቀትን	-8398
▁ፊሊፒንስ	-8399
▁መዛሙርተይ	-8400
▁መገድታትን	-8401
▁ምዕባለታት	-8402
▁በብመዓልቱ	-8403
▁ብመንግስቲ	-8404
▁ብምሳልያዊ	-8405
▁ብእተኻእለ	-8406
▁ተመርኲስካ	-8407
▁ተዘክሮታት	-8408
▁ኣኼባታትና	-8409
▁ኣይከኣሉን	-8410
▁እተጠቕሰት	-8411
▁እተፈላለያ	-8412
▁እነርእየሉ	-8413
▁ካሊፎርንያ	-8414
▁ፈረንሳይኛ	-8415
▁መስተውዓልቲ	-8416
▁እተመሃርክዎ	-8417
▁እንስሳታትን	-8418
50	-8419
iv	-8420
ሌና	-8421
ሒቱ	-8422
ሓና	-8423
ሕዛ	-8424
ሙሉ	-8425
ረዮ	-8426
ስሐ	-8427
ሻው	-8428
ቨር	-8429
ንጥ	-8430
ከቡ	-8431
ክዩ	-8432
ዑና	-8433
ዓሎ	-8434
ዝማ	-8435
የሸ	-8436
ዮስ	-8437
ድኡ	-8438
ግር	-8439
ጐጉ	-8440
ጣት	-8441
ጽሪ	-8442
ጽዑ	-8443
ፊሉ	-8444
▁b	-8445
▁ጢ	-8446
▁፥	-8447
ህናን	-8448
ልምኖ	-8449
ልደን	-8450
ሕድረ	-8451
ራህቲ	-8452
ርሕቁ	-8453
ርሕቑ	-8454
ስፍን	-8455
ቈርጽ	-8456
ብካዶ	-8457
ተማህ	-8458
ነግሮ	-8459
ንቀት	-8460
እውጅ	-8461
እዎን	-8462
ካይን	-8463
ኻዊት	-8464
ወንጌ	-8465
ውህቦ	-8466
ዘንት	-8467
የናን	-8468
የይን	-8469
ይነይ	-8470
ደንት	-8471
ድሚት	-8472
ዶንያ	-8473
ግዛእ	-8474
ጐስን	-8475
ጻወቱ	-8476
ፊኦም	-8477
▁ሓዚ	-8478
▁ምሩ	-8479
▁ምኩ	-8480
▁ምኵ	-8481
▁ስቲ	-8482
▁ባራ	-8483
▁ነስ	-8484
▁ነጸ	-8485
▁ኒኮ	-8486
▁ናባ	-8487
▁ንታ	-8488
▁ንኢ	-8489
▁ኣጆ	-8490
▁ኤች	-8491
▁ክኽ	-8492
▁ዓወ	-8493
▁ይቐ	-8494
▁ግቡ	-8495
▁ጽባ	-8496
▁ፍሬ	-8497
ህልወሉ	-8498
ርዳኖስ	-8499
ሰምዓካ	-8500
ሰምዖን	-8501
ቕልበሉ	-8502
በይትን	-8503
ተርጐመ	-8504
ትንስእ	-8505
ክትታት	-8506
ዋጽኡሉ	-8507
ዛረበሉ	-8508
ዛረቦም	-8509
ድልዮም	-8510
▁ሂቡኒ	-8511
▁ሓገዙ	-8512
▁መታለ	-8513
▁ማሕር	-8514
▁ማዕጾ	-8515
▁ረኣኹ	-8516
▁ርእሳ	-8517
▁በሃል	-8518
▁ባእሲ	-8519
▁ብሞሳ	-8520
▁ብዓመ	-8521
▁ተኣሚ	-8522
▁ታሕቲ	-8523
▁ንሓዳ	-8524
▁ንሕሙ	-8525
▁ንማር	-8526
▁ንኖህ	-8527
▁ንእኩ	-8528
▁ንፋስ	-8529
▁ንፍቓ	-8530
▁ኣቕሊ	-8531
▁ኣይሰ	-8532
▁ኣደዳ	-8533
▁ዀንኩ	-8534
▁ውሰድ	-8535
▁ዘኽኣ	-8536
▁ዚፈት	-8537
▁ዝነኣ	-8538
▁ዝኸበ	-8539
▁ዝደል	-8540
▁የፍቅ	-8541
▁ይኸዱ	-8542
▁ዳግም	-8543
▁ገዓዙ	-8544
▁ግበሩ	-8545
▁ጠፍአ	-8546
▁ጣልቃ	-8547
▁ጥራዝ	-8548
▁ፈጸመ	-8549
መያየጠሉ	-8550
ረዚደንት	-8551
▁1930	-8552
▁ሓያላት	-8553
▁ሓጊዝዎ	-8554
▁ሜክሲኮ	-8555
▁ምድላይ	-8556
▁ሶቭየት	-8557
▁ሽግራት	-8558
▁በብሓደ	-8559
▁ብኽልተ	-8560
▁ብዘመን	-8561
▁ተቐቢሉ	-8562
▁ተበግሶ	-8563
▁ተዋጋእ	-8564
▁ተዛረቡ	-8565
▁ተጠቐም	-8566
▁ነገዳት	-8567
▁ኢልዎም	-8568
▁ኣማዕቢ	-8569
▁ኣቦይን	-8570
▁ኣንፈት	-8571
▁ኣዳለወ	-8572
▁ኣጸናኒ	-8573
▁ከምዚኣ	-8574
▁ኪሕግዞ	-8575
▁ኪስዕቡ	-8576
▁ኪዛረቡ	-8577
▁ክምለስ	-8578
▁ክፍጸም	-8579
▁ኮዴክስ	-8580
▁ኺምለስ	-8581
▁ኺበጽሑ	-8582
▁ኺፍጽም	-8583
▁ዘይረኸ	-8584
▁ዚቕበል	-8585
▁ዚዀነሉ	-8586
▁ዚገብራ	-8587
▁ዜኽእሎ	-8588
▁ዜግነት	-8589
▁ዜፍቅሩ	-8590
▁ዝሓተቶ	-8591
▁ዝረኣየ	-8592
▁ዝቘመት	-8593
▁ዝአመነ	-8594
▁ዝጀመሩ	-8595
▁ዝጸሓፈ	-8596
▁ዝጽዕሩ	-8597
▁ጉባኤኻ	-8598
▁ጊዴዎን	-8599
▁ግበርዎ	-8600
▁ግዜያት	-8601
▁ጣኦታት	-8602
▁ጥርጥር	-8603
▁ጸሎትካ	-8604
▁ሊቃውንቲ	-8605
▁ሓልዮትን	-8606
▁ምምስራት	-8607
▁ምስላታት	-8608
▁ምዕራባዊ	-8609
▁ስምዒትካ	-8610
▁ቕልውላው	-8611
▁ብጸሎትን	-8612
▁ተረጋጊጹ	-8613
▁ተርጐምቲ	-8614
▁ተሰሚዑካ	-8615
▁ተዘርዚሩ	-8616
▁ተደሪኽና	-8617
▁ንመንፈሳ	-8618
▁ንኺፍጽም	-8619
▁ኣልባንያ	-8620
▁ኣብኣውን	-8621
▁ኣጋጠመኒ	-8622
▁እተወሰኑ	-8623
▁እተዛረበ	-8624
▁እተፈልዩ	-8625
▁እነርእዮ	-8626
▁እናዓበየ	-8627
▁ከጋጥመና	-8628
▁ኪሕግዙኻ	-8629
▁ክንሰብኽ	-8630
▁ክንወስድ	-8631
▁ክእለትን	-8632
▁ኵነታትን	-8633
▁ኽንሓትት	-8634
▁ኽፍልታት	-8635
▁ዘይከውን	-8636
▁ዚመላለሱ	-8637
▁ዜሐጕስን	-8638
▁ዝርእይዎ	-8639
▁ዝሰምዕዎ	-8640
▁የሐጕሰና	-8641
▁ይኸብዶም	-8642
▁ጸሓፍትን	-8643
▁ጸቕጥታት	-8644
▁ልምድታትን	-8645
▁መብዛሕትና	-8646
▁መግለጺታት	-8647
▁ብቛንቋኦም	-8648
▁ትምህርተይ	-8649
▁ኣበርቲዖም	-8650
▁ኣገልገልኩ	-8651
▁ኮምፕዩተር	-8652
▁ዘሕለፍክዎ	-8653
▁ዝወረስናዮ	-8654
▁ዝገበረልና	-8655
▁ደብዳበታት	-8656
▁ብምስትውዓል	-8657
▁ነቡካድነጻር	-8658
▁ንኣገልገልቲ	-8659
lo	-8660
ህሊ	-8661
ለመ	-8662
ለር	-8663
መል	-8664
ምቕ	-8665
ረፍ	-8666
ሰላ	-8667
ሰሎ	-8668
ሰኒ	-8669
ሳቒ	-8670
ስስ	-8671
ስእ	-8672
ቕዑ	-8673
ብድ	-8674
ትኡ	-8675
ንኪ	-8676
ንድ	-8677
ኢት	-8678
ውእ	-8679
ዐት	-8680
ዑቕ	-8681
ዝቢ	-8682
ይሉ	-8683
ይረ	-8684
ደካ	-8685
ዱስ	-8686
ዳጋ	-8687
ጋሪ	-8688
ጠባ	-8689
ጹም	-8690
ጻሙ	-8691
ፍተ	-8692
▁ፌ	-8693
▁ፔ	-8694
600	-8695
ers	-8696
eum	-8697
ልካዮ	-8698
ልዮም	-8699
ሓትታ	-8700
ሕትኻ	-8701
መትን	-8702
ሙኤል	-8703
ረድኣ	-8704
ስእን	-8705
ስካር	-8706
በጽሖ	-8707
ብዕሉ	-8708
ብዮም	-8709
ንግል	-8710
ክዎም	-8711
ኹምን	-8712
ዋጋእ	-8713
ውስኖ	-8714
ውዕዎ	-8715
ውጽኡ	-8716
ዛዘም	-8717
ዛይድ	-8718
ዝገበ	-8719
ደትን	-8720
ገለጽ	-8721
ጕዳእ	-8722
ጸንዑ	-8723
ጽሕፉ	-8724
ፈለት	-8725
ፈልና	-8726
▁64	-8727
▁68	-8728
▁Is	-8729
▁ምዉ	-8730
▁ሬሳ	-8731
▁ሳው	-8732
▁ስሱ	-8733
▁ቅረ	-8734
▁ቐይ	-8735
▁በሊ	-8736
▁ባዶ	-8737
▁ብጕ	-8738
▁ተፋ	-8739
▁ናቱ	-8740
▁ኤር	-8741
▁ኤድ	-8742
▁እፎ	-8743
▁ካራ	-8744
▁ክዕ	-8745
▁ኽሊ	-8746
▁ዅነ	-8747
▁ወቕ	-8748
▁ወጹ	-8749
▁ዕለ	-8750
▁ዝድ	-8751
▁ዩክ	-8752
▁ድር	-8753
▁ጥሒ	-8754
▁ጽብ	-8755
1950	-8756
ሐጕሶም	-8757
ሕልላፍ	-8758
ርድኦም	-8759
ዛዝነት	-8760
ድልየና	-8761
ጀመርያ	-8762
ጠፍእሲ	-8763
▁ሊቃነ	-8764
▁ሓረስ	-8765
▁መልክ	-8766
▁መረጸ	-8767
▁መሪር	-8768
▁ማርታ	-8769
▁ምስዓ	-8770
▁ምክፋ	-8771
▁ሮማዊ	-8772
▁ሰሚዑ	-8773
▁ቂሮስ	-8774
▁ቤርያ	-8775
▁ብብር	-8776
▁ቦታኡ	-8777
▁ተሓት	-8778
▁ተሪር	-8779
▁ተኸቢ	-8780
▁ንመሲ	-8781
▁ንማሕ	-8782
▁ንብጾ	-8783
▁ንትን	-8784
▁ኣቦኻ	-8785
▁ኣተኹ	-8786
▁ኣወን	-8787
▁እትመ	-8788
▁እጃም	-8789
▁ካህን	-8790
▁ካራን	-8791
▁ክህብ	-8792
▁ኸይተ	-8793
▁ኸይት	-8794
▁ኸፈተ	-8795
▁ኽኢሉ	-8796
▁ወሰኑ	-8797
▁ዑደት	-8798
▁ዓለዉ	-8799
▁ዕማም	-8800
▁ዘእተ	-8801
▁ዚርኢ	-8802
▁ዚብላ	-8803
▁ዝብሎ	-8804
▁ይሃሉ	-8805
▁ይህሉ	-8806
▁ይድር	-8807
▁ጆኤል	-8808
▁ጠቐሰ	-8809
▁ጥቐስ	-8810
▁ፍትሓ	-8811
ምጽኣለይ	-8812
ስፋሕፍሕ	-8813
ባህርያዊ	-8814
ክሳንደር	-8815
▁2003	-8816
▁2004	-8817
▁page	-8818
▁ሂትለር	-8819
▁ለጋሳት	-8820
▁ሎሚውን	-8821
▁ሕታማት	-8822
▁መዕቈቢ	-8823
▁ማሕርሮ	-8824
▁ማዕበል	-8825
▁ምምጻእ	-8826
▁ምርመራ	-8827
▁ምውዓል	-8828
▁ምዕባለ	-8829
▁ምጽሓፍ	-8830
▁ርእሲኡ	-8831
▁ሰማዕቲ	-8832
▁ስምረቱ	-8833
▁ስምዒቱ	-8834
▁ስብከቱ	-8835
▁ስጳንኛ	-8836
▁ቀልጢፉ	-8837
▁ቅንዕና	-8838
▁ቅድስና	-8839
▁ብምሓዝ	-8840
▁ብቑዓት	-8841
▁ብተስፋ	-8842
▁ብኸፊል	-8843
▁ተንስአ	-8844
▁ተውህቦ	-8845
▁ተፈቕደ	-8846
▁ነፍሳት	-8847
▁ንእከይ	-8848
▁ንኽልቲ	-8849
▁ኢዛቤል	-8850
▁ኣመሳሲ	-8851
▁ኣትዮም	-8852
▁ኣከባቢ	-8853
▁ኣዕዋፍ	-8854
▁ኣይመስ	-8855
▁እስያን	-8856
▁እተመል	-8857
▁እትህቦ	-8858
▁ኪቕበሉ	-8859
▁ኪብሎም	-8860
▁ኪዛረብ	-8861
▁ኪፍጽም	-8862
▁ኬጽንዕ	-8863
▁ኺነብሩ	-8864
▁ዅላቶም	-8865
▁ዘርኣያ	-8866
▁ዘጋጥም	-8867
▁ዚስዕባ	-8868
▁ዚቝጸር	-8869
▁ዚብሃሉ	-8870
▁ዚካየድ	-8871
▁ዚውዕል	-8872
▁ዚፍጽሞ	-8873
▁ዜብልን	-8874
▁ዝሓበሮ	-8875
▁ዝበልጽ	-8876
▁የዘኻኽ	-8877
▁ይርእዩ	-8878
▁ይቐርብ	-8879
▁ይጠቅስ	-8880
▁ዮሳፋጥ	-8881
▁ገበርና	-8882
▁ገዛእቲ	-8883
▁ጠቓምን	-8884
▁ጽሙማን	-8885
▁ሕክምናዊ	-8886
▁መማሰውቲ	-8887
▁መአረምታ	-8888
▁ማህሰይቲ	-8889
▁ምስባኽን	-8890
▁ምቕባልሲ	-8891
▁ምንዝርና	-8892
▁ምግባርካ	-8893
▁ብርታዐን	-8894
▁ብትንሳኤ	-8895
▁ብፍርሃት	-8896
▁ብፍቕርን	-8897
▁ተሓተትቲ	-8898
▁ተማሃራይ	-8899
▁ተኣሲሮም	-8900
▁ትዝክሮዶ	-8901
▁ንሓድሕዱ	-8902
▁ንሕግታት	-8903
▁ንምጽናዕ	-8904
▁ንስኻውን	-8905
▁ንብሕታዊ	-8906
▁ንነገራት	-8907
▁ንኣስታት	-8908
▁ንዓመታት	-8909
▁ኣምላኸይ	-8910
▁ኣቐዲሞም	-8911
▁ኣዘውቲረ	-8912
▁ኣጸቢቕካ	-8913
▁እተሰርሐ	-8914
▁ከተጽንዕ	-8915
▁ኪገብርዎ	-8916
▁ክትመጽእ	-8917
▁ክትጥቀም	-8918
▁ኸዋኽብቲ	-8919
▁ኽንርድኦ	-8920
▁ኽንወስድ	-8921
▁ዘሕለፍዎ	-8922
▁ዘጠቓለለ	-8923
▁ዚደልዮም	-8924
▁ዚገብሮም	-8925
▁ዚግበረሉ	-8926
▁ዚጠቕመና	-8927
▁ዝነበረቶ	-8928
▁ዝዓበየት	-8929
▁ዝጀመረሉ	-8930
▁ይድርኸና	-8931
▁ዮርዳኖስ	-8932
▁ጸወታታት	-8933
▁ጽውጽዋይ	-8934
▁Museum	-8935
▁መንግስትን	-8936
▁መጽናዕትን	-8937
▁ምትብባዕን	-8938
▁ስድራቤትና	-8939
▁ንሃዋርያቱ	-8940
▁ንጽህናኦም	-8941
▁ኣእምሮኦም	-8942
▁ኣይኪህሉን	-8943
▁ከይጠፍእሲ	-8944
▁ዜስካሕክሕ	-8945
▁የተባብዓና	-8946
▁Picture	-8947
▁ኣስተብህለሉ	-8948
▁ክንተኣማመን	-8949
▁ንመንፈሳውነት	-8950
,4	-8951
28	-8952
35	-8953
ለላ	-8954
ላጢ	-8955
ልቦ	-8956
ሓሊ	-8957
ሓቐ	-8958
ሓቱ	-8959
ሓኑ	-8960
ረኹ	-8961
ረግ	-8962
ርዞ	-8963
ሽፍ	-8964
ቓን	-8965
ቕሊ	-8966
ባባ	-8967
ታኡ	-8968
ኒክ	-8969
ናፍ	-8970
ክም	-8971
ኸለ	-8972
ወረ	-8973
ውፊ	-8974
ዘና	-8975
ዝሖ	-8976
ዥያ	-8977
ያመ	-8978
ዮት	-8979
ጀን	-8980
ጓይ	-8981
ጠቐ	-8982
ጥሩ	-8983
ጻን	-8984
ጽመ	-8985
▁­	-8986
▁ሑ	-8987
ህርዎ	-8988
ህብን	-8989
ለሎም	-8990
ለወሉ	-8991
ለድኩ	-8992
ሓስቦ	-8993
ረስዎ	-8994
ረብሕ	-8995
ራብን	-8996
ስትን	-8997
በራቲ	-8998
በራን	-8999
ተራት	-9000
ታለል	-9001
ትነት	-9002
ኣሎም	-9003
እዎም	-9004
ኩምዎ	-9005
ካይዳ	-9006
ዒሎም	-9007
ዓሉን	-9008
ዘራረ	-9009
ይንና	-9010
ደይን	-9011
ግዜኡ	-9012
ግደሰ	-9013
ጐድኡ	-9014
ጣርን	-9015
ጻወር	-9016
ጻወት	-9017
ፈትሑ	-9018
▁1.	-9019
▁Ma	-9020
▁on	-9021
▁ሃዲ	-9022
▁ለበ	-9023
▁ልኢ	-9024
▁ልእ	-9025
▁መቄ	-9026
▁ምረ	-9027
▁ርባ	-9028
▁ሳኦ	-9029
▁ስት	-9030
▁ሸይ	-9031
▁ቀያ	-9032
▁ብባ	-9033
▁ብከ	-9034
▁ኣሊ	-9035
▁ኣቲ	-9036
▁ክሎ	-9037
▁ኮፍ	-9038
▁ኺሓ	-9039
▁ኺዕ	-9040
▁ዝብ	-9041
▁ዝዝ	-9042
▁ጀኒ	-9043
▁ጀይ	-9044
▁ግዲ	-9045
1945	-9046
ምልካት	-9047
ሰምዑን	-9048
ትንክፎ	-9049
ነቶምን	-9050
ኸይድን	-9051
ያውያን	-9052
ደልድላ	-9053
ገብረካ	-9054
ገድሰና	-9055
ጠራጠሩ	-9056
ጥቀመላ	-9057
▁106	-9058
▁400	-9059
▁ሃረር	-9060
▁ህድእ	-9061
▁ሎሚኸ	-9062
▁መሃል	-9063
▁መሓዙ	-9064
▁መርሚ	-9065
▁መጻወ	-9066
▁ምልስ	-9067
▁ምሕዝ	-9068
▁ምግላ	-9069
▁ምጥር	-9070
▁ስኮት	-9071
▁ቀብሪ	-9072
▁ቆራሕ	-9073
▁ቐደም	-9074
▁ቤታን	-9075
▁ብንያ	-9076
▁ብኣጋ	-9077
▁ብዝሓ	-9078
▁ተረፍ	-9079
▁ተቓው	-9080
▁ነጋዶ	-9081
▁ናውቲ	-9082
▁ንመሰ	-9083
▁ንርኢ	-9084
▁ንእት	-9085
▁ንኺሕ	-9086
▁ኣልቦ	-9087
▁ኣሪስ	-9088
▁ኣቕሑ	-9089
▁ኣተኲ	-9090
▁ኣውጺ	-9091
▁ኣይበ	-9092
▁ኣይኣ	-9093
▁ኤንድ	-9094
▁እናሰ	-9095
▁እንታ	-9096
▁ኦሃዮ	-9097
▁ከይደ	-9098
▁ኪርአ	-9099
▁ኪኸፍ	-9100
▁ኪዀነ	-9101
▁ኬዕቍ	-9102
▁ክልሰ	-9103
▁ኸድኩ	-9104
▁ወሲኑ	-9105
▁ወቕቲ	-9106
▁ወገን	-9107
▁ውሩይ	-9108
▁ዓምዲ	-9109
▁ዘይቲ	-9110
▁ዚጸል	-9111
▁ዚፍለ	-9112
▁ዝሓመ	-9113
▁ዝቐር	-9114
▁ዝዓዪ	-9115
▁ዝደለ	-9116
▁ዝጽበ	-9117
▁ይፍት	-9118
▁ደሞዝ	-9119
▁ደናግ	-9120
▁ገበነ	-9121
▁ገዛና	-9122
▁ጭንቂ	-9123
▁ጸለኹ	-9124
▁ፈታኒ	-9125
ተንስኦም	-9126
▁ሃገሮም	-9127
▁ሓዊስካ	-9128
▁ሓድሕድ	-9129
▁ሕድገት	-9130
▁መርምር	-9131
▁መስቀል	-9132
▁መዓርግ	-9133
▁መዓስን	-9134
▁መዝገበ	-9135
▁ማሪታዊ	-9136
▁ምምላኽ	-9137
▁ምምራሕ	-9138
▁ምስራሕ	-9139
▁ምውካል	-9140
▁ምጥፋእ	-9141
▁ሰላምታ	-9142
▁ስርዓተ	-9143
▁ሶዶምን	-9144
▁ቅንኣት	-9145
▁ቍጽሮም	-9146
▁ባሪኽዎ	-9147
▁ብሓቅን	-9148
▁ብምምላ	-9149
▁ብቕኑዕ	-9150
▁ብወገን	-9151
▁ብዚብል	-9152
▁ተማህረ	-9153
▁ተኣስረ	-9154
▁ተኸፊቱ	-9155
▁ተወከስ	-9156
▁ተገንዘ	-9157
▁ትእምር	-9158
▁ትኽእሉ	-9159
▁ንምምስ	-9160
▁ንምዕቋ	-9161
▁ንሰናይ	-9162
▁ንኣዳም	-9163
▁ንዝዀኑ	-9164
▁ንጥፈት	-9165
▁ንጽዕር	-9166
▁ኣለወን	-9167
▁ኣርኣዩ	-9168
▁ኣሮንን	-9169
▁ኣንቶን	-9170
▁ኣይትሕ	-9171
▁እሓስብ	-9172
▁እተኸፋ	-9173
▁ከሓድቲ	-9174
▁ከተርኢ	-9175
▁ኪበልዑ	-9176
▁ኪጥመቑ	-9177
▁ካሌብን	-9178
▁ኬኽብሩ	-9179
▁ኬጋጥሞ	-9180
▁ክመጽእ	-9181
▁ክንህብ	-9182
▁ክገብሮ	-9183
▁ኺመሃሩ	-9184
▁ኼርእዩ	-9185
▁ኽገብሩ	-9186
▁ወሲዶም	-9187
▁ወጺኦም	-9188
▁ዓመጻን	-9189
▁ዕድሚኣ	-9190
▁ዘሎኩም	-9191
▁ዚለዓል	-9192
▁ዚሓስቡ	-9193
▁ዚምለሱ	-9194
▁ዚድሕኑ	-9195
▁ዚገልጹ	-9196
▁ዚጽዕር	-9197
▁ዜስዕቦ	-9198
▁ዝሓሰብ	-9199
▁ዝሓዘት	-9200
▁ዝመልኣ	-9201
▁ዝረክብ	-9202
▁ዝሰርሕ	-9203
▁ዝቐጸለ	-9204
▁ዝተረፉ	-9205
▁ዝወረደ	-9206
▁ዝፈለጥ	-9207
▁የሐጕሶ	-9208
▁ይህልዎ	-9209
▁ይቕጽል	-9210
▁ይእከቡ	-9211
▁ይፍጽሙ	-9212
▁ገንሸል	-9213
▁ጽምብል	-9214
▁ፈሊጦም	-9215
▁ፍርህን	-9216
ድንግጸሎም	-9217
▁ህጹጽነት	-9218
▁ሓዲጉልና	-9219
▁ሕቶታትን	-9220
▁ሕያዋይን	-9221
▁መጀመርያ	-9222
▁ምሳሌታት	-9223
▁ምፍላጥካ	-9224
▁ባህልታት	-9225
▁ብመሰረቱ	-9226
▁ብመዓልቲ	-9227
▁ብምስማዕ	-9228
▁ብምቕራብ	-9229
▁ብምዃንና	-9230
▁ብትኽክል	-9231
▁ተለቪዥን	-9232
▁ተሓጒስና	-9233
▁ተረዳእኩ	-9234
▁ተኸታታሊ	-9235
▁ተጠንቀቕ	-9236
▁ንሓሙሽተ	-9237
▁ንመስዋእ	-9238
▁ንምርዳእ	-9239
▁ንምዝራብ	-9240
▁ንስምዒት	-9241
▁ንቕድሚት	-9242
▁ኣስኣሰር	-9243
▁ኣትክልቲ	-9244
▁እተደንቕ	-9245
▁እትረኽቦ	-9246
▁እንጥቀም	-9247
▁ኪትንስኡ	-9248
▁ክሕግዞም	-9249
▁ክትራኸብ	-9250
▁ክፍልታት	-9251
▁ኼጋጥሞም	-9252
▁ኽትገልጽ	-9253
▁ዕላማታት	-9254
▁ዚድርኸና	-9255
▁ዝመልአት	-9256
▁ዩክረይን	-9257
▁ይሰማማዕ	-9258
▁ይገብረና	-9259
▁ይጥቀሙሉ	-9260
▁ጥንታዎት	-9261
▁ጽልዋታት	-9262
▁ጽንዓትን	-9263
▁መስጐጕትን	-9264
▁መንግስትኻ	-9265
▁ቆርኔሌዎስ	-9266
▁ባህርያቱን	-9267
▁ብምግባርን	-9268
▁ብምግባሮም	-9269
▁ተሰሚዕዎም	-9270
▁ነገስታትን	-9271
▁ንህይወትካ	-9272
▁ንህይወቶም	-9273
▁ንረብሓታት	-9274
▁ንኣርባዕተ	-9275
▁ንእስነተይ	-9276
▁ኣረኣእያኡ	-9277
▁ኣገልጊሎም	-9278
▁እምነቶምን	-9279
▁እተመባጽዓ	-9280
▁እተማህርዎ	-9281
▁ኸነማዕብል	-9282
▁ኽንጥቀመሉ	-9283
▁ዕላማታቱን	-9284
▁ዝገበርካዮ	-9285
▁ፍልስጥኤም	-9286
▁ፕረዚደንት	-9287
▁ስዊዘርላንድ	-9288
▁ኣተሓሳስባን	-9289
▁ኣጠንቂቕዎም	-9290
▁ዘይፍጽምናን	-9291
33	-9292
DR	-9293
ac	-9294
te	-9295
መኖ	-9296
መጠ	-9297
ሙኒ	-9298
ራና	-9299
ራኽ	-9300
ራዕ	-9301
ሲኡ	-9302
ቈስ	-9303
ቘር	-9304
ብኦ	-9305
ነኒ	-9306
ኒስ	-9307
ከቢ	-9308
ካሉ	-9309
ክሊ	-9310
ክሪ	-9311
ኽነ	-9312
ዘሉ	-9313
ይዋ	-9314
ዳብ	-9315
ድሐ	-9316
ድዩ	-9317
ጓም	-9318
ጠብ	-9319
ጥፈ	-9320
ጸኒ	-9321
▁;	-9322
▁ጡ	-9323
▁ጶ	-9324
▁□	-9325
HIL	-9326
the	-9327
ለስቲ	-9328
ለየን	-9329
ልተን	-9330
ልእኾ	-9331
ሓትዎ	-9332
ሕሓዝ	-9333
ማልኡ	-9334
ማቶም	-9335
ምሶን	-9336
ሞራን	-9337
ረናን	-9338
ራማት	-9339
ራርሓ	-9340
ሰምዐ	-9341
ሰርኩ	-9342
ሰንን	-9343
ስቲን	-9344
ስጥን	-9345
ቅበሎ	-9346
ቆምን	-9347
ባይል	-9348
ተኽሉ	-9349
ቶቡስ	-9350
ናዮም	-9351
ንስሳ	-9352
ካፍል	-9353
ዑዋት	-9354
ዓመቱ	-9355
የሎም	-9356
ደሎም	-9357
ድንቖ	-9358
ጥሕስ	-9359
ጥታዊ	-9360
ጥነት	-9361
ጶታም	-9362
ጻረሮ	-9363
ፈጸመ	-9364
ፋርቕ	-9365
▁71	-9366
▁Co	-9367
▁ሃጌ	-9368
▁ለባ	-9369
▁መኸ	-9370
▁ሰባ	-9371
▁ሻም	-9372
▁ቦም	-9373
▁ተታ	-9374
▁ቺለ	-9375
▁ንሲ	-9376
▁ንዋ	-9377
▁አላ	-9378
▁ኣሲ	-9379
▁ኪእ	-9380
▁ኺፍ	-9381
▁ዓረ	-9382
▁ዚደ	-9383
▁ድሒ	-9384
▁ገደ	-9385
▁ግራ	-9386
▁ጐድ	-9387
▁ፕሪ	-9388
DREN	-9389
ላንድን	-9390
ሕልፍዎ	-9391
ምስርቱ	-9392
ምስክር	-9393
ርከብን	-9394
ሰምዓና	-9395
ስተማቕ	-9396
በጽሖም	-9397
ትግብሮ	-9398
ነብረላ	-9399
ናውነት	-9400
ዘርግሐ	-9401
ዛረብን	-9402
ድኣትን	-9403
ፍቅሮን	-9404
▁Lib	-9405
▁ሃናጺ	-9406
▁ሒዝና	-9407
▁ሓልዩ	-9408
▁ሕሳብ	-9409
▁ሕተታ	-9410
▁ሕያው	-9411
▁መበለ	-9412
▁ማላዊ	-9413
▁ምረቓ	-9414
▁ምናዳ	-9415
▁ሞገሱ	-9416
▁ርስቲ	-9417
▁ርትዓ	-9418
▁ሰምዖ	-9419
▁ስርቂ	-9420
▁ስያመ	-9421
▁ሻውዓ	-9422
▁ቃለይ	-9423
▁ቍሩብ	-9424
▁በጽሑ	-9425
▁ብሙሴ	-9426
▁ብባህ	-9427
▁ብብሕ	-9428
▁ብዋጋ	-9429
▁ብግዲ	-9430
▁ናተይ	-9431
▁ንምብ	-9432
▁ንሳን	-9433
▁ንባቢ	-9434
▁ንይሁ	-9435
▁ኣሮን	-9436
▁ኣተዉ	-9437
▁ኣትሪ	-9438
▁ኣይሃ	-9439
▁ኣይቈ	-9440
▁እተባ	-9441
▁ኦክስ	-9442
▁ከድና	-9443
▁ኪዓግ	-9444
▁ክሳብ	-9445
▁ክፍለ	-9446
▁ኸሎና	-9447
▁ኸንቱ	-9448
▁ኸኣሉ	-9449
▁ኺወጹ	-9450
▁ኻባና	-9451
▁ዀይን	-9452
▁ወዶም	-9453
▁ዓረብ	-9454
▁ዓቕሚ	-9455
▁ዘለዓ	-9456
▁ዚዓቢ	-9457
▁ዚዕየ	-9458
▁ዜዕቍ	-9459
▁ዝወደ	-9460
▁ይፈቱ	-9461
▁ድሕረ	-9462
▁ጋህዲ	-9463
▁ጐርዞ	-9464
▁ጓልና	-9465
▁ጠፊኡ	-9466
▁ጭቈና	-9467
▁ጭካነ	-9468
▁ጸሎቱ	-9469
▁ጽዑቕ	-9470
▁ፈራዲ	-9471
▁ፈጺመ	-9472
ምጽኣልካ	-9473
ሰማምዓሉ	-9474
ስተውዕሉ	-9475
ስተውዕሎ	-9476
ቈጻጸርዎ	-9477
ገብረልና	-9478
ጠንቅቐና	-9479
▁2014	-9480
▁CHIL	-9481
▁ሓብተይ	-9482
▁ሓዳርካ	-9483
▁መትረብ	-9484
▁መንበር	-9485
▁መጥምቕ	-9486
▁መፋርቕ	-9487
▁መፍትሕ	-9488
▁ማይክል	-9489
▁ምስዋእ	-9490
▁ምኽርን	-9491
▁ምድርና	-9492
▁ምገለጽ	-9493
▁ምጕዳል	-9494
▁ራእያት	-9495
▁ሰሙናዊ	-9496
▁ስራሖም	-9497
▁ስኢኖም	-9498
▁ቀጺለን	-9499
▁ቕንኣት	-9500
▁በይንኻ	-9501
▁በጺሖም	-9502
▁ባህላዊ	-9503
▁ቤቶምን	-9504
▁ብሓንቲ	-9505
▁ብስሩዕ	-9506
▁ብድምር	-9507
▁ብግዜኡ	-9508
▁ብጭካነ	-9509
▁ተልእኾ	-9510
▁ተመያየ	-9511
▁ተሰማም	-9512
▁ተወከል	-9513
▁ተፈታሕ	-9514
▁ትፈልጦ	-9515
▁ነፋሪት	-9516
▁ንሓጐስ	-9517
▁ንኣኼባ	-9518
▁ንዕኡን	-9519
▁ንደቅና	-9520
▁ንግዳዊ	-9521
▁ንጸላእ	-9522
▁ኣቐድም	-9523
▁ኣይርስ	-9524
▁ኣዳልዩ	-9525
▁ኣዴታት	-9526
▁እምነታ	-9527
▁እተወፈ	-9528
▁እንግሊ	-9529
▁እዋናዊ	-9530
▁እገብር	-9531
▁ኪምለሱ	-9532
▁ኪበጽሕ	-9533
▁ኪጠፍእ	-9534
▁ክሕደት	-9535
▁ክግበር	-9536
▁ኺገብሮ	-9537
▁ውልቃዊ	-9538
▁ውድቀት	-9539
▁ዓስቦም	-9540
▁ዕቝባን	-9541
▁ዘይተሓ	-9542
▁ዘይተቐ	-9543
▁ዘፍቀደ	-9544
▁ዚሓይሽ	-9545
▁ዚበጽሕ	-9546
▁ዚፈልጡ	-9547
▁ዚፍጽሙ	-9548
▁ዜእምን	-9549
▁ዝሃበኒ	-9550
▁ዝህቦም	-9551
▁ዝዀነኸ	-9552
▁ዝጽዕር	-9553
▁የቕርቡ	-9554
▁ይሕጐስ	-9555
▁ይሰምዕ	-9556
▁ይጅምር	-9557
▁ዳንየል	-9558
▁ገዓዝኩ	-9559
▁ጥንቃቐ	-9560
▁ጥዑያት	-9561
▁ጥዕናና	-9562
▁ጲላጦስ	-9563
▁ጸሎቶም	-9564
▁ጽብቕቲ	-9565
▁ጽዒሮም	-9566
ተባብዕዎም	-9567
▁1,000	-9568
▁መቄዶንያ	-9569
▁መብራህቲ	-9570
▁ምስትንታ	-9571
▁ምስናይዚ	-9572
▁ምእመናን	-9573
▁ምዝካርና	-9574
▁ምፍልላይ	-9575
▁ሰማያትን	-9576
▁ብሓፈሻኡ	-9577
▁ብምልእታ	-9578
▁ተሰሚዕዎ	-9579
▁ተዋጋእቲ	-9580
▁ተጠቒሙሉ	-9581
▁ተጠንቂቑ	-9582
▁ንመርምሮ	-9583
▁ንመንፈስ	-9584
▁ንምስዓብ	-9585
▁ንሳሙኤል	-9586
▁ንኺነብሩ	-9587
▁ንዝነበረ	-9588
▁ኣእምሮን	-9589
▁ኣይተቐየ	-9590
▁ኣይትረስ	-9591
▁ኣገዳስን	-9592
▁ኣጋጢሙካ	-9593
▁ኣጠንቀቐ	-9594
▁እተተኵር	-9595
▁እተነግረ	-9596
▁እንፈልጦ	-9597
▁ከገልግል	-9598
▁ኪርእይዎ	-9599
▁ክልቲአን	-9600
▁ክንሓስብ	-9601
▁ክእለትና	-9602
▁ኽንስዕብ	-9603
▁ኽንዝክር	-9604
▁ውህበትን	-9605
▁ዓበይትን	-9606
▁ዘኽእለና	-9607
▁ዘይነበሮ	-9608
▁ዘይኣምን	-9609
▁ዘይኰነት	-9610
▁ዘይፈልጡ	-9611
▁ዘይፍጹም	-9612
▁ዚስዕብዎ	-9613
▁ዚቕበልዎ	-9614
▁ዚከኣለና	-9615
▁ዚጽበየና	-9616
▁ዜዕግብን	-9617
▁ዝገበረቶ	-9618
▁ዝጸንሑሉ	-9619
▁ይስምዓና	-9620
▁ይደልየና	-9621
▁ይግንዘቡ	-9622
▁ፈተውትን	-9623
▁ሓላፍነትን	-9624
▁መሳርሒታት	-9625
▁ራዘርፎርድ	-9626
▁በርናባስን	-9627
▁ብመንፈስን	-9628
▁ብመጀመርታ	-9629
▁ተሰማሚዕካ	-9630
▁ተግባራትና	-9631
▁ትምህርታዊ	-9632
▁ንኣምለኽቱ	-9633
▁ንኣረኣእያ	-9634
▁ንኣንስቶም	-9635
▁ንእምነቶም	-9636
▁ንኽትረክብ	-9637
▁ንኽትከውን	-9638
▁ኣረማውያን	-9639
▁ኣስተውዓል	-9640
▁ኣይርላንድ	-9641
▁ኣይትጨነቑ	-9642
▁ኣይነበራን	-9643
▁ኦርቶዶክስ	-9644
▁ዘይኣመንቲ	-9645
▁የገልግልዎ	-9646
▁ስለምንታይን	-9647
▁ብመንፈሳውን	-9648
▁ብኣኽብሮትን	-9649
▁ተኣዛዝነትን	-9650
▁ወንጌላውነት	-9651
▁CHILDREN	-9652
▁ኣተሓሳስባኦም	-9653
▁ዘይፍትሓውነት	-9654
45	-9655
53	-9656
ON	-9657
ph	-9658
ry	-9659
ሊጡ	-9660
ላቕ	-9661
ሕታ	-9662
ርታ	-9663
ርዶ	-9664
ሰቲ	-9665
ስሃ	-9666
ስሊ	-9667
ቅቕ	-9668
ቆዲ	-9669
ቐኒ	-9670
ቤድ	-9671
ተል	-9672
ንሲ	-9673
እዋ	-9674
ከሙ	-9675
ከብ	-9676
ከኛ	-9677
ካም	-9678
ኮም	-9679
ኻብ	-9680
ኻዶ	-9681
ዅስ	-9682
ዅን	-9683
ዊን	-9684
ዋሂ	-9685
ዋዕ	-9686
ዛዊ	-9687
ያቱ	-9688
ደሎ	-9689
ደቡ	-9690
ገና	-9691
ጊሑ	-9692
ጊዱ	-9693
ጥካ	-9694
ጨነ	-9695
ጹህ	-9696
ፈላ	-9697
ፈነ	-9698
▁ሾ	-9699
▁ቬ	-9700
▁ጦ	-9701
ሃበና	-9702
ሃድሙ	-9703
ላምን	-9704
ልቀት	-9705
ልወጥ	-9706
ሜትን	-9707
ምርሒ	-9708
ምርም	-9709
ረኣዩ	-9710
ሪኾም	-9711
ራርን	-9712
ራንን	-9713
ራእይ	-9714
ርናን	-9715
ሰብኮ	-9716
ስወሉ	-9717
ስፍሕ	-9718
ሶትን	-9719
ቕደስ	-9720
በላሾ	-9721
በርቲ	-9722
ብሒቱ	-9723
ብርሂ	-9724
ተሓሕ	-9725
ነሰት	-9726
ነቓቕ	-9727
ነግር	-9728
ኣተን	-9729
ካንዶ	-9730
ውዖም	-9731
ዘዞም	-9732
ይንት	-9733
ደልና	-9734
ዳኽሞ	-9735
ድሕዎ	-9736
ድራኸ	-9737
ግምቶ	-9738
ጥቅዕ	-9739
ጸልና	-9740
ጸመሉ	-9741
ጻረሩ	-9742
ፍርስ	-9743
ፍቅድ	-9744
ፎምን	-9745
▁63	-9746
▁91	-9747
▁97	-9748
▁Fr	-9749
▁In	-9750
▁ሃነ	-9751
▁ሓም	-9752
▁ሓጺ	-9753
▁መካ	-9754
▁ረአ	-9755
▁ሰደ	-9756
▁ስቴ	-9757
▁ስኒ	-9758
▁ቀቢ	-9759
▁ቐሪ	-9760
▁ቡድ	-9761
▁ብሙ	-9762
▁ቦኣ	-9763
▁ቱቫ	-9764
▁ንሉ	-9765
▁ንሎ	-9766
▁ንሮ	-9767
▁ኣራ	-9768
▁ከሚ	-9769
▁ዎር	-9770
▁ደኺ	-9771
▁ዴቦ	-9772
▁ግለ	-9773
▁ግጥ	-9774
▁ጨው	-9775
▁ጸጥ	-9776
1940	-9777
ላእኽቲ	-9778
ሐጕሶን	-9779
መሓየሽ	-9780
ሮኒካዊ	-9781
ባውያን	-9782
ተሓታት	-9783
ተኵረሉ	-9784
ትርጕም	-9785
ንቀሳቐ	-9786
ክተርያ	-9787
ኽነይታ	-9788
ደልዩን	-9789
▁105	-9790
▁the	-9791
▁ሂንዱ	-9792
▁ሃበኒ	-9793
▁ሓመድ	-9794
▁ሓውሲ	-9795
▁ሓዲግ	-9796
▁ሕግን	-9797
▁መሊኡ	-9798
▁መወከ	-9799
▁መገሻ	-9800
▁ማራኺ	-9801
▁ምሂሩ	-9802
▁ምዝን	-9803
▁ምጽና	-9804
▁ሞስኮ	-9805
▁ረኺባ	-9806
▁ሳልቫ	-9807
▁ቐረበ	-9808
▁ቐጸለ	-9809
▁ቕቡል	-9810
▁ባሕረ	-9811
▁ባንክ	-9812
▁ብማዕ	-9813
▁ብሩር	-9814
▁ብፍቓ	-9815
▁ተቐበ	-9816
▁ተንከ	-9817
▁ተዓዚ	-9818
▁ተጻዊ	-9819
▁ትሕት	-9820
▁ንቑሕ	-9821
▁ንግዝ	-9822
▁ኢድካ	-9823
▁ኣሃዝ	-9824
▁ኣሎኻ	-9825
▁ኣሐጒ	-9826
▁ኣሕወ	-9827
▁ኣቕሪ	-9828
▁ኣይመ	-9829
▁ኣድሓ	-9830
▁ኣፍቂ	-9831
▁ኤሊሁ	-9832
▁እተደ	-9833
▁እናኸ	-9834
▁ካሌብ	-9835
▁ኮሎም	-9836
▁ኰተቴ	-9837
▁ኲናት	-9838
▁ኺርኢ	-9839
▁ወለዳ	-9840
▁ወለድ	-9841
▁ወደቐ	-9842
▁ውፉይ	-9843
▁ዘሎኻ	-9844
▁ዘርኡ	-9845
▁ዝሃቡ	-9846
▁ዝገዝ	-9847
▁ዝፈተ	-9848
▁ይቐር	-9849
▁ጸጕሪ	-9850
▁ጽሓፍ	-9851
▁ፈቒዱ	-9852
▁ፈታው	-9853
▁ፊሊፕ	-9854
▁ፍርዱ	-9855
▁ፍቕረ	-9856
▁ፍቕዲ	-9857
ማልኣሎም	-9858
ዘዝኩኹም	-9859
▁1939	-9860
▁Arch	-9861
▁ለዋህን	-9862
▁ልማዳት	-9863
▁ሓቂውን	-9864
▁ሓገዘኒ	-9865
▁ሓግዞም	-9866
▁መንደቕ	-9867
▁መንፈሱ	-9868
▁መአከቢ	-9869
▁ምውሳን	-9870
▁ምጽባይ	-9871
▁ምጽናሕ	-9872
▁ርክባት	-9873
▁ሰብነት	-9874
▁ስምዓዮ	-9875
▁ስፖርት	-9876
▁ቅንእን	-9877
▁ብራእይ	-9878
▁ብሰናይ	-9879
▁ብሰፊሑ	-9880
▁ብውግእ	-9881
▁ብፍርሂ	-9882
▁ተላዕለ	-9883
▁ተሓጐሱ	-9884
▁ተራኸበ	-9885
▁ተወስዱ	-9886
▁ተጓዕዘ	-9887
▁ተፈልጠ	-9888
▁ተፈጢሩ	-9889
▁ትምጻእ	-9890
▁ትረክብ	-9891
▁ትርጕሙ	-9892
▁ትካላት	-9893
▁ናብተን	-9894
▁ንልብና	-9895
▁ንመሲሕ	-9896
▁ንስልጣ	-9897
▁ንኸይት	-9898
▁ንዘለኣ	-9899
▁ኡጋንዳ	-9900
▁ኣሎኩም	-9901
▁ኣምጽአ	-9902
▁ኣሸጋሪ	-9903
▁ኣቢልካ	-9904
▁ኣቦኡን	-9905
▁ኣከኣብ	-9906
▁ኣውዕሎ	-9907
▁ኣውጺኡ	-9908
▁ኣፍቀራ	-9909
▁እስክን	-9910
▁ኪቕየር	-9911
▁ኪጸልዎ	-9912
▁ኺህቦም	-9913
▁ኺርእዩ	-9914
▁ኺጥቀሙ	-9915
▁ኽህልዎ	-9916
▁ኽንህቦ	-9917
▁ውሽጠይ	-9918
▁ዕዮታት	-9919
▁ዘለናሉ	-9920
▁ዘይተረ	-9921
▁ዚሓስብ	-9922
▁ዚሰምዑ	-9923
▁ዚሽፍን	-9924
▁ዚድግፉ	-9925
▁ዚጽበዩ	-9926
▁ዚፈትዉ	-9927
▁ዚፈትዎ	-9928
▁ዚፍጽም	-9929
▁ዜተኵሩ	-9930
▁ዜዘኻኽ	-9931
▁ዜገድስ	-9932
▁ዜፍርህ	-9933
▁ዝህበና	-9934
▁ዝሓቘፈ	-9935
▁ዝሰፈኖ	-9936
▁ዝቐለለ	-9937
▁ዝበሃሉ	-9938
▁ዝዓይነ	-9939
▁ይሓስቡ	-9940
▁ይሕጐሱ	-9941
▁ይመሃሩ	-9942
▁ይበሃል	-9943
▁ይወስድ	-9944
▁ይውዕል	-9945
▁ይገብራ	-9946
▁ይግብኣ	-9947
▁ይፍለጥ	-9948
▁ደናግል	-9949
▁ድንግል	-9950
▁ገዲፎም	-9951
▁ግሪኽን	-9952
▁ጎሞራን	-9953
▁ጸኒዕና	-9954
▁ጸኒዖም	-9955
▁ፍሉጣት	-9956
▁ፍቓድካ	-9957
▁ፍጡራቱ	-9958
▁ሓሳብካን	-9959
▁ምሂርዎም	-9960
▁ምትእስሳ	-9961
▁ምግባሮም	-9962
▁ሳልሰይቲ	-9963
▁ስምዒቶም	-9964
▁ስብከትን	-9965
▁ቅሳነትን	-9966
▁በብዓመቱ	-9967
▁ብሓድነት	-9968
▁ብሓጢኣት	-9969
▁ብምንጋር	-9970
▁ብምግልጋ	-9971
▁ብንጽህና	-9972
▁ብኣብነት	-9973
▁ተማሂርካ	-9974
▁ተዋህቦም	-9975
▁ተግባራዊ	-9976
▁ተጠቒምካ	-9977
▁ነጊርዎም	-9978
▁ንሕሙማት	-9979
▁ንመምርሒ	-9980
▁ንመዓልቲ	-9981
▁ንእንስሳ	-9982
▁ንኺረክብ	-9983
▁ንኽረክብ	-9984
▁ንኽገብሩ	-9985
▁ንድሕሪት	-9986
▁ንጽብሒቱ	-9987
▁ንፈጣሪና	-9988
▁ኣህዛብን	-9989
▁ኣርኣየት	-9990
▁ኣርዚኖም	-9991
▁ኣቀራርባ	-9992
▁ኣተሓሕዛ	-9993
▁ኣካይዳና	-9994
▁ኣኽኢሉኒ	-9995
▁ኣይሁዳዊ	-9996
▁ኣይፋሉን	-9997
▁ኣይፋልን	-9998
▁ኣጋጠመና	-9999
▁እተነበየ	-10000
▁ከገልግሉ	-10001
▁ኪወርስዋ	-10002
▁ኪጥቀሙሉ	-10003
▁ክትከይድ	-10004
▁ክንከይድ	-10005
▁ክውንነት	-10006
▁ኻህናትን	-10007
▁ኽትገብሮ	-10008
▁ኽትጥቀም	-10009
▁ዘይተጸበ	-10010
▁ዘገልግሉ	-10011
▁ዚህልወና	-10012
▁ዚነብረሉ	-10013
▁ዚከኣሎም	-10014
▁ዚግንዘቡ	-10015
▁ዚፈልጥዎ	-10016
▁ዜጋጥመካ	-10017
▁ዜፍቅሮም	-10018
▁ዝነበረካ	-10019
▁ዝወረስዎ	-10020
▁ይጠቕመና	-10021
▁ገለጸሎም	-10022
▁መመኽነይታ	-10023
▁መስተንክር	-10024
▁መብጽዓታቱ	-10025
▁ሰበይተይን	-10026
▁ስምዒታትና	-10027
▁ብኣወንታዊ	-10028
▁ተጠንቂቖም	-10029
▁ተጻዋርነት	-10030
▁ንምምዕባል	-10031
▁ንትምህርቲ	-10032
▁ንኺህልወና	-10033
▁ንኽንጸንዕ	-10034
▁ኢትዮጵያዊ	-10035
▁ኣስተውዓሊ	-10036
▁ኣይትፍራህ	-10037
▁ኣይከኣልን	-10038
▁ኣይደልዩን	-10039
▁እተመዝገበ	-10040
▁ዘንጸባርቕ	-10041
▁ይተኣማመን	-10042
▁ሓጢኣተኛታት	-10043
▁መንእሰያትን	-10044
▁ስርዓታውያን	-10045
▁ንተኣማንነት	-10046
▁ኣረኣእያታት	-10047
▁ኣረኣእያኦም	-10048
▁ኣይንፈልጥን	-10049
▁ወንጌላውያን	-10050
,0	-10051
TI	-10052
ሃሃ	-10053
ሃላ	-10054
ለጅ	-10055
ላግ	-10056
ልቫ	-10057
ሒዙ	-10058
ምዝ	-10059
ራቲ	-10060
ርባ	-10061
ሰቡ	-10062
ስራ	-10063
ስቶ	-10064
ሸለ	-10065
በኪ	-10066
ቢክ	-10067
ተስ	-10068
ኡዝ	-10069
ካብ	-10070
ኻሪ	-10071
ወይ	-10072
ዓወ	-10073
ዝካ	-10074
የሮ	-10075
ይያ	-10076
ዱር	-10077
ድሩ	-10078
ድኦ	-10079
ግሱ	-10080
ጠም	-10081
ጸሙ	-10082
ጽረ	-10083
ፉን	-10084
▁c	-10085
▁ዔ	-10086
ለኩም	-10087
ለኻዊ	-10088
ሉኦም	-10089
ሐጕሱ	-10090
ሒደት	-10091
ማምን	-10092
ማስን	-10093
ምብያ	-10094
ረተት	-10095
ረንስ	-10096
ረጹን	-10097
ራታዊ	-10098
ራጽን	-10099
ርሞን	-10100
ርዓት	-10101
ሳትፎ	-10102
ሽጣዊ	-10103
ሽፋን	-10104
ቕበል	-10105
በልካ	-10106
ባብን	-10107
ናታን	-10108
ንጭሮ	-10109
ኤልን	-10110
ኳዶር	-10111
ወልዱ	-10112
ዓናን	-10113
ዕልዎ	-10114
ዕድግ	-10115
ገዝኡ	-10116
ጋዝን	-10117
ጎምዎ	-10118
ጡፋት	-10119
ጥፍአ	-10120
ጻናት	-10121
ጽንዖ	-10122
▁59	-10123
▁61	-10124
▁78	-10125
▁ሌዋ	-10126
▁ሕጋ	-10127
▁መቐ	-10128
▁መፈ	-10129
▁ምጭ	-10130
▁ሰል	-10131
▁ሲሪ	-10132
▁ስሉ	-10133
▁ስቅ	-10134
▁ሻድ	-10135
▁ቍጡ	-10136
▁ብጋ	-10137
▁ብጐ	-10138
▁ቦሊ	-10139
▁ነና	-10140
▁ኤላ	-10141
▁ከብ	-10142
▁ከፊ	-10143
▁ኬሕ	-10144
▁ክፈ	-10145
▁ኺዝ	-10146
▁ኺድ	-10147
▁ኽወ	-10148
▁ዓቃ	-10149
▁ዕዉ	-10150
▁ዚከ	-10151
▁ይሰ	-10152
▁ዳኛ	-10153
▁ግት	-10154
▁ጕሉ	-10155
▁ጠር	-10156
▁ፈው	-10157
1919	-10158
1947	-10159
rary	-10160
ልጋርያ	-10161
ቀራረቡ	-10162
በላሸወ	-10163
በራውን	-10164
በርክት	-10165
ብለልና	-10166
ብልሻው	-10167
ትያናዊ	-10168
ወንጌል	-10169
ገልጽን	-10170
ጥንቀቑ	-10171
ጽንዕን	-10172
ፍቅደሉ	-10173
▁139	-10174
▁ለመነ	-10175
▁ለኣኸ	-10176
▁ልመና	-10177
▁ልማኖ	-10178
▁ልዕለ	-10179
▁ሎጥን	-10180
▁ሓሓሊ	-10181
▁ሓሳቡ	-10182
▁ሓቲቱ	-10183
▁ሓገዞ	-10184
▁መሃረ	-10185
▁መልሰ	-10186
▁መልሱ	-10187
▁መርኣ	-10188
▁መጻእ	-10189
▁ምምዝ	-10190
▁ምንኣ	-10191
▁ምክፍ	-10192
▁ምጥማ	-10193
▁ሞኣብ	-10194
▁ሰምዑ	-10195
▁ሰባኺ	-10196
▁ሲድኒ	-10197
▁ስዉር	-10198
▁ቄሳር	-10199
▁ቅቡል	-10200
▁ቈራጽ	-10201
▁ባቡር	-10202
▁ብመር	-10203
▁ብድን	-10204
▁ቪክቶ	-10205
▁ተመዲ	-10206
▁ተማሕ	-10207
▁ተነግ	-10208
▁ተኽሊ	-10209
▁ተፈቲ	-10210
▁ትሮፒ	-10211
▁ነስሓ	-10212
▁ናይዛ	-10213
▁ንሃገ	-10214
▁ንህያ	-10215
▁ንምቅ	-10216
▁ንምጕ	-10217
▁ንዝሓ	-10218
▁ኣለን	-10219
▁ኣመኑ	-10220
▁ኣሜን	-10221
▁ኣምጸ	-10222
▁ኣበው	-10223
▁ኣተን	-10224
▁ኣተኰ	-10225
▁ኣእጋ	-10226
▁ኣኸለ	-10227
▁ኣዋል	-10228
▁ኣይቀ	-10229
▁እምነ	-10230
▁እተቓ	-10231
▁ከይወ	-10232
▁ኪምህ	-10233
▁ኪብሉ	-10234
▁ክቱር	-10235
▁ኮርያ	-10236
▁ኸኣለ	-10237
▁ኸይደ	-10238
▁ኺድግ	-10239
▁ኻህን	-10240
▁ኽኢለ	-10241
▁ውሉዳ	-10242
▁ውርዝ	-10243
▁ውዒሉ	-10244
▁ዓብየ	-10245
▁ዘላት	-10246
▁ዘይጥ	-10247
▁ዚቃወ	-10248
▁ዜደን	-10249
▁ዜዳል	-10250
▁ዝርዝ	-10251
▁ዝሰኣ	-10252
▁ዝነብ	-10253
▁ዝወስ	-10254
▁ይልእ	-10255
▁ይሓቱ	-10256
▁ይዕድ	-10257
▁ደሪኽ	-10258
▁ደቁን	-10259
▁ደንጋ	-10260
▁ደጋዊ	-10261
▁ዲኹም	-10262
▁ድርቂ	-10263
▁ድየን	-10264
▁ጸጥታ	-10265
መላለስን	-10266
ማግለታት	-10267
ርድእዎን	-10268
ተባብዕን	-10269
ደልድልን	-10270
ገልግለሉ	-10271
ጸናንዓና	-10272
ፍቅርዎን	-10273
▁1941	-10274
▁ሓሊፎም	-10275
▁ሓሳቦም	-10276
▁ሓይሉን	-10277
▁ሕልናን	-10278
▁መሃሮም	-10279
▁መስራቲ	-10280
▁መስፍን	-10281
▁መወከሲ	-10282
▁መገዶም	-10283
▁መጥቃዕ	-10284
▁ማርቲን	-10285
▁ማካይን	-10286
▁ምሕባር	-10287
▁ምኽኣሉ	-10288
▁ምዃኑስ	-10289
▁ምገበር	-10290
▁ረኸብና	-10291
▁ሰለስቲ	-10292
▁ሰነዳት	-10293
▁ሰናይን	-10294
▁ስስዐን	-10295
▁ሽልማት	-10296
▁ቈልዑን	-10297
▁ብመልክ	-10298
▁ብምስታ	-10299
▁ብምስዓ	-10300
▁ብስስዐ	-10301
▁ብንያም	-10302
▁ብኣካል	-10303
▁ብዓብዪ	-10304
▁ብዘረባ	-10305
▁ብዝኸደ	-10306
▁ብግሪኽ	-10307
▁ብፍጹም	-10308
▁ተቐይሩ	-10309
▁ተቓውሞ	-10310
▁ተቘጻጸ	-10311
▁ተንሲኡ	-10312
▁ተወድአ	-10313
▁ተፈታዊ	-10314
▁ታሪኽን	-10315
▁ትነብር	-10316
▁ትዝክር	-10317
▁ነጊርዎ	-10318
▁ንሓጺር	-10319
▁ንምዃኑ	-10320
▁ንምድን	-10321
▁ንሰብኣ	-10322
▁ንኽብሪ	-10323
▁ንዓኻን	-10324
▁ንጹህን	-10325
▁ኣቕረቡ	-10326
▁ኣቕሪቡ	-10327
▁ኣተስፍ	-10328
▁ኣንብቦ	-10329
▁ኣውያት	-10330
▁ኣዝማድ	-10331
▁ኣየገድ	-10332
▁ኣድማስ	-10333
▁ኣጕልሐ	-10334
▁እናመሀ	-10335
▁እናበለ	-10336
▁እንርኢ	-10337
▁እንብል	-10338
▁እዮብን	-10339
▁ከኣልኩ	-10340
▁ኪሕግዝ	-10341
▁ኪመርሕ	-10342
▁ኪሰምዑ	-10343
▁ኪፍጽሙ	-10344
▁ኬስዕብ	-10345
▁ክሕግዝ	-10346
▁ክሰርሕ	-10347
▁ክፈልጥ	-10348
▁ኰይነን	-10349
▁ኺስዕቡ	-10350
▁ኽሓስብ	-10351
▁ወለድን	-10352
▁ወይንን	-10353
▁ውርደት	-10354
▁ውዕዉዕ	-10355
▁ዎርልድ	-10356
▁ዓቕምኻ	-10357
▁ዘርእዩ	-10358
▁ዚህበሉ	-10359
▁ዚመርሑ	-10360
▁ዚምርሑ	-10361
▁ዚረኽቦ	-10362
▁ዚርእዩ	-10363
▁ዚሰፍን	-10364
▁ዚግለጽ	-10365
▁ዚጽበዮ	-10366
▁ዚጽዋዕ	-10367
▁ዝመረጾ	-10368
▁ዝመሰሎ	-10369
▁ዝሰፍሐ	-10370
▁ዝቐርብ	-10371
▁ዝደለዮ	-10372
▁ዝደልዮ	-10373
▁ዝፈሰሰ	-10374
▁የሆዋኸ	-10375
▁ይሃሉኻ	-10376
▁ይረክብ	-10377
▁ይዝክር	-10378
▁ይግብኦ	-10379
▁ይጽበዩ	-10380
▁ድንኳን	-10381
▁ጉባኤኡ	-10382
▁ግብርን	-10383
▁ግዜናን	-10384
▁ግዝረት	-10385
▁ግፍዕን	-10386
▁ጻድቕን	-10387
▁ጽድቁን	-10388
▁ፈሊጥና	-10389
▁ፈጺምካ	-10390
▁3,000	-10391
▁ሓሳባቶም	-10392
▁መንፈሳው	-10393
▁መገድታቱ	-10394
▁መጸናንዒ	-10395
▁ምርዑዋት	-10396
▁ምስልታት	-10397
▁ምቅርራብ	-10398
▁ምዝርራብ	-10399
▁ምዝርጋሕ	-10400
▁ስርዓታዊ	-10401
▁ቀዳመይቲ	-10402
▁በጅነታዊ	-10403
▁ብመስዋእ	-10404
▁ብመንፈሱ	-10405
▁ብምሕላው	-10406
▁ተመልክት	-10407
▁ተኣሰርኩ	-10408
▁ተግባራቱ	-10409
▁ትንሳኤኡ	-10410
▁ንምምላኽ	-10411
▁ንምእታው	-10412
▁ንእኩያት	-10413
▁ንኺፈልጡ	-10414
▁ንኽኸውን	-10415
▁ንኽገብር	-10416
▁ንወለደይ	-10417
▁ንጐረባብ	-10418
▁ንጽህናን	-10419
▁ኣልበርት	-10420
▁ኣሓተይን	-10421
▁ኣረኣእዮ	-10422
▁ኣሪስቶት	-10423
▁ኣይገበረ	-10424
▁ኣዳራሻት	-10425
▁እተቐበሉ	-10426
▁እተቐድሐ	-10427
▁እትረክብ	-10428
▁እናቐረበ	-10429
▁ከይከውን	-10430
▁ከይጸንሑ	-10431
▁ኪድርኸና	-10432
▁ክንፈልጦ	-10433
▁ኸነውዕሎ	-10434
▁ኽንዛረብ	-10435
▁ኽንጽዕር	-10436
▁ወርቃዊት	-10437
▁ወጻኢታት	-10438
▁ዘረጋግጽ	-10439
▁ዘይምዃኑ	-10440
▁ዘጸናንዕ	-10441
▁ዚነብሩሉ	-10442
▁ዚጽበዮም	-10443
▁ዜፍቅረና	-10444
▁ዝተሓሓዝ	-10445
▁ዝወረዶም	-10446
▁ዝዓይነታ	-10447
▁ይስሃቅን	-10448
▁ይግብኦም	-10449
▁ጐረባብቲ	-10450
▁ፈጣሪኦም	-10451
ational	-10452
▁ብኣማእታት	-10453
▁ተመርኲሶም	-10454
▁ተመክሮኦም	-10455
▁ተግባራቶም	-10456
▁ኔዘርላንድ	-10457
▁ንምምልካት	-10458
▁ንእስራኤል	-10459
▁ንኽንቅጽል	-10460
▁ንጥፈታቶም	-10461
▁ኣሶራውያን	-10462
▁ኣነባብራይ	-10463
▁ኣንበብትና	-10464
▁ኣይኰንናን	-10465
▁እተመባጽዖ	-10466
▁እተተርጐመ	-10467
▁እንነብረሉ	-10468
▁ከነገልግል	-10469
▁ኪሕግዝዎም	-10470
▁ካቶሊካዊት	-10471
▁ዘንጸባረቐ	-10472
▁ዘይትኽእል	-10473
▁ዘይፈልጥዎ	-10474
▁ዜምጽኣልና	-10475
▁ዝነበረትሉ	-10476
▁ዝነበረቶም	-10477
▁ይርከብዎም	-10478
▁ጕጅለታትን	-10479
▁ፖለቲካውን	-10480
▁Library	-10481
▁ውጽኢታውያን	-10482
▁ዘይምስምማዕ	-10483
▁ፕሮጀክትታት	-10484
27	-10485
58	-10486
qu	-10487
ሉና	-10488
ሐድ	-10489
ምጸ	-10490
ራል	-10491
ርህ	-10492
ርነ	-10493
ርዲ	-10494
ሰራ	-10495
ስኪ	-10496
ቃቕ	-10497
ቘጽ	-10498
ተመ	-10499
ትዎ	-10500
ነካ	-10501
ናል	-10502
ናስ	-10503
ናዲ	-10504
ከስ	-10505
ኹኑ	-10506
ኻኺ	-10507
ዑይ	-10508
ዛይ	-10509
የላ	-10510
ዩስ	-10511
ደላ	-10512
ደሪ	-10513
ዱብ	-10514
ዲሉ	-10515
ገረ	-10516
ጓነ	-10517
ጠል	-10518
ጠኒ	-10519
ጡን	-10520
▁0	-10521
▁⇩	-10522
oun	-10523
ሃብን	-10524
ህንጠ	-10525
ለምዶ	-10526
ለንታ	-10527
ለጥን	-10528
ሊልን	-10529
ላኸሊ	-10530
ሓድሕ	-10531
መሳስ	-10532
ማሃሩ	-10533
ምላእ	-10534
ምልጥ	-10535
ሞቱን	-10536
ረቶም	-10537
ረዳድ	-10538
ራምን	-10539
ርስዖ	-10540
ርታት	-10541
ርኢት	-10542
ርዮስ	-10543
ቃልዕ	-10544
ባሎም	-10545
ባርዐ	-10546
ባባዕ	-10547
ብናሉ	-10548
ታተወ	-10549
ነቕን	-10550
እምት	-10551
እዛዝ	-10552
ክምና	-10553
ክራሲ	-10554
ዋሂሊ	-10555
ዋግኡ	-10556
ውናን	-10557
ዐርዮ	-10558
ዓልዉ	-10559
ዓብቲ	-10560
ዛማዲ	-10561
ያቶም	-10562
ዱእን	-10563
ዳለዉ	-10564
ድራሻ	-10565
ጋምን	-10566
ግብቲ	-10567
ግዕዙ	-10568
ጻወሩ	-10569
ጽበዩ	-10570
ፈልጣ	-10571
ፋኖስ	-10572
▁ሃል	-10573
▁ሃኒ	-10574
▁ለሚ	-10575
▁ላይ	-10576
▁ልዙ	-10577
▁ረዲ	-10578
▁ሲሶ	-10579
▁ስቶ	-10580
▁ቂም	-10581
▁ቅብ	-10582
▁ቈጸ	-10583
▁ብጀ	-10584
▁ብጃ	-10585
▁ብፈ	-10586
▁ተጀ	-10587
▁ተጊ	-10588
▁ተጐ	-10589
▁ትዝ	-10590
▁ትጉ	-10591
▁ነኣ	-10592
▁ኡር	-10593
▁ኤሚ	-10594
▁ኦን	-10595
▁ኪኸ	-10596
▁ኬዕ	-10597
▁ኸዱ	-10598
▁ደግ	-10599
▁ገዝ	-10600
▁ጋላ	-10601
▁ጋና	-10602
▁ግሩ	-10603
▁ጥዕ	-10604
▁ጭዋ	-10605
▁ጸግ	-10606
1953	-10607
1998	-10608
ሓላለፍ	-10609
ሕግዙና	-10610
ምህረና	-10611
ቃውያን	-10612
በልናዮ	-10613
ባርኸና	-10614
ትለትን	-10615
ክንኻን	-10616
ውዕዉዕ	-10617
ግንዘቡ	-10618
ጻረርዎ	-10619
▁110	-10620
▁133	-10621
▁235	-10622
▁600	-10623
▁ሃለዋ	-10624
▁ህንዳ	-10625
▁ሓሚሙ	-10626
▁ሓሰበ	-10627
▁ሓሲቡ	-10628
▁ሓቲት	-10629
▁መሃይ	-10630
▁መምሃ	-10631
▁መጸት	-10632
▁ምህር	-10633
▁ምርግ	-10634
▁ምንጭ	-10635
▁ምድሓ	-10636
▁ሞሳና	-10637
▁ረኣዮ	-10638
▁ርእየ	-10639
▁ርኽበ	-10640
▁ሮበር	-10641
▁ሰዓብ	-10642
▁ሰፊኑ	-10643
▁ስመይ	-10644
▁ስታድ	-10645
▁ስፖር	-10646
▁ሶፍያ	-10647
▁ቀላይ	-10648
▁ቅድሜ	-10649
▁ብበረ	-10650
▁ብተሌ	-10651
▁ብከላ	-10652
▁ብዕሉ	-10653
▁ብጽድ	-10654
▁ተመኪ	-10655
▁ተራኺ	-10656
▁ተቓሊ	-10657
▁ተተን	-10658
▁ተደጋ	-10659
▁ተጸሚ	-10660
▁ተጸዊ	-10661
▁ቱርኪ	-10662
▁ትዕቢ	-10663
▁ኒቆዲ	-10664
▁ንሓጥ	-10665
▁ንቤተ	-10666
▁ንዋይ	-10667
▁ንውድ	-10668
▁አይድ	-10669
▁ኣለዓ	-10670
▁ኣንጾ	-10671
▁ኣውጽ	-10672
▁ኣይሓ	-10673
▁ኣድካ	-10674
▁እግሪ	-10675
▁እፈቱ	-10676
▁ከደት	-10677
▁ኪስዕ	-10678
▁ኪኸብ	-10679
▁ካምቦ	-10680
▁ካብዛ	-10681
▁ክህሉ	-10682
▁ክንጸ	-10683
▁ኮሪያ	-10684
▁ኮስታ	-10685
▁ኺነግ	-10686
▁ኼርኢ	-10687
▁ዀተቴ	-10688
▁ወሰዱ	-10689
▁ወደብ	-10690
▁ዓመቱ	-10691
▁ዓበየ	-10692
▁ዓብላ	-10693
▁ዘሕወ	-10694
▁ዘስዓ	-10695
▁ዘይበ	-10696
▁ዚርእ	-10697
▁ዜእቱ	-10698
▁ዝሓስ	-10699
▁ዝርር	-10700
▁ዝቐረ	-10701
▁ዝባረ	-10702
▁ዝወር	-10703
▁ዝዓይ	-10704
▁ዝጸዓ	-10705
▁የዕቍ	-10706
▁የጨን	-10707
▁ይብሎ	-10708
▁ዳይረ	-10709
▁ድንቂ	-10710
▁ገባር	-10711
▁ጋዜጠ	-10712
▁ግራት	-10713
▁ጸውዖ	-10714
▁ጸጋም	-10715
▁ፍቑር	-10716
ንጸባርቖ	-10717
ዘራረበሉ	-10718
ጥቀመሎም	-10719
▁1943	-10720
▁1960	-10721
▁1998	-10722
▁2005	-10723
▁ልኡኻት	-10724
▁ሓሳባቱ	-10725
▁ሓተትክ	-10726
▁ሓተቶም	-10727
▁ሕሩያት	-10728
▁ሕያዎት	-10729
▁ሕጉስን	-10730
▁መብርሂ	-10731
▁መደበር	-10732
▁መገድኻ	-10733
▁ምሕዳር	-10734
▁ምምላእ	-10735
▁ምስታፍ	-10736
▁ምቕያር	-10737
▁ምእላይ	-10738
▁ምኩራት	-10739
▁ምጥማቕ	-10740
▁ርኽበት	-10741
▁ሰዓትን	-10742
▁ሲላስን	-10743
▁ስልጣኑ	-10744
▁ስዒቦም	-10745
▁ቍጽጽር	-10746
▁ቐልጢፉ	-10747
▁ቕኑዕን	-10748
▁በሃልቲ	-10749
▁በይነይ	-10750
▁ባዕለይ	-10751
▁ባይብል	-10752
▁ብሉጻት	-10753
▁ብልሹው	-10754
▁ብልጽቲ	-10755
▁ብምምስ	-10756
▁ብምርኣ	-10757
▁ብምፍቃ	-10758
▁ተመላሊ	-10759
▁ተሳትፎ	-10760
▁ተቐሚጡ	-10761
▁ተኣከቡ	-10762
▁ተዛረቦ	-10763
▁ተገልጸ	-10764
▁ትኣምን	-10765
▁ነባርን	-10766
▁ንሃገር	-10767
▁ንመጓሰ	-10768
▁ንቕዱስ	-10769
▁ንተስፋ	-10770
▁ንዅለን	-10771
▁ንውግእ	-10772
▁ንዘጋጠ	-10773
▁ንግድን	-10774
▁ንጐይታ	-10775
▁ንፍቓድ	-10776
▁ኣመስገ	-10777
▁ኣመስጊ	-10778
▁ኣስማት	-10779
▁ኣተወት	-10780
▁ኣይረኣ	-10781
▁ኣይኰን	-10782
▁ኣይፈቐ	-10783
▁ኣድራሻ	-10784
▁ኤኳዶር	-10785
▁እተረድ	-10786
▁እተኣስ	-10787
▁እናበሉ	-10788
▁ኪሓስቡ	-10789
▁ኪቐትሎ	-10790
▁ክፋላት	-10791
▁ክፍኣት	-10792
▁ኴንኩም	-10793
▁ኺነብር	-10794
▁ኽንጽበ	-10795
▁ኽፍኣት	-10796
▁ወሲድካ	-10797
▁ወዳእኩ	-10798
▁ወጻእኩ	-10799
▁ወፍዮም	-10800
▁ውዳሰን	-10801
▁ውድባት	-10802
▁ዘረባና	-10803
▁ዘዳለወ	-10804
▁ዚህበኒ	-10805
▁ዚሰምዕ	-10806
▁ዚተርፍ	-10807
▁ዚኣትዉ	-10808
▁ዚዀኖም	-10809
▁ዚጸንሕ	-10810
▁ዛምብያ	-10811
▁ዜቕርቦ	-10812
▁ዜድሕን	-10813
▁ዜጋጥሞ	-10814
▁ዝህብዎ	-10815
▁ዝሓመመ	-10816
▁ዝሓበረ	-10817
▁ዝሕብሮ	-10818
▁ዝሕግዝ	-10819
▁ዝበለት	-10820
▁ዝኣተዉ	-10821
▁ዝዕድሚ	-10822
▁ዝደፍአ	-10823
▁ዝገልጾ	-10824
▁ዝጠቅም	-10825
▁ዝፈትዎ	-10826
▁የሐጕስ	-10827
▁የሕልፉ	-10828
▁የጋጥም	-10829
▁ይበጽሕ	-10830
▁ይጽልዩ	-10831
▁ይፍታሕ	-10832
▁ደለየት	-10833
▁ጀሚርካ	-10834
▁ግርማን	-10835
▁ግዜያዊ	-10836
▁ጕዕዞኡ	-10837
▁ጥሜትን	-10838
▁ፈለጥና	-10839
▁1,500	-10840
▁ሕጉሳትን	-10841
▁መብጽዓኡ	-10842
▁መንነትና	-10843
▁መከላኸሊ	-10844
▁መዛግብቲ	-10845
▁ምእንታና	-10846
▁ምግባረይ	-10847
▁ምጽሓፍን	-10848
▁ምፍላጦም	-10849
▁ርሕራሐን	-10850
▁ሳልቫዶር	-10851
▁ስምዒትን	-10852
▁በብግዜኡ	-10853
▁ቡልጋርያ	-10854
▁ብመርከብ	-10855
▁ብመጽሓፍ	-10856
▁ብምሕሳብ	-10857
▁ብምግባሩ	-10858
▁ብተመክሮ	-10859
▁ብተዛማዲ	-10860
▁ብኣካላዊ	-10861
▁ብወለንታ	-10862
▁ብዓሰርተ	-10863
▁ብጭንቀት	-10864
▁ቦታታትን	-10865
▁ተመላለሱ	-10866
▁ተመልከት	-10867
▁ተመርኲሱ	-10868
▁ተቐበልቲ	-10869
▁ተቐቲሎም	-10870
▁ተገልግል	-10871
▁ተግባሮም	-10872
▁ተጠቕመሉ	-10873
▁ተፈታሕኩ	-10874
▁ነንሓድሕ	-10875
▁ነገልግል	-10876
▁ንህይወቱ	-10877
▁ንመንግስ	-10878
▁ንመውስቦ	-10879
▁ንምስባኽ	-10880
▁ንምክፋል	-10881
▁ንርእሰይ	-10882
▁ንርእይቶ	-10883
▁ንባቢሎን	-10884
▁ንእስነት	-10885
▁ንእዙዛት	-10886
▁ኣሰራርሓ	-10887
▁ኣተንስኦ	-10888
▁ኣንቢብካ	-10889
▁ኣንቶንዮ	-10890
▁ኣጋጢሙና	-10891
▁ኣጋጢምዋ	-10892
▁እተማህሮ	-10893
▁እተቐየረ	-10894
▁እተኻየደ	-10895
▁ኪህልወካ	-10896
▁ኪገብረና	-10897
▁ኪጸልወና	-10898
▁ክህልዎም	-10899
▁ክትገልጽ	-10900
▁ኸነሐጕሶ	-10901
▁ኽንከይድ	-10902
▁ዘርኣየቶ	-10903
▁ዘይብለይ	-10904
▁ዘይኣማኒ	-10905
▁ዚነብሩላ	-10906
▁ዝመሳሰል	-10907
▁ዝረኸብኩ	-10908
▁ዝደለይዎ	-10909
▁ዝፍጽምዎ	-10910
▁የረጋግጽ	-10911
▁የብለይን	-10912
▁የድልየካ	-10913
▁ይባርኾም	-10914
▁ይጥቀመሉ	-10915
▁ድልዱልን	-10916
▁ድሕነትና	-10917
▁ገሊጹልና	-10918
▁ገንዘብካ	-10919
▁ጕድለታት	-10920
▁ፊልምታት	-10921
▁ፊንላንድ	-10922
▁ፍትሓውን	-10923
▁ሃይማኖቶም	-10924
▁መማህርተይ	-10925
▁ማሕበራውን	-10926
▁ምገለጽካዮ	-10927
▁ስድራቤቶም	-10928
▁ብሃይማኖት	-10929
▁ብኣእምሮኻ	-10930
▁ብእተፈልየ	-10931
▁ተማሕጸኖም	-10932
▁ንመሪሕነት	-10933
▁ንምግባርን	-10934
▁ንሰይጣንን	-10935
▁ኣመሳሲልዎ	-10936
▁ኣምልኾኦም	-10937
▁ኣሪስቶትል	-10938
▁ኣወንታውን	-10939
▁ኣይንደልን	-10940
▁ኣይደለየን	-10941
▁ኤርምያስን	-10942
▁እተዛረበን	-10943
▁እተጻሕፈት	-10944
▁እንታይነት	-10945
▁እንገብረሉ	-10946
▁ኸተገልግል	-10947
▁ኺሕግዝዎም	-10948
▁ኼገልግልዎ	-10949
▁ዘሕለፍናዮ	-10950
▁ዘመናውያን	-10951
▁ሚስዮናውነት	-10952
▁ምስትንታንን	-10953
▁ንመጻምድትኻ	-10954
▁ንሽማግለታት	-10955
▁ንኽንመላለስ	-10956
▁ኣይተቐየረን	-10957
▁እናኣጋጠሞም	-10958
▁ከነስተንትን	-10959
▁ዘይምርድዳእ	-10960
▁ዝአዘዝኩኹም	-10961
▁ፍልስጥኤማውያን	-10962
,3	-10963
56	-10964
HO	-10965
sh	-10966
ልዋ	-10967
ሓቑ	-10968
ሓቶ	-10969
ሓፉ	-10970
ሕዱ	-10971
መረ	-10972
መዲ	-10973
ምሉ	-10974
ምኩ	-10975
ረሰ	-10976
ረቐ	-10977
ሪኡ	-10978
ርኩ	-10979
ርኻ	-10980
ሳቕ	-10981
ሳዪ	-10982
ቅና	-10983
ቅዐ	-10984
ቈላ	-10985
ቈት	-10986
ቍፍ	-10987
ቓይ	-10988
ቕጢ	-10989
ተቱ	-10990
ታዉ	-10991
ቶዲ	-10992
ነር	-10993
ኢሉ	-10994
ኤን	-10995
ከባ	-10996
ክሳ	-10997
ኮን	-10998
ኳስ	-10999
ኽት	-11000
ውሪ	-11001
ዐር	-11002
ዕም	-11003
ዙና	-11004
ዞን	-11005
የለ	-11006
የበ	-11007
ያሺ	-11008
ገሶ	-11009
ጉን	-11010
ጋብ	-11011
ጋት	-11012
ጽድ	-11013
ፈኒ	-11014
ONS	-11015
ari	-11016
ሃርዎ	-11017
ሃድም	-11018
ለኣኽ	-11019
ለወት	-11020
ለዮም	-11021
ላላት	-11022
ሓላል	-11023
ማህር	-11024
ምርሕ	-11025
ምድም	-11026
ርከቦ	-11027
ርጋሐ	-11028
ሰምሮ	-11029
ሳሕን	-11030
ስሃቅ	-11031
ስቲክ	-11032
ስታፖ	-11033
ስዎም	-11034
ሽቱን	-11035
ሽነን	-11036
ቀያየ	-11037
ቀደስ	-11038
ቃለሶ	-11039
ቍራጽ	-11040
ቕውም	-11041
በብያ	-11042
ቡርን	-11043
ቢዱኒ	-11044
ብረት	-11045
ብራይ	-11046
ተሓተ	-11047
ተሓዝ	-11048
ታሕን	-11049
ትኻን	-11050
ናታት	-11051
ኡውን	-11052
ከርታ	-11053
ከፎም	-11054
ዋርድ	-11055
ውዕላ	-11056
ዕቅቦ	-11057
ዕኩም	-11058
ዘዝዎ	-11059
ዛእቲ	-11060
ደምም	-11061
ደርን	-11062
ዳውን	-11063
ድልዮ	-11064
ድምጺ	-11065
ድርያ	-11066
ጋዞም	-11067
ግስን	-11068
ጐልሕ	-11069
ጣምን	-11070
ጻጽሮ	-11071
ፈለጠ	-11072
ፈልጠ	-11073
ፋትሑ	-11074
▁ህን	-11075
▁ሊዮ	-11076
▁ላን	-11077
▁ሓሙ	-11078
▁ሕት	-11079
▁ሚካ	-11080
▁ማግ	-11081
▁ስሒ	-11082
▁ስፍ	-11083
▁ቅሬ	-11084
▁ቕድ	-11085
▁በኸ	-11086
▁በዛ	-11087
▁በይ	-11088
▁ብጴ	-11089
▁ተኪ	-11090
▁ነሕ	-11091
▁ንኬ	-11092
▁ንጊ	-11093
▁ንጠ	-11094
▁ኢዝ	-11095
▁ኣሪ	-11096
▁ኣፓ	-11097
▁ኩኑ	-11098
▁ክረ	-11099
▁ክር	-11100
▁ክሲ	-11101
▁ኽሕ	-11102
▁ዚኸ	-11103
▁ዝተ	-11104
▁ዝእ	-11105
▁ጀነ	-11106
▁ጊብ	-11107
▁ግድ	-11108
▁ጐረ	-11109
▁ፓራ	-11110
ለዓዕል	-11111
ሕብባር	-11112
ሕጸነና	-11113
ማዕብሎ	-11114
ርድታት	-11115
ሮብዓም	-11116
ስምዓካ	-11117
ሸግሮም	-11118
ቕርብዎ	-11119
በልዎን	-11120
ተርሰን	-11121
ታትናን	-11122
ኑዓትን	-11123
ኽብሮን	-11124
ወሃበና	-11125
ወስደሉ	-11126
ዳንኤል	-11127
ገብርዎ	-11128
ጢፋኖስ	-11129
ጶታምያ	-11130
ጸናናዕ	-11131
ፈርህዎ	-11132
▁118	-11133
▁147	-11134
▁700	-11135
▁ሃሳዪ	-11136
▁ሃደመ	-11137
▁ሃገራ	-11138
▁ሓዲሩ	-11139
▁ሓድሕ	-11140
▁ሕሱም	-11141
▁ሕዱር	-11142
▁መሪጹ	-11143
▁መጺኣ	-11144
▁ማርጋ	-11145
▁ሜቶዲ	-11146
▁ምስሕ	-11147
▁ምውስ	-11148
▁ሞዛም	-11149
▁ርኣዮ	-11150
▁ሰነድ	-11151
▁ሰዋስ	-11152
▁ሳህሊ	-11153
▁ስኒት	-11154
▁ስንክ	-11155
▁ቀይሕ	-11156
▁ቀጺላ	-11157
▁ቃልካ	-11158
▁ቈሪጹ	-11159
▁በልዎ	-11160
▁በሰላ	-11161
▁ብማሕ	-11162
▁ብታሕ	-11163
▁ብጸጋ	-11164
▁ተሰኪ	-11165
▁ተቓወ	-11166
▁ተወካ	-11167
▁ተዘር	-11168
▁ተዳል	-11169
▁ታቦት	-11170
▁ትህብ	-11171
▁ቶማስ	-11172
▁ነገሰ	-11173
▁ናባል	-11174
▁ናባይ	-11175
▁ንመስ	-11176
▁ንመወ	-11177
▁ንምህ	-11178
▁ንትር	-11179
▁ንዝደ	-11180
▁ንግብ	-11181
▁ኣሰር	-11182
▁ኣቃው	-11183
▁ኣቕሓ	-11184
▁ኣባኻ	-11185
▁ኣተና	-11186
▁ኣእተ	-11187
▁ኣወጀ	-11188
▁ኣውዒ	-11189
▁ኣይፍ	-11190
▁ኤፍራ	-11191
▁እተጋ	-11192
▁እትቕ	-11193
▁ካባይ	-11194
▁ክቐር	-11195
▁ኮለጅ	-11196
▁ኸረን	-11197
▁ኸድና	-11198
▁ኺህቡ	-11199
▁ኻብታ	-11200
▁ኼርሕ	-11201
▁ዓመጸ	-11202
▁ዕየዮ	-11203
▁ዘድሓ	-11204
▁ዘጥረ	-11205
▁ዚኸፍ	-11206
▁ዜጋጠ	-11207
▁ዝመደ	-11208
▁ዝናን	-11209
▁ዝፈት	-11210
▁የዳል	-11211
▁ይሃል	-11212
▁ይመጹ	-11213
▁ይዀነ	-11214
▁ይዓቢ	-11215
▁ይዕዘ	-11216
▁ደርብ	-11217
▁ደንገ	-11218
▁ደጋፊ	-11219
▁ድለዩ	-11220
▁ግበሮ	-11221
▁ግዜይ	-11222
▁ጕሉሕ	-11223
▁ጸኒዑ	-11224
▁ጸዓሩ	-11225
▁ጽምዋ	-11226
▁ጽባቐ	-11227
▁ፈሊጠ	-11228
▁ፈሊጡ	-11229
▁ፈረሰ	-11230
▁ፈትኖ	-11231
▁ፈውሲ	-11232
▁ፓሪስ	-11233
0,000	-11234
ስተብህል	-11235
▁1949	-11236
▁ህርፋን	-11237
▁ሓቀኛን	-11238
▁ሓጊዙና	-11239
▁ሕልናና	-11240
▁መላመዲ	-11241
▁መራኽብ	-11242
▁መትከል	-11243
▁መገላግ	-11244
▁ሙዚቃን	-11245
▁ምሕጽን	-11246
▁ምርሓቕ	-11247
▁ምስታይ	-11248
▁ምትላል	-11249
▁ምትኳር	-11250
▁ምዃንን	-11251
▁ምጅማሩ	-11252
▁ሲምሶን	-11253
▁ስምምዕ	-11254
▁ቀልጢፈ	-11255
▁ቤትናን	-11256
▁ብማዕረ	-11257
▁ብባቡር	-11258
▁ብንእስ	-11259
▁ብዕሉግ	-11260
▁ብጽኑዕ	-11261
▁ብጾታዊ	-11262
▁ቦሊቭያ	-11263
▁ተሃንጥ	-11264
▁ተመሊሰ	-11265
▁ተመርዕ	-11266
▁ተማሕጺ	-11267
▁ተቐትሉ	-11268
▁ተአመን	-11269
▁ተገዳስ	-11270
▁ትሕዝቶ	-11271
▁ነይሩና	-11272
▁ነገርዚ	-11273
▁ነጋዳይ	-11274
▁ነፍስና	-11275
▁ንልብኻ	-11276
▁ንሓጢኣ	-11277
▁ንመርዓ	-11278
▁ንመገድ	-11279
▁ንርእዮ	-11280
▁ንሰብሲ	-11281
▁ንኣምን	-11282
▁ንኸይድ	-11283
▁ንውሉዳ	-11284
▁ንዘለዎ	-11285
▁ኢልኩም	-11286
▁ኣለኹም	-11287
▁ኣልዩና	-11288
▁ኣሕደረ	-11289
▁ኣረጊት	-11290
▁ኣርተር	-11291
▁ኣባሓጎ	-11292
▁ኣነውን	-11293
▁ኣዒንቱ	-11294
▁ኣዘንቱ	-11295
▁ኣዘኻኸ	-11296
▁ኣፍርዩ	-11297
▁እርጋን	-11298
▁እተጋገ	-11299
▁እነብር	-11300
▁እኽእሎ	-11301
▁እፎይታ	-11302
▁ከንብብ	-11303
▁ኪቕይር	-11304
▁ካርቦን	-11305
▁ክልቴና	-11306
▁ክርከብ	-11307
▁ክቐርብ	-11308
▁ክነብር	-11309
▁ክኢሎም	-11310
▁ክካፈል	-11311
▁ኺምልሰ	-11312
▁ኺተኽሉ	-11313
▁ኺወስዱ	-11314
▁ኺጸልዎ	-11315
▁ኺፍጽሞ	-11316
▁ኼሕድር	-11317
▁ወሰንና	-11318
▁ውርዝና	-11319
▁ዕድመይ	-11320
▁ዘረባኡ	-11321
▁ዘውጽኦ	-11322
▁ዘዕግብ	-11323
▁ዘይስነ	-11324
▁ዘገልገ	-11325
▁ዚርከቦ	-11326
▁ዚውሃብ	-11327
▁ዚውለድ	-11328
▁ዚግብኣ	-11329
▁ዚጸልእ	-11330
▁ዚጻረር	-11331
▁ዝልቦም	-11332
▁ዝሓገዛ	-11333
▁ዝምድና	-11334
▁ዝርጋሐ	-11335
▁ዝሰማዕ	-11336
▁ዝበለቶ	-11337
▁ዝበልዎ	-11338
▁ዝበሎም	-11339
▁ዝብልዎ	-11340
▁ዝነኣድ	-11341
▁ዝወረዶ	-11342
▁ዝገበራ	-11343
▁ዝጸሓፍ	-11344
▁ዝፈርሁ	-11345
▁ዝፈጸሙ	-11346
▁ይሕዞም	-11347
▁ይርድኣ	-11348
▁ይሰምዑ	-11349
▁ይቀደስ	-11350
▁ይቕበሉ	-11351
▁ይባርኾ	-11352
▁ይድግፎ	-11353
▁ይገልጾ	-11354
▁ይጭነቑ	-11355
▁ጆናታን	-11356
▁ገለጸሉ	-11357
▁ገዓዘት	-11358
▁ግቡዛት	-11359
▁ጨካናት	-11360
▁ጸዊዕዎ	-11361
▁ፍቑራት	-11362
ተኣማመነሉ	-11363
▁ሓድነትና	-11364
▁ሕውነታዊ	-11365
▁ምርዳእን	-11366
▁ምርግጋጽ	-11367
▁ረኺብናዮ	-11368
▁ስምዒተይ	-11369
▁ስብከቶም	-11370
▁ስድራቤቱ	-11371
▁ብምሉኦም	-11372
▁ብምልኣኽ	-11373
▁ብምምሃር	-11374
▁ብምትኳር	-11375
▁ብምእዛዝ	-11376
▁ብኣሉታዊ	-11377
▁ብውዕዉዕ	-11378
▁ቪድዮታት	-11379
▁ተሓጐስኩ	-11380
▁ተኣምራዊ	-11381
▁ተጠንቀቑ	-11382
▁ትእምርቲ	-11383
▁ንመዝሙር	-11384
▁ንምቕራብ	-11385
▁ንምንጋር	-11386
▁ንምዕቋብ	-11387
▁ንሰባትን	-11388
▁ንቕቡኣት	-11389
▁ንኽረኽቡ	-11390
▁ንውሽጣዊ	-11391
▁ንዚርከቡ	-11392
▁ንየሱስን	-11393
▁ንደቅኹም	-11394
▁ንጥምቀት	-11395
▁ኣሕዋተይ	-11396
▁ኣምልኾን	-11397
▁ኣርዚንካ	-11398
▁ኣዕሩኸይ	-11399
▁እተመልሱ	-11400
▁እንምሃር	-11401
▁እንስዕብ	-11402
▁እንውከል	-11403
▁ኬገልግል	-11404
▁ክንርሕቕ	-11405
▁ክንስዕቦ	-11406
▁ክንዝክር	-11407
▁ክዳውንቲ	-11408
▁ኸይተረፈ	-11409
▁ኺህልወካ	-11410
▁ኺርድእዎ	-11411
▁ኽትቅበል	-11412
▁ኽንሓስብ	-11413
▁ኽንስዕቦ	-11414
▁ዘርኣዮም	-11415
▁ዘቕረበሉ	-11416
▁ዘተስፈዎ	-11417
▁ዘይመስል	-11418
▁ዘይብልካ	-11419
▁ዘይነበሩ	-11420
▁ዘይከኣለ	-11421
▁ዘይኰኑስ	-11422
▁ዚድርኾም	-11423
▁ዚድግፎም	-11424
▁ዚገብረሉ	-11425
▁ዜምልኽዎ	-11426
▁ዜድልየካ	-11427
▁ዝሓደግዎ	-11428
▁ዝሓገዘኒ	-11429
▁የኽእሎም	-11430
▁ይቕበልዎ	-11431
▁ዮናታንን	-11432
▁ግብርታቱ	-11433
▁ጥቕላላት	-11434
▁ፈተውተይ	-11435
▁መላእኽትን	-11436
▁መንፈሳዊት	-11437
▁ምሳኻትኩም	-11438
▁ምትእስሳር	-11439
▁ምንጽብራቕ	-11440
▁ምኽንያታዊ	-11441
▁ሰላማውያን	-11442
▁ባህርያትና	-11443
▁ባህርያቶም	-11444
▁ባሕረኛታት	-11445
▁ብምጽናዕን	-11446
▁ቻይናውያን	-11447
▁ንምክልኻል	-11448
▁ንኣሕዋትና	-11449
▁ንገሊኣቶም	-11450
▁ንጉባኤታት	-11451
▁ኣማራጺታት	-11452
▁ኣእምሮናን	-11453
▁ኣኼባታትን	-11454
▁ኣኼባታቶም	-11455
▁ኣይሁድነት	-11456
▁ኣይትረስዑ	-11457
▁ኤለክትሪክ	-11458
▁እስጢፋኖስ	-11459
▁እተጻሕፈሉ	-11460
▁እነማስወሉ	-11461
▁እንመላለስ	-11462
▁ከነርእዮም	-11463
▁ክንሓስበሉ	-11464
▁ክንዋጽኣሉ	-11465
▁ኽንመያየጥ	-11466
▁ውሳነታትና	-11467
▁ዘይንፈልጦ	-11468
▁ዚገብረሎም	-11469
▁ድሕንነትን	-11470
▁ጉባኤታትን	-11471
▁ብዘይካዚውን	-11472
▁ብጴንጠቆስጠ	-11473
▁ተኣማንነቶም	-11474
▁ተወፋይነትን	-11475
▁ትምህርትታቱ	-11476
▁ንኣገዳስነት	-11477
▁ንኽንዋጽኣሉ	-11478
▁ኣገልግሎትካ	-11479
▁እተመስረተት	-11480
▁ክርስትያንን	-11481
▁ዓለምለኻዊት	-11482
▁National	-11483
▁ሚስዮናውያንን	-11484
▁ነንሓድሕድኩም	-11485
gh	-11486
il	-11487
ሃለ	-11488
ሃራ	-11489
ለሊ	-11490
ሌክ	-11491
ልሙ	-11492
መተ	-11493
ምም	-11494
ራቶ	-11495
ርሖ	-11496
ርሳ	-11497
ርች	-11498
ርጊ	-11499
ሰጥ	-11500
ስኩ	-11501
ሻል	-11502
ቆብ	-11503
ቋኒ	-11504
ቐካ	-11505
ተካ	-11506
ነዮ	-11507
ነጨ	-11508
ኒቑ	-11509
ንጽ	-11510
ኡይ	-11511
ኣኹ	-11512
እኑ	-11513
ክሉ	-11514
ኵስ	-11515
ወቱ	-11516
ወጀ	-11517
ውዩ	-11518
ዒት	-11519
ዓካ	-11520
ዝዋ	-11521
ዝዩ	-11522
የሩ	-11523
ያሱ	-11524
ያና	-11525
ድቁ	-11526
ድቲ	-11527
ጅም	-11528
ገቡ	-11529
ገዙ	-11530
ጽም	-11531
ፈሩ	-11532
▁O	-11533
▁ቁ	-11534
ent	-11535
ght	-11536
yri	-11537
ህነጽ	-11538
ለወጠ	-11539
ለዩን	-11540
ሉላት	-11541
ላንቲ	-11542
ልምን	-11543
ልከሉ	-11544
ልከት	-11545
ልጦም	-11546
ሓድግ	-11547
ሕያሽ	-11548
ማልኦ	-11549
ረንን	-11550
ርሕር	-11551
ርስኪ	-11552
ርበት	-11553
ስውእ	-11554
ቈስጠ	-11555
ቋረጽ	-11556
ቕልብ	-11557
ቝረጽ	-11558
በለይ	-11559
በልዕ	-11560
በሎን	-11561
በርና	-11562
ብርዎ	-11563
ብሮም	-11564
ቲስት	-11565
ትርጕ	-11566
ነሉን	-11567
አምን	-11568
ካይዱ	-11569
ክእል	-11570
ኸፍአ	-11571
ኹማት	-11572
ወሉን	-11573
ወትን	-11574
ዋንዳ	-11575
ዓናቕ	-11576
ዕብል	-11577
ይይቲ	-11578
ጀንት	-11579
ጅያዊ	-11580
ግምግ	-11581
ግሪጳ	-11582
ጕህዮ	-11583
ጹማት	-11584
ፍትኖ	-11585
▁69	-11586
▁96	-11587
▁ሃሪ	-11588
▁ላት	-11589
▁ላግ	-11590
▁መሬ	-11591
▁መሮ	-11592
▁ሪኮ	-11593
▁ሰሓ	-11594
▁ሰቢ	-11595
▁ሲቲ	-11596
▁ስሎ	-11597
▁ብኤ	-11598
▁ቫን	-11599
▁ቲን	-11600
▁ነቓ	-11601
▁ንሞ	-11602
▁ኤጳ	-11603
▁ኦሪ	-11604
▁ኪሰ	-11605
▁ኬቝ	-11606
▁ኺዱ	-11607
▁ወሓ	-11608
▁ውላ	-11609
▁ዓሞ	-11610
▁ዘቘ	-11611
▁ዚጐ	-11612
▁ዝሐ	-11613
▁ዝዘ	-11614
▁ዝጽ	-11615
▁የፍ	-11616
▁ደቃ	-11617
▁ገጠ	-11618
▁ጋሊ	-11619
▁ጠን	-11620
▁ጽላ	-11621
▁ፓሲ	-11622
▁ፓት	-11623
▁ፖል	-11624
1955	-11625
1989	-11626
ለኮታዊ	-11627
ልታትን	-11628
ሓስቡሉ	-11629
መልክቱ	-11630
ማዕበለ	-11631
ምህርን	-11632
ረጋገጽ	-11633
ረጋግጹ	-11634
ስፋሕፍ	-11635
ቋርጽን	-11636
ተባብዖ	-11637
ተንስእ	-11638
ከላኸል	-11639
ኽብሮም	-11640
ዀንዎም	-11641
ገርመና	-11642
ገብርን	-11643
ጥረትን	-11644
ጥቀምሉ	-11645
ጥንቀቐ	-11646
ጥፍአን	-11647
ፈርህን	-11648
ፈቕደሉ	-11649
▁111	-11650
▁148	-11651
▁Bri	-11652
▁Map	-11653
▁ሃልዩ	-11654
▁ለመን	-11655
▁መሪሑ	-11656
▁መሰለ	-11657
▁መሲሉ	-11658
▁ማዳጋ	-11659
▁ምሕሳ	-11660
▁ምትር	-11661
▁ምንጩ	-11662
▁ምኻዱ	-11663
▁ምድን	-11664
▁ሰልፊ	-11665
▁ሰርሐ	-11666
▁ሱዛን	-11667
▁ስደት	-11668
▁ስጋን	-11669
▁ሸቕሊ	-11670
▁ቀጸሉ	-11671
▁ቅርጺ	-11672
▁ቅቡእ	-11673
▁ቐሪባ	-11674
▁ቐይዲ	-11675
▁በለቶ	-11676
▁ባረኾ	-11677
▁ባሪኹ	-11678
▁ብሉይ	-11679
▁ብሓዊ	-11680
▁ብመስ	-11681
▁ብርሃ	-11682
▁ብሱል	-11683
▁ቦኣዝ	-11684
▁ተሃኒ	-11685
▁ተመሃ	-11686
▁ተመሲ	-11687
▁ተመን	-11688
▁ተርጒ	-11689
▁ቱቫሉ	-11690
▁ትሑዝ	-11691
▁ናእሚ	-11692
▁ንልቡ	-11693
▁ንቕን	-11694
▁ንኹን	-11695
▁ንያእ	-11696
▁ኢንዱ	-11697
▁ኣምር	-11698
▁ኣሰል	-11699
▁ኣሰም	-11700
▁ኣቘመ	-11701
▁ኣቴና	-11702
▁ኣዘዘ	-11703
▁ኣድማ	-11704
▁ኣጕህ	-11705
▁ኤፍሬ	-11706
▁እተበ	-11707
▁እናበ	-11708
▁ከተን	-11709
▁ኪህቦ	-11710
▁ኪሓት	-11711
▁ካርል	-11712
▁ካርድ	-11713
▁ክርኢ	-11714
▁ክትሕ	-11715
▁ክንም	-11716
▁ክኣቱ	-11717
▁ክዳን	-11718
▁ኽኢላ	-11719
▁ወረደ	-11720
▁ዓርከ	-11721
▁ዓስቡ	-11722
▁ዕዮን	-11723
▁ዘውረ	-11724
▁ዚሰር	-11725
▁ዚስዕ	-11726
▁ዚዀነ	-11727
▁ዚጸሉ	-11728
▁ዚፈል	-11729
▁ዝሃባ	-11730
▁ዝሓዞ	-11731
▁ዝምስ	-11732
▁ዝብላ	-11733
▁ዝነግ	-11734
▁ዝዀኖ	-11735
▁ይመባ	-11736
▁ይውድ	-11737
▁ይፈት	-11738
▁ደምን	-11739
▁ደረኾ	-11740
▁ድምጽ	-11741
▁ድራር	-11742
▁ጃልባ	-11743
▁ገሊጻ	-11744
▁ገበራ	-11745
▁ገዛይ	-11746
▁ገጠር	-11747
▁ግሬድ	-11748
▁ግርማ	-11749
▁ግኡዝ	-11750
▁ግድል	-11751
▁ግጥሚ	-11752
▁ጡረታ	-11753
▁ጥበቡ	-11754
▁ጨቋኒ	-11755
▁ጸንሐ	-11756
▁ፈለግ	-11757
▁ፓትሪ	-11758
ሰማምዑሉ	-11759
ስተብህሉ	-11760
ናውያንን	-11761
ንጠቈስጠ	-11762
▁1938	-11763
▁1946	-11764
▁1956	-11765
▁1980	-11766
▁2006	-11767
▁ህዝበይ	-11768
▁ሓሶትን	-11769
▁ሓወይን	-11770
▁ሓዘንን	-11771
▁ሓዳርን	-11772
▁መሕደሪ	-11773
▁መስርዕ	-11774
▁መታለሊ	-11775
▁መኽሰብ	-11776
▁መፈጸም	-11777
▁ማሕተም	-11778
▁ምህርቲ	-11779
▁ምሕዋይ	-11780
▁ምምርዓ	-11781
▁ምስተን	-11782
▁ምቕዳስ	-11783
▁ምኵራብ	-11784
▁ምዃነን	-11785
▁ምዕቃብ	-11786
▁ምድጋፍ	-11787
▁ምግላጹ	-11788
▁ምፍራህ	-11789
▁ምፍጻሙ	-11790
▁ረኣይዎ	-11791
▁ረኺብካ	-11792
▁ርሕሩሕ	-11793
▁ሰማርያ	-11794
▁ሰማዕኩ	-11795
▁ሰምዐት	-11796
▁ስምኦን	-11797
▁ሻውዓይ	-11798
▁ቅረብዎ	-11799
▁ቅሬጥስ	-11800
▁ቋንቋን	-11801
▁ቐጺልና	-11802
▁ቘሪጽካ	-11803
▁ባሕርን	-11804
▁ብህጹጽ	-11805
▁ብልምዲ	-11806
▁ብሕማቕ	-11807
▁ብምእባ	-11808
▁ብምዃና	-11809
▁ብምፍላ	-11810
▁ብስራሕ	-11811
▁ብኸምዚ	-11812
▁ብዝሓሸ	-11813
▁ብጾትካ	-11814
▁ተሓጐሰ	-11815
▁ተተንኪ	-11816
▁ተክኖሎ	-11817
▁ተኸፍተ	-11818
▁ተገረሙ	-11819
▁ተጓዒዙ	-11820
▁ትሑዛት	-11821
▁ትጽዕር	-11822
▁ነገረኒ	-11823
▁ንልቦና	-11824
▁ንመራሕ	-11825
▁ንምሉእ	-11826
▁ንምምር	-11827
▁ንርኣዮ	-11828
▁ንስጋዊ	-11829
▁ንቓላት	-11830
▁ንተግባ	-11831
▁ንእተሸ	-11832
▁ንኪቐር	-11833
▁ንዕድመ	-11834
▁ንይሁዳ	-11835
▁ንደቀይ	-11836
▁ንጉሳዊ	-11837
▁ንጥቀም	-11838
▁ንጸቕጢ	-11839
▁ንፈልጦ	-11840
▁አይድስ	-11841
▁ኣልባብ	-11842
▁ኣመንኩ	-11843
▁ኣርባዕ	-11844
▁ኣቝሻት	-11845
▁ኣብቅዐ	-11846
▁ኣእዋም	-11847
▁ኣይረስ	-11848
▁ኣይክት	-11849
▁ኣደልዲ	-11850
▁ኣዲኦም	-11851
▁ኣጠንቀ	-11852
▁ኣፍረየ	-11853
▁እተራኸ	-11854
▁እተፈጸ	-11855
▁እኸይድ	-11856
▁ከምጽእ	-11857
▁ኪሕግዙ	-11858
▁ኪሰብኽ	-11859
▁ኪቕይሮ	-11860
▁ኪግለጽ	-11861
▁ኬኽብር	-11862
▁ክሰብኩ	-11863
▁ክሰብኽ	-11864
▁ክበጽሕ	-11865
▁ክብረት	-11866
▁ክንህቦ	-11867
▁ክንዳና	-11868
▁ኺህበና	-11869
▁ኽመጽእ	-11870
▁ኽረኽቡ	-11871
▁ኽነሶም	-11872
▁ወረዶም	-11873
▁ወከፎም	-11874
▁ውሽጥና	-11875
▁ዕግርግ	-11876
▁ዘሐጕሶ	-11877
▁ዘገድስ	-11878
▁ዘጕልሕ	-11879
▁ዚምለስ	-11880
▁ዚቃለሱ	-11881
▁ዚከኣሎ	-11882
▁ዚጐድእ	-11883
▁ዝመረጸ	-11884
▁ዝመነጨ	-11885
▁ዝመውት	-11886
▁ዝመዝገ	-11887
▁ዝመጻእ	-11888
▁ዝሙትን	-11889
▁ዝሰልጠ	-11890
▁ዝወሰዱ	-11891
▁ዝዓበዩ	-11892
▁ዝዛረብ	-11893
▁ዝግብኦ	-11894
▁ዝፍለጥ	-11895
▁ይሕልዉ	-11896
▁ይሳቐዩ	-11897
▁ይሳተፉ	-11898
▁ይስበኽ	-11899
▁ይብለኒ	-11900
▁ይገዝእ	-11901
▁ደቀይን	-11902
▁ድሌትን	-11903
▁ገበረሉ	-11904
▁ገይረን	-11905
▁ጋላክሲ	-11906
▁ጌስታፖ	-11907
▁ግዝያዊ	-11908
▁ጐልያድ	-11909
▁ጽሒፎም	-11910
▁ፍሽኽታ	-11911
▁ፕሮቲን	-11912
ሰልጥንዎም	-11913
ሰማምዓሉን	-11914
▁1,600	-11915
▁ሃንቀውታ	-11916
▁ህድኣትን	-11917
▁መንግስተ	-11918
▁መዓይይቲ	-11919
▁መግዛእቲ	-11920
▁ምምሕያሽ	-11921
▁ምርኣይና	-11922
▁ምክልኻል	-11923
▁ምዃኖምን	-11924
▁ምውስዋስ	-11925
▁ሞዛምቢክ	-11926
▁ረኺቦምዎ	-11927
▁ርኽበታት	-11928
▁ሰራዊቱን	-11929
▁ስምዒትና	-11930
▁ባህርይን	-11931
▁ባክተርያ	-11932
▁ብህድኣት	-11933
▁ብምዃንን	-11934
▁ብሰይጣን	-11935
▁ብታሕጓስ	-11936
▁ብእብራይ	-11937
▁ብዛዕባዚ	-11938
▁ተመክሮን	-11939
▁ተሰምዖም	-11940
▁ተኣዚዞም	-11941
▁ተክኖሎጂ	-11942
▁ተወለድኩ	-11943
▁ተወልደት	-11944
▁ተወከልቲ	-11945
▁ተጠመቕና	-11946
▁ተጠቓልል	-11947
▁ትርጕምን	-11948
▁ትሮፒካዊ	-11949
▁ነማስወሉ	-11950
▁ንሓድነት	-11951
▁ንመላለስ	-11952
▁ንመማህር	-11953
▁ንምሽፋን	-11954
▁ንምብዓል	-11955
▁ንምውጋድ	-11956
▁ንምፍላይ	-11957
▁ንሰብኣዊ	-11958
▁ንሸሞንተ	-11959
▁ንብጻይና	-11960
▁ንትእዛዛ	-11961
▁ንኣሽሓት	-11962
▁ንእስነቱ	-11963
▁ንክኸውን	-11964
▁ንኺምለስ	-11965
▁ንዚርከብ	-11966
▁ኣሕሊፍና	-11967
▁ኣርዚንና	-11968
▁ኣስተንቲ	-11969
▁ኣቋረጽኩ	-11970
▁ኣንስቶም	-11971
▁ኣንጾክያ	-11972
▁ኣውራጃዊ	-11973
▁ኣውቶቡስ	-11974
▁ኣጋጢሙኒ	-11975
▁እሙናትን	-11976
▁እተሓጽረ	-11977
▁እተሰምዓ	-11978
▁እተባህሉ	-11979
▁እተወስደ	-11980
▁እተፍቅሮ	-11981
▁እንታዋይ	-11982
▁እንታዎት	-11983
▁እንፍጽሞ	-11984
▁ከነተኵር	-11985
▁ኪመሳሰል	-11986
▁ኪርድእዎ	-11987
▁ክትገብሮ	-11988
▁ክትጠፍእ	-11989
▁ክንካፈል	-11990
▁ክንውከል	-11991
▁ኸተንብብ	-11992
▁ኸተውዕሎ	-11993
▁ኺሰርሑን	-11994
▁ኺገብሮም	-11995
▁ኼውጽኦም	-11996
▁ኼገልግሉ	-11997
▁ኽትርእዮ	-11998
▁ኽትወስድ	-11999
▁ኽትፈልጦ	-12000
▁ኽንርስዕ	-12001
▁ዅነታትና	-12002
▁ውሉዳትካ	-12003
▁ዓሌታትን	-12004
▁ዓሰርተው	-12005
▁ዘይሽነን	-12006
▁ዘይፍለጥ	-12007
▁ዘጋጥመና	-12008
▁ዚኣምኑሉ	-12009
▁ዚኽእልን	-12010
▁ዚወርዶም	-12011
▁ዚገልጽዎ	-12012
▁ዜኽእለካ	-12013
▁ዜድልየሉ	-12014
▁ዝስምዖም	-12015
▁ዝነበሮን	-12016
▁ዝኣዘዞም	-12017
▁ዝደረኾም	-12018
▁ዝገበሮም	-12019
▁ዝፈጠሮም	-12020
▁የሐጕሶም	-12021
▁የጋጥመካ	-12022
▁ይፈልጥዎ	-12023
▁ደምበታት	-12024
▁ግብራውን	-12025
▁ግዜኦምን	-12026
▁ጭንቀትና	-12027
▁ጸላእቶም	-12028
▁ፈጢርዎም	-12029
▁ፍሬኡውን	-12030
▁ፓተርሰን	-12031
▁መዐቀኒታት	-12032
▁ስምዒታትካ	-12033
▁ስድራቤተይ	-12034
▁ብስምዒታዊ	-12035
▁ብቕንዕናን	-12036
▁ብብሽክለታ	-12037
▁ብዛዕባኦም	-12038
▁ተተባቢዖም	-12039
▁ንመወዳእታ	-12040
▁ንምቍጽጻር	-12041
▁ንምዝርጋሕ	-12042
▁ንምድንፋዕ	-12043
▁ንኸገልግል	-12044
▁ንዜጋጥመና	-12045
▁ኣይንረስዕ	-12046
▁እተሰምዖም	-12047
▁ኪምህርዎም	-12048
▁ኸነገልግል	-12049
▁ኽንምርምሮ	-12050
▁ዘይሰማማዕ	-12051
▁ዘይተለምደ	-12052
▁ዘይትመውት	-12053
▁የንጸባርቕ	-12054
▁ይሓልየሎም	-12055
▁ጐረባብትና	-12056
▁ፍጻመታትን	-12057
▁100,000	-12058
▁ብሕያውነትን	-12059
▁ብተኣዛዝነት	-12060
▁ንሰብኣውያን	-12061
▁ንእንስሳታት	-12062
▁ኣተባቢዕዎም	-12063
▁ኣይትኽእልን	-12064
▁እተኸፋፈለት	-12065
▁እናመሀርኩም	-12066
▁እንተላትኩም	-12067
▁ኪነብሩለንን	-12068
▁Pictures	-12069
▁courtesy	-12070
▁ኤለክትሮኒካዊ	-12071
31	-12072
43	-12073
ew	-12074
ic	-12075
ሉሉ	-12076
ሊስ	-12077
ላቶ	-12078
ልሲ	-12079
ልዶ	-12080
ልጥ	-12081
ሓጥ	-12082
ሕዙ	-12083
መሩ	-12084
መዱ	-12085
ሙና	-12086
ሜላ	-12087
ሪና	-12088
ሪኻ	-12089
ራቕ	-12090
ርማ	-12091
ርበ	-12092
ሲን	-12093
ስሕ	-12094
ሽያ	-12095
ቅብ	-12096
ቐድ	-12097
ቛም	-12098
ቡና	-12099
ቢን	-12100
ባኾ	-12101
ብባ	-12102
ብአ	-12103
ታስ	-12104
ኡሉ	-12105
ከን	-12106
ኮፕ	-12107
ኸመ	-12108
ኸን	-12109
ዋሚ	-12110
ዋና	-12111
ውሎ	-12112
ውሐ	-12113
ዕታ	-12114
ዝራ	-12115
የዩ	-12116
ያዲ	-12117
ዮዶ	-12118
ደሰ	-12119
ዲዱ	-12120
ጓጕ	-12121
ጠቅ	-12122
ጡሉ	-12123
ጢር	-12124
ጣጥ	-12125
ጻጻ	-12126
ፍረ	-12127
ፍቶ	-12128
ፍኣ	-12129
ፕቱ	-12130
ale	-12131
gra	-12132
ሃለሉ	-12133
ህዋስ	-12134
ላተይ	-12135
ልኣኽ	-12136
ልካዊ	-12137
ልክል	-12138
ልጠት	-12139
ሕራሐ	-12140
ማመን	-12141
ማምጣ	-12142
ምልላ	-12143
ምርሑ	-12144
ምናዮ	-12145
ረኸኒ	-12146
ራግዋ	-12147
ሰንፎ	-12148
ሰድድ	-12149
ስተማ	-12150
ስእሎ	-12151
ቅያስ	-12152
ቕላቕ	-12153
ቕበሎ	-12154
በርክ	-12155
ቢድን	-12156
ባተኽ	-12157
ብለሉ	-12158
ብሎን	-12159
ብራህ	-12160
ቨርስ	-12161
ተርን	-12162
ተንን	-12163
ተንኩ	-12164
ነዥያ	-12165
ኦታት	-12166
ኽቱን	-12167
ዂናት	-12168
ዅንኖ	-12169
ወልድ	-12170
ወንን	-12171
ውለድ	-12172
ውድእ	-12173
ዓዮም	-12174
ዘውት	-12175
ይዎን	-12176
ድኣና	-12177
ድግፎ	-12178
ዶልፍ	-12179
ዶንን	-12180
ጀርያ	-12181
ጋንን	-12182
ግራፍ	-12183
ጕልሓ	-12184
ጥቀማ	-12185
ፈርሀ	-12186
ፈፍቲ	-12187
▁2.	-12188
▁67	-12189
▁An	-12190
▁Pr	-12191
▁US	-12192
▁by	-12193
▁ሂባ	-12194
▁ሃባ	-12195
▁ሃየ	-12196
▁ሊባ	-12197
▁ሕጽ	-12198
▁መረ	-12199
▁መሶ	-12200
▁ማኖ	-12201
▁ምሽ	-12202
▁ረዚ	-12203
▁ሩባ	-12204
▁ራሄ	-12205
▁ቍጠ	-12206
▁ቐተ	-12207
▁ባሮ	-12208
▁ብሳ	-12209
▁ብቘ	-12210
▁ብፖ	-12211
▁ተድ	-12212
▁ቸክ	-12213
▁ነዲ	-12214
▁ኒከ	-12215
▁ንፖ	-12216
▁ኣግ	-12217
▁ኣጵ	-12218
▁ኦሊ	-12219
▁ኦብ	-12220
▁ከበ	-12221
▁ኪበ	-12222
▁ኪት	-12223
▁ኪኣ	-12224
▁ካሮ	-12225
▁ኺነ	-12226
▁ኺን	-12227
▁ዋሕ	-12228
▁ዘእ	-12229
▁ዘጽ	-12230
▁ዚዛ	-12231
▁የሕ	-12232
▁ይት	-12233
▁ይጭ	-12234
▁ዳህ	-12235
▁ግዳ	-12236
▁ጣዕ	-12237
▁ጥሩ	-12238
▁ፍሎ	-12239
▁ፓኪ	-12240
1939	-12241
1943	-12242
1946	-12243
1958	-12244
1991	-12245
2003	-12246
rael	-12247
tain	-12248
መሓላለ	-12249
መስሎም	-12250
መስግኑ	-12251
ምለስን	-12252
ምርምሩ	-12253
ረክብን	-12254
ሰምዕን	-12255
ስትርያ	-12256
ቀያየር	-12257
በርትዐ	-12258
ባርነት	-12259
ብላሕታ	-12260
ንብብዎ	-12261
እትውዎ	-12262
ከናኸን	-12263
ደልደለ	-12264
ድሕነና	-12265
ገብሩን	-12266
ጋጥመኒ	-12267
ግሳጽን	-12268
ጥፍእዋ	-12269
ጻረሮም	-12270
▁104	-12271
▁115	-12272
▁121	-12273
▁230	-12274
▁Inc	-12275
▁ሃበሉ	-12276
▁ልኡም	-12277
▁ሓመመ	-12278
▁ሕራይ	-12279
▁ሕቡእ	-12280
▁መንበ	-12281
▁መዓላ	-12282
▁መዓር	-12283
▁ሚዛኑ	-12284
▁ምሃቡ	-12285
▁ምስኣ	-12286
▁ምዉቕ	-12287
▁ምዱብ	-12288
▁ሞሳን	-12289
▁ሩትን	-12290
▁ርብዒ	-12291
▁ሮማን	-12292
▁ሰቡን	-12293
▁ሰፕቱ	-12294
▁ሳውዝ	-12295
▁ስዓብ	-12296
▁ቀያፋ	-12297
▁ቈሪጸ	-12298
▁ቍሸት	-12299
▁ቝሩብ	-12300
▁በልኩ	-12301
▁ብኢን	-12302
▁ብኢድ	-12303
▁ተላኢ	-12304
▁ተሰጒ	-12305
▁ተታሒ	-12306
▁ተወሰ	-12307
▁ተወዲ	-12308
▁ተዋሒ	-12309
▁ተገደ	-12310
▁ትኹን	-12311
▁ነዚኸ	-12312
▁ነገራ	-12313
▁ንመከ	-12314
▁ንሰበ	-12315
▁ንስብ	-12316
▁ንቤት	-12317
▁ንብል	-12318
▁ንኣዕ	-12319
▁ንእን	-12320
▁ንወዲ	-12321
▁ንዩኒ	-12322
▁አለዉ	-12323
▁ኢድና	-12324
▁ኣንጎ	-12325
▁ኣይኬ	-12326
▁ኣደን	-12327
▁ኣጽን	-12328
▁ኣፈኛ	-12329
▁እተቘ	-12330
▁እተገ	-12331
▁እንሕ	-12332
▁ከይት	-12333
▁ኪንግ	-12334
▁ኪኣቱ	-12335
▁ኪጸል	-12336
▁ኪፈት	-12337
▁ክሪስ	-12338
▁ኮንግ	-12339
▁ኰታስ	-12340
▁ኰይን	-12341
▁ኵልና	-12342
▁ኸለዋ	-12343
▁ኺህብ	-12344
▁ኺመጹ	-12345
▁ኽልቲ	-12346
▁ኽትቅ	-12347
▁ኽንድ	-12348
▁ወርሕ	-12349
▁ውርሲ	-12350
▁ዓርኩ	-12351
▁ዓቕሙ	-12352
▁ዕዉር	-12353
▁ዘፍቅ	-12354
▁ዙርያ	-12355
▁ዚኣቱ	-12356
▁ዚዳሎ	-12357
▁ዝሓዙ	-12358
▁ዝሸሞ	-12359
▁ይሕል	-12360
▁ይርኢ	-12361
▁ይሰር	-12362
▁ይንበ	-12363
▁ደልየ	-12364
▁ደየበ	-12365
▁ደጋጊ	-12366
▁ድኹም	-12367
▁ጀመራ	-12368
▁ጃራዝ	-12369
▁ገያሺ	-12370
▁ጽምብ	-12371
▁ጽዮን	-12372
▁ፈጢሩ	-12373
▁ፒርስ	-12374
▁ፖርቶ	-12375
መስግንዎ	-12376
ቅበልዎን	-12377
ተባብዓኒ	-12378
እምማንን	-12379
ዘራርቦም	-12380
ጥመቕኩም	-12381
ጽሕፈሎም	-12382
▁1951	-12383
▁1952	-12384
▁1996	-12385
▁Moun	-12386
▁ላትቭያ	-12387
▁ሓሲቦም	-12388
▁ሓቢርና	-12389
▁ሓዳርና	-12390
▁ሓገዞም	-12391
▁መሓርን	-12392
▁መርኣዪ	-12393
▁መሰልን	-12394
▁መንጎና	-12395
▁መወዳእ	-12396
▁መዘክር	-12397
▁ሚልተን	-12398
▁ምልካዊ	-12399
▁ምሩኻት	-12400
▁ምጅማር	-12401
▁ምጽማም	-12402
▁ምፍታሕ	-12403
▁ርእየዮ	-12404
▁ሮብዓም	-12405
▁ሰለይቲ	-12406
▁ሰረገላ	-12407
▁ሳይትና	-12408
▁ስቅያት	-12409
▁ስብእና	-12410
▁ሶርያን	-12411
▁ሸቶኦም	-12412
▁ቀጥታዊ	-12413
▁ቅትለት	-12414
▁ቈላሕታ	-12415
▁ቕልጡፍ	-12416
▁በልክዎ	-12417
▁በብዓይ	-12418
▁ባህግን	-12419
▁ባዕልና	-12420
▁ባዕልኻ	-12421
▁ባዶነት	-12422
▁ብመገድ	-12423
▁ብስድራ	-12424
▁ብቓልን	-12425
▁ብጐይታ	-12426
▁ብጹኣን	-12427
▁ተመስሪ	-12428
▁ተርእዮ	-12429
▁ተቐትለ	-12430
▁ተባርዐ	-12431
▁ተባዕን	-12432
▁ተነስሐ	-12433
▁ተኻኢሉ	-12434
▁ተዋህበ	-12435
▁ተጠራጢ	-12436
▁ታይዋን	-12437
▁ትሑትን	-12438
▁ትሕብር	-12439
▁ነይርና	-12440
▁ንምኽሪ	-12441
▁ንስጕም	-12442
▁ንናብራ	-12443
▁ንንጥፈ	-12444
▁ንውልቀ	-12445
▁ንድሕን	-12446
▁ኣልዩካ	-12447
▁ኣስራሒ	-12448
▁ኣቀባብ	-12449
▁ኣቃውማ	-12450
▁ኣቋረጽ	-12451
▁ኣበራቲ	-12452
▁ኣትሒዛ	-12453
▁ኣንበበ	-12454
▁ኣእትዩ	-12455
▁ኣእዳው	-12456
▁ኣወዳት	-12457
▁ኣዕሩኹ	-12458
▁ኣይሓደ	-12459
▁ኣጋጠማ	-12460
▁ኣጸናን	-12461
▁ኣፍቅሩ	-12462
▁እናተጸ	-12463
▁እንህብ	-12464
▁እንጽበ	-12465
▁እዋንን	-12466
▁ከባቢኡ	-12467
▁ከኣልና	-12468
▁ኪህቦም	-12469
▁ኪርእዩ	-12470
▁ኪባረኹ	-12471
▁ኪእከቡ	-12472
▁ኪካፈሉ	-12473
▁ኬቕርቡ	-12474
▁ኬቕንዕ	-12475
▁ኬንብቡ	-12476
▁ክትርኢ	-12477
▁ክንደሊ	-12478
▁ክንዳኡ	-12479
▁ክእለቱ	-12480
▁ክገልጽ	-12481
▁ኸኣልኩ	-12482
▁ኺርእዮ	-12483
▁ኺዛረቡ	-12484
▁ኽገብሮ	-12485
▁ወለደት	-12486
▁ውሉዶም	-12487
▁ዓርክና	-12488
▁ዓቕሞም	-12489
▁ዕቡያት	-12490
▁ዕድመን	-12491
▁ዘይምሕ	-12492
▁ዘይረኣ	-12493
▁ዘይተጠ	-12494
▁ዘድለየ	-12495
▁ዘጥፍኦ	-12496
▁ዘፍቅሮ	-12497
▁ዚህልዋ	-12498
▁ዚሕልዉ	-12499
▁ዚሰርሕ	-12500
▁ዚንስሑ	-12501
▁ዚካፈሉ	-12502
▁ዚውስኖ	-12503
▁ዚድርኽ	-12504
▁ዚግደሱ	-12505
▁ዚጐልሕ	-12506
▁ዚፍለጡ	-12507
▁ዚፍጠር	-12508
▁ዜሕፍር	-12509
▁ዜስግእ	-12510
▁ዜኽብሩ	-12511
▁ዝሓለፋ	-12512
▁ዝሓደገ	-12513
▁ዝሓገዝ	-12514
▁ዝሰምዕ	-12515
▁ዝሰምዖ	-12516
▁ዝበጽሐ	-12517
▁ዝተሓተ	-12518
▁ዝተንከ	-12519
▁ዝኸበደ	-12520
▁ዝኸደሉ	-12521
▁ዝዀንካ	-12522
▁ዝወጽእ	-12523
▁ዝፈልጦ	-12524
▁ዝፍጽሙ	-12525
▁ዝፍጽም	-12526
▁ይሓስብ	-12527
▁ይሓይሽ	-12528
▁ይሰምዖ	-12529
▁ይስዕቡ	-12530
▁ይበልጽ	-12531
▁ይካፈሉ	-12532
▁ይዀኖም	-12533
▁ይወጽእ	-12534
▁ይጅምሩ	-12535
▁ይገልጻ	-12536
▁ይፈለጥ	-12537
▁ይፈርሁ	-12538
▁ደቆምን	-12539
▁ደቡብን	-12540
▁ዳሕራይ	-12541
▁ገፈፍቲ	-12542
▁ግቡእን	-12543
▁ጵርስኪ	-12544
▁ጽላሎት	-12545
▁ፈለጠት	-12546
▁ፈቃራት	-12547
▁ፈጣርን	-12548
▁ፍቓዱን	-12549
▁ፍጹምን	-12550
▁ፓሲፊክ	-12551
ዘርላንድስ	-12552
▁7,000	-12553
▁ሓሳባትና	-12554
▁ሓብተይን	-12555
▁ሓጊዞምኒ	-12556
▁ሓጢኣተኛ	-12557
▁መስለጥን	-12558
▁መበለታት	-12559
▁መዘከርታ	-12560
▁መጻወድያ	-12561
▁መፈጸምታ	-12562
▁ምስልጣን	-12563
▁ምስሕሓብ	-12564
▁ምትዕርራ	-12565
▁ምንጭታት	-12566
▁ምእካብን	-12567
▁ምገበርካ	-12568
▁ርሕሩሕን	-12569
▁ርትዓውን	-12570
▁ርእስኹም	-12571
▁ርእዮምዎ	-12572
▁ሰማርያን	-12573
▁ሰዓብቱን	-12574
▁ስታድዩም	-12575
▁ቀረበለይ	-12576
▁ብልሹዋት	-12577
▁ብልጽግና	-12578
▁ብሓጐስን	-12579
▁ብምምሳል	-12580
▁ብምክፋል	-12581
▁ብርሕራሐ	-12582
▁ብተኣማን	-12583
▁ብኣጋጣሚ	-12584
▁ብዓይኖም	-12585
▁ተማሪኾም	-12586
▁ተራኸብና	-12587
▁ተራኸብኩ	-12588
▁ተዘርጊሑ	-12589
▁ተግባርን	-12590
▁ትርጉማት	-12591
▁ነብያትን	-12592
▁ኒቆዲሞስ	-12593
▁ኒከራግዋ	-12594
▁ንህያዋን	-12595
▁ንምሕባር	-12596
▁ንምሕጓስ	-12597
▁ንምውቃዕ	-12598
▁ንምጕላሕ	-12599
▁ንምፍጣር	-12600
▁ንሰበይቲ	-12601
▁ንሸውዓተ	-12602
▁ንቕድስና	-12603
▁ንኣሕዋት	-12604
▁ንኣሽቱን	-12605
▁ንእምነቱ	-12606
▁ንወለድኻ	-12607
▁ንዓበይቲ	-12608
▁ንያእቆብ	-12609
▁ንይስሃቅ	-12610
▁አመስግኖ	-12611
▁አገልግል	-12612
▁ኣማእታት	-12613
▁ኣምላኽሲ	-12614
▁ኣምላኽከ	-12615
▁ኣስተንት	-12616
▁ኣበርቲዑ	-12617
▁ኣብነትን	-12618
▁ኣተሓሳሲ	-12619
▁ኣወዳትን	-12620
▁ኣገልገለ	-12621
▁ኣጋጣምን	-12622
▁እርጋንን	-12623
▁እብለኩም	-12624
▁እተማህረ	-12625
▁እተቕርቦ	-12626
▁እተኣሳሰ	-12627
▁እተኣከቡ	-12628
▁እናኸፍአ	-12629
▁እንተለዎ	-12630
▁እንዀነሉ	-12631
▁እንድርያ	-12632
▁ከተውጽእ	-12633
▁ከነጽንዕ	-12634
▁ከዋኽብቲ	-12635
▁ኪምህሮም	-12636
▁ኪቕበልዎ	-12637
▁ኪኸውንን	-12638
▁ካምቦድያ	-12639
▁ኬጥፍኦም	-12640
▁ክመላለሱ	-12641
▁ክትሓስብ	-12642
▁ክትረኽቦ	-12643
▁ክትኰኑኒ	-12644
▁ክንሓትት	-12645
▁ክንማሃር	-12646
▁ኸነፍቅሮ	-12647
▁ኸይከውን	-12648
▁ኺሕግዘኒ	-12649
▁ኽትነብር	-12650
▁ኽንምለስ	-12651
▁ኽንቅጽል	-12652
▁ወሪድዎም	-12653
▁ወፈያታት	-12654
▁ውሉዳትን	-12655
▁ውጥረትን	-12656
▁ውጽኢትከ	-12657
▁ዕድሚኦም	-12658
▁ዘለኣለማ	-12659
▁ዘመስግኖ	-12660
▁ዘመናዊት	-12661
▁ዘተኰረት	-12662
▁ዘይመልእ	-12663
▁ዘይተማህ	-12664
▁ዘገልገል	-12665
▁ዘጋጠመና	-12666
▁ዚመርሓና	-12667
▁ዚመርሖም	-12668
▁ዚርድእዎ	-12669
▁ዚነግረና	-12670
▁ዚገብሩሉ	-12671
▁ዜምጽኣሉ	-12672
▁ዝመሃሮም	-12673
▁ዝመዝገቦ	-12674
▁ዝስምዓኒ	-12675
▁ዝስምዓና	-12676
▁ዝቐየረሉ	-12677
▁ዝኣመሰላ	-12678
▁ዝዓይነቱ	-12679
▁ዝጸሓፈን	-12680
▁ዝፈቐደሉ	-12681
▁የሮብዓም	-12682
▁የድልየኒ	-12683
▁ይሕግዘካ	-12684
▁ይፍታሕን	-12685
▁ገሊኣተን	-12686
▁ገበረሎም	-12687
▁ገንዘባዊ	-12688
▁ጐደናታት	-12689
▁ጦብላሕታ	-12690
▁ፈቐደሎም	-12691
▁ፖለቲከኛ	-12692
ልደንሳውያን	-12693
ሰማምዓሉንዶ	-12694
▁10,000	-12695
▁Israel	-12696
▁ሃዋርያቱን	-12697
▁መጻምድቶም	-12698
▁ማዳጋስካር	-12699
▁ሰፕቱጀንት	-12700
▁ስድራቤቱን	-12701
▁ስጳኛውያን	-12702
▁ቋንቋታትን	-12703
▁ቍልዕነተይ	-12704
▁ብለውሃትን	-12705
▁ብልሽውናን	-12706
▁ብትምህርቲ	-12707
▁ብትብዓትን	-12708
▁ብኣካላውን	-12709
▁ተቐቢሎምዎ	-12710
▁ትውክልትን	-12711
▁ንመስዋእቲ	-12712
▁ንምምልላስ	-12713
▁ንምብልሻው	-12714
▁ንምጽንናዕ	-12715
▁ንኣሕዋቶም	-12716
▁ንእምነትካ	-12717
▁ንእስነቶም	-12718
▁ንዩኒቨርስ	-12719
▁አመስግነካ	-12720
▁ኣምጺኡለይ	-12721
▁ኣዘኻኸሮም	-12722
▁ኣየቋረጸን	-12723
▁ኣይርስዖን	-12724
▁ኣገልጋሊኡ	-12725
▁እተወልደሉ	-12726
▁እነቕርበሉ	-12727
▁እነፍቅሮም	-12728
▁ኬገልግልዎ	-12729
▁ክንምርምሮ	-12730
▁ክንምስርት	-12731
▁ኽንርእዮም	-12732
▁ዘይትፈልጦ	-12733
▁ዝረኸብካዮ	-12734
▁ዝኣመሰለት	-12735
▁ዝገልጸልና	-12736
▁የምጽኣሎም	-12737
▁ፍልስፍናን	-12738
▁ብምስትንታን	-12739
▁ኣመሪካውያን	-12740
▁ኣረጋገጸሎም	-12741
▁ኣረጋጊጹልና	-12742
▁ኣይቅበልዎን	-12743
▁ኣገልግሎተይ	-12744
▁ወጻእተኛታት	-12745
▁Mountain	-12746
▁እናኣጥመቕኩም	-12747
,6	-12748
,8	-12749
90	-12750
AS	-12751
UT	-12752
os	-12753
ሃሊ	-12754
ሃም	-12755
ህደ	-12756
ላብ	-12757
ላታ	-12758
ልየ	-12759
መቘ	-12760
ማሰ	-12761
ማቝ	-12762
ረያ	-12763
ራረ	-12764
ርራ	-12765
ርኒ	-12766
ሰክ	-12767
ሲቤ	-12768
ስዋ	-12769
ሽነ	-12770
ቂቕ	-12771
በያ	-12772
ቫን	-12773
ቭረ	-12774
ተኑ	-12775
ትኒ	-12776
ኑኒ	-12777
ኒኑ	-12778
ኡል	-12779
ኣና	-12780
ከረ	-12781
ካው	-12782
ኸኒ	-12783
ዋጥ	-12784
ውራ	-12785
ውጁ	-12786
ውጅ	-12787
ዙኒ	-12788
ያኑ	-12789
ዳኡ	-12790
ድሑ	-12791
ዶስ	-12792
ገጽ	-12793
ግቲ	-12794
ጓሂ	-12795
ጸረ	-12796
ጻሩ	-12797
ጻጺ	-12798
ጽዐ	-12799
ጾሮ	-12800
ፉና	-12801
ፋሉ	-12802
ፍሮ	-12803
ፍቀ	-12804
▁K	-12805
▁ሼ	-12806
▁ቭ	-12807
▁ዒ	-12808
100	-12809
lan	-12810
ሃበሉ	-12811
ሊጾም	-12812
ልውጦ	-12813
ሓልፉ	-12814
ሓደሩ	-12815
መንን	-12816
ሙናቱ	-12817
ማስቆ	-12818
ሜትር	-12819
ምሃሮ	-12820
ረብኩ	-12821
ረኽኩ	-12822
ረጋግ	-12823
ርታማ	-12824
ርትን	-12825
ሰሉን	-12826
ሰቅቕ	-12827
ሲቤስ	-12828
ሳሰሉ	-12829
ስፍሑ	-12830
ቘርጽ	-12831
በልን	-12832
በርያ	-12833
በይን	-12834
ባዊት	-12835
ተሃደ	-12836
ተርና	-12837
ቲንን	-12838
ታልል	-12839
ታልን	-12840
ታንያ	-12841
ቴኹም	-12842
ናርዶ	-12843
ንክዮ	-12844
ኣንን	-12845
ኦንን	-12846
ከፍል	-12847
ክሊፍ	-12848
ክሰን	-12849
ክዎን	-12850
ኻውን	-12851
ውርድ	-12852
ውትሩ	-12853
ውዎም	-12854
ዓልና	-12855
ዕደና	-12856
ዘርእ	-12857
ዛናዊ	-12858
የየሉ	-12859
ያታት	-12860
ያውን	-12861
ዳስን	-12862
ድናዮ	-12863
ጅመር	-12864
ገበሩ	-12865
ግንዘ	-12866
ጐድኦ	-12867
ጠርና	-12868
ጣበቕ	-12869
ጦስን	-12870
ጶስጣ	-12871
ጸልኩ	-12872
ጸጋዕ	-12873
ጹርን	-12874
ጻምን	-12875
ጽባሕ	-12876
ጽግዎ	-12877
ፈቭረ	-12878
ፈትሐ	-12879
ፍልጥ	-12880
ፍራስ	-12881
ፍተን	-12882
ፍዎም	-12883
▁85	-12884
▁St	-12885
▁ሃይ	-12886
▁ሚኒ	-12887
▁ማቲ	-12888
▁ማና	-12889
▁ሪካ	-12890
▁ራህ	-12891
▁ርኤ	-12892
▁ርጉ	-12893
▁ሲቪ	-12894
▁ቀመ	-12895
▁ቐመ	-12896
▁ቐሺ	-12897
▁ቕር	-12898
▁ባት	-12899
▁ተቢ	-12900
▁ተክ	-12901
▁ትሪ	-12902
▁ትስ	-12903
▁ነየ	-12904
▁ናሕ	-12905
▁ንካ	-12906
▁ኣቴ	-12907
▁ኣኮ	-12908
▁ኣዐ	-12909
▁ኣዛ	-12910
▁ኤሪ	-12911
▁ኪዳ	-12912
▁ኬብ	-12913
▁ክበ	-12914
▁ክዝ	-12915
▁ወሊ	-12916
▁ወፊ	-12917
▁ዓሚ	-12918
▁ዓን	-12919
▁ዓደ	-12920
▁ዓዳ	-12921
▁ዘኽ	-12922
▁የስ	-12923
▁ዱር	-12924
▁ድላ	-12925
▁ድቃ	-12926
▁ጉቦ	-12927
▁ጊኒ	-12928
▁ጐሃ	-12929
▁ጠበ	-12930
▁ፋሕ	-12931
1941	-12932
1956	-12933
1999	-12934
ages	-12935
igit	-12936
pyri	-12937
ልቫንያ	-12938
ሐጕስን	-12939
መሃርን	-12940
መሓይሹ	-12941
መስግን	-12942
ምልሰሉ	-12943
ምርዓዉ	-12944
ረኽቡን	-12945
ርድኣና	-12946
ቃወምዎ	-12947
በራትዕ	-12948
ታተይን	-12949
ትታቶም	-12950
ትንከፍ	-12951
ንጥዮት	-12952
ክኖሎጂ	-12953
ኽእለካ	-12954
ወርደና	-12955
ደልድሉ	-12956
ገዝኦም	-12957
ግስትን	-12958
ጠንቅቕ	-12959
ጥቀምን	-12960
ጭነቕን	-12961
ጻወርዎ	-12962
ጽርታት	-12963
ፋቐሩን	-12964
ፋፍኖት	-12965
ፍጽምን	-12966
▁800	-12967
▁Hig	-12968
▁ሃንስ	-12969
▁ሄንሪ	-12970
▁ህዱእ	-12971
▁ለመኖ	-12972
▁ለባም	-12973
▁ሓሲበ	-12974
▁ሓጊዛ	-12975
▁ሓጻር	-12976
▁መሮር	-12977
▁ማርዶ	-12978
▁ምንጋ	-12979
▁ምንጻ	-12980
▁ምኽሩ	-12981
▁ምውላ	-12982
▁ምዕዶ	-12983
▁ምደለ	-12984
▁ሞንጎ	-12985
▁ርብቃ	-12986
▁ርኢኻ	-12987
▁ርኸብ	-12988
▁ሰባኽ	-12989
▁ሰኣነ	-12990
▁ሳሕቲ	-12991
▁ስማዕ	-12992
▁ሸቶኡ	-12993
▁ቀዳም	-12994
▁ቃሉን	-12995
▁ቃንዛ	-12996
▁ቐውዒ	-12997
▁ቐጻሊ	-12998
▁በልጅ	-12999
▁በረድ	-13000
▁በጽሕ	-13001
▁ብልቡ	-13002
▁ብሓሳ	-13003
▁ብራኸ	-13004
▁ብወዱ	-13005
▁ብጓሂ	-13006
▁ብጻዩ	-13007
▁ተለዊ	-13008
▁ተለዓ	-13009
▁ተቐዲ	-13010
▁ተቘጢ	-13011
▁ተነቢ	-13012
▁ተንጸ	-13013
▁ተገዛ	-13014
▁ተፈሪ	-13015
▁ተፈቒ	-13016
▁ነዳዲ	-13017
▁ነፍሱ	-13018
▁ንተገ	-13019
▁ንኣል	-13020
▁ንዘር	-13021
▁ንጌጋ	-13022
▁ንጻድ	-13023
▁ንፈተ	-13024
▁አሎኻ	-13025
▁ኣላዪ	-13026
▁ኣቦር	-13027
▁ኣዕሚ	-13028
▁ኣዘዞ	-13029
▁ኣድሒ	-13030
▁ኣጆኻ	-13031
▁ኣጥረ	-13032
▁ኤልሳ	-13033
▁ኤንዶ	-13034
▁እሳተ	-13035
▁እናደ	-13036
▁ኪዀና	-13037
▁ኬርኢ	-13038
▁ኬጽን	-13039
▁ክመር	-13040
▁ክትዕ	-13041
▁ክንቅ	-13042
▁ክንዓ	-13043
▁ኸሎኹ	-13044
▁ኸይነ	-13045
▁ኺጽሊ	-13046
▁ኽርአ	-13047
▁ኽዓዪ	-13048
▁ዂናት	-13049
▁ዅለን	-13050
▁ወሲነ	-13051
▁ወዲቑ	-13052
▁ዓብያ	-13053
▁ዕላም	-13054
▁ዘሎኹ	-13055
▁ዘውጸ	-13056
▁ዘይከ	-13057
▁ዘይደ	-13058
▁ዚሓድ	-13059
▁ዚረኣ	-13060
▁ዚሳነ	-13061
▁ዚወጹ	-13062
▁ዚዓዩ	-13063
▁ዜብሎ	-13064
▁ዝሓዛ	-13065
▁ዝረአ	-13066
▁ዝተረ	-13067
▁ዝዓቢ	-13068
▁ዝጋጮ	-13069
▁ይህቦ	-13070
▁ይሓድ	-13071
▁ይሳቐ	-13072
▁ይኸፍ	-13073
▁ዴቦራ	-13074
▁ድምጹ	-13075
▁ጀሚራ	-13076
▁ጆሴፍ	-13077
▁ጊብዖ	-13078
▁ጌጋኡ	-13079
▁ግሁድ	-13080
▁ግብሩ	-13081
▁ጓለይ	-13082
▁ጓሉን	-13083
▁ጭከና	-13084
▁ጳጳስ	-13085
▁ጸጋኡ	-13086
▁ጽላት	-13087
▁ጽሕፈ	-13088
▁ጽገና	-13089
▁ፈረስ	-13090
▁ፈሳሲ	-13091
▁ፈተኑ	-13092
▁ፈጺማ	-13093
▁ፕላቶ	-13094
▁ፕራግ	-13095
TIONS	-13096
graph	-13097
tower	-13098
ህልወናን	-13099
ሕድረልና	-13100
ቢልዮናት	-13101
ተባብዓካ	-13102
እዘዝዎን	-13103
ኸፍተሎም	-13104
ገልግሎን	-13105
ፈልጥዎን	-13106
ፍቅርወን	-13107
▁1953	-13108
▁1955	-13109
▁1988	-13110
▁2007	-13111
▁ሃንቀው	-13112
▁ሄኖክን	-13113
▁ህድኣት	-13114
▁ለፈቭረ	-13115
▁ልብኹም	-13116
▁ልቦናኻ	-13117
▁ሓምሻይ	-13118
▁ሓሽሽን	-13119
▁ሓቢርካ	-13120
▁ሓንጎል	-13121
▁መለሰት	-13122
▁መሪጾም	-13123
▁መርዓና	-13124
▁መቐይሮ	-13125
▁መግብን	-13126
▁ሙዚቀኛ	-13127
▁ሚርያም	-13128
▁ማሪያን	-13129
▁ምርኢት	-13130
▁ምንዳይ	-13131
▁ምዕራጉ	-13132
▁ምፍራይ	-13133
▁ምፍታው	-13134
▁ረኺበዮ	-13135
▁ሰሚዕና	-13136
▁ሰሚዕካ	-13137
▁ሰረቕቲ	-13138
▁ሰሪሖም	-13139
▁ስልጣነ	-13140
▁ስርሐይ	-13141
▁ሻምናይ	-13142
▁ሻድሻይ	-13143
▁ቃላትን	-13144
▁ቕድሚኡ	-13145
▁ብለይቲ	-13146
▁ብሓሶት	-13147
▁ብኽብሪ	-13148
▁ብዓመጻ	-13149
▁ብጕጅለ	-13150
▁ብጥሜት	-13151
▁ብፈተና	-13152
▁ተህዋስ	-13153
▁ተሌፎን	-13154
▁ተሓቢሩ	-13155
▁ተሓጒሳ	-13156
▁ተሰምዓ	-13157
▁ተቐራቢ	-13158
▁ተበጊሱ	-13159
▁ተነጊሩ	-13160
▁ተኻፈል	-13161
▁ተወካሊ	-13162
▁ተዛረብ	-13163
▁ተጸዊዑ	-13164
▁ተፈጥረ	-13165
▁ነበረን	-13166
▁ነበርዎ	-13167
▁ነገርዎ	-13168
▁ንሒደት	-13169
▁ንሓሶት	-13170
▁ንሕማቕ	-13171
▁ንመዓል	-13172
▁ንምርዳ	-13173
▁ንምትር	-13174
▁ንኣልኣ	-13175
▁ንኣዝማ	-13176
▁ንእማን	-13177
▁ንኺህሉ	-13178
▁ንኽእለ	-13179
▁ኣማስያ	-13180
▁ኣምላኹ	-13181
▁ኣቋሪጹ	-13182
▁ኣቤልን	-13183
▁ኣነጺሩ	-13184
▁ኣንበሳ	-13185
▁ኣእመነ	-13186
▁ኣውጽአ	-13187
▁ኣየኖት	-13188
▁ኣይተኣ	-13189
▁ኣይገለ	-13190
▁ኣዲኡን	-13191
▁ኣድንቖ	-13192
▁ኣግሪጳ	-13193
▁ኣጥፊኡ	-13194
▁እተሃን	-13195
▁እተርኢ	-13196
▁እተዘር	-13197
▁እተጠቐ	-13198
▁እትደል	-13199
▁እናሰበ	-13200
▁እናዀነ	-13201
▁እኣምን	-13202
▁ኦሪጀን	-13203
▁ኪህበና	-13204
▁ኪመሃር	-13205
▁ኪመርሑ	-13206
▁ኪሰፍን	-13207
▁ኪቕጽሉ	-13208
▁ኪእዘዙ	-13209
▁ኪጅምር	-13210
▁ኪጠፍኡ	-13211
▁ኪጽዕሩ	-13212
▁ኪፈጥር	-13213
▁ኪፍጠር	-13214
▁ካብዞም	-13215
▁ክመሃር	-13216
▁ክዳውን	-13217
▁ኺመውት	-13218
▁ኽትርኢ	-13219
▁ኽነብር	-13220
▁ኽንህብ	-13221
▁ኽፈልጥ	-13222
▁ወረርቲ	-13223
▁ወርሕን	-13224
▁ወፈያን	-13225
▁ዓሌታት	-13226
▁ዓድታት	-13227
▁ዘለዉን	-13228
▁ዘላትካ	-13229
▁ዘተኵር	-13230
▁ዘየልቦ	-13231
▁ዘይተመ	-13232
▁ዚመስሉ	-13233
▁ዚምልከ	-13234
▁ዚሳቐዩ	-13235
▁ዚስሕብ	-13236
▁ዚቈጻጸ	-13237
▁ዚቕይር	-13238
▁ዚከናኸ	-13239
▁ዚዓይዩ	-13240
▁ዚገዝኡ	-13241
▁ዚፈርሁ	-13242
▁ዜስዕብ	-13243
▁ዜቝርጽ	-13244
▁ዜብርህ	-13245
▁ዜውጽእ	-13246
▁ዜገድሶ	-13247
▁ዝሓይሽ	-13248
▁ዝረሓቐ	-13249
▁ዝሰምዑ	-13250
▁ዝሰርዖ	-13251
▁ዝሰኣኑ	-13252
▁ዝነውሐ	-13253
▁ዝኸፈሎ	-13254
▁ዝዀኑን	-13255
▁ዞባታት	-13256
▁ይምለስ	-13257
▁ይርከቦ	-13258
▁ይበዝሕ	-13259
▁ይእዝዝ	-13260
▁ይከታተ	-13261
▁ይወስዱ	-13262
▁ይፍትኑ	-13263
▁ዮሲቤስ	-13264
▁ደማስቆ	-13265
▁ደቀቕቲ	-13266
▁ድሌትና	-13267
▁ድፍረት	-13268
▁ገበነኛ	-13269
▁ገይሩሉ	-13270
▁ገይሩኒ	-13271
▁ገጠራት	-13272
▁ጋዜጠኛ	-13273
▁ጌርኩም	-13274
▁ግሪኻዊ	-13275
▁ግዜኡን	-13276
▁ግዜኦም	-13277
▁ግድላት	-13278
▁ጠነሰት	-13279
▁ጥዕናይ	-13280
▁ጸለየት	-13281
▁ጸሎተይ	-13282
▁ጸሓፈት	-13283
▁ጸብለል	-13284
▁ጸገምን	-13285
▁ጸጽባሕ	-13286
▁ፈሪሳዊ	-13287
▁ፍቓድን	-13288
igital	-13289
ንሲልቫንያ	-13290
ጰንጠቈስጠ	-13291
▁3,500	-13292
▁ሓሲብካዶ	-13293
▁ሕውነትና	-13294
▁መንበሪት	-13295
▁መካበብያ	-13296
▁ምሕጽንታ	-13297
▁ምርኣየይ	-13298
▁ምትሕሓዝ	-13299
▁ምክፋልን	-13300
▁ምክፍፋል	-13301
▁ሰላማውን	-13302
▁ስንክልና	-13303
▁ቅንዕናን	-13304
▁ቍጠባውን	-13305
▁ቝጽርታት	-13306
▁ብመልክዑ	-13307
▁ብምሕታት	-13308
▁ብምርካብ	-13309
▁ብምቕባል	-13310
▁ብምንባራ	-13311
▁ብምዃነይ	-13312
▁ብምጽላይ	-13313
▁ብሰብኣዊ	-13314
▁ብስምዒት	-13315
▁ብብሕትና	-13316
▁ብተሌፎን	-13317
▁ብዛዕባቲ	-13318
▁ብዝግባእ	-13319
▁ተመላለሰ	-13320
▁ተመልሰት	-13321
▁ተማስወሉ	-13322
▁ተረዲእዎ	-13323
▁ተሰሚዑና	-13324
▁ተተንከፈ	-13325
▁ተነሲሖም	-13326
▁ተዋህበኒ	-13327
▁ተዘርግሐ	-13328
▁ተዛረብቲ	-13329
▁ተዛሪብዎ	-13330
▁ተገንዚበ	-13331
▁ቲኦክራሲ	-13332
▁ትሑታትን	-13333
▁ንማርያም	-13334
▁ንምምጻእ	-13335
▁ንምስትን	-13336
▁ንምውሳድ	-13337
▁ንምዕራይ	-13338
▁ንሰሎሞን	-13339
▁ንሰብኡት	-13340
▁ንብረትን	-13341
▁ንትንሳኤ	-13342
▁ንእሙናቱ	-13343
▁ንኺመሃሩ	-13344
▁ንኽእልዶ	-13345
▁ንኽፈልጥ	-13346
▁ንዳንኤል	-13347
▁ንጸሎትካ	-13348
▁ንጸገማት	-13349
▁ኢትዮጵያ	-13350
▁ኣለክሳን	-13351
▁ኣመሓላለ	-13352
▁ኣርባዕቲ	-13353
▁ኣቀማምጣ	-13354
▁ኣቀባብላ	-13355
▁ኣባታቶም	-13356
▁ኣቦታቶም	-13357
▁ኣተሓሳስ	-13358
▁ኣተንሲኡ	-13359
▁ኣእትዮም	-13360
▁ኣእዳዎም	-13361
▁ኣኪላስን	-13362
▁ኣዝማድና	-13363
▁ኣይተረድ	-13364
▁ኣይኣምኑ	-13365
▁ኣይፍለጥ	-13366
▁ኣድላዪት	-13367
▁ኣፋፍኖት	-13368
▁ኣፍሪቃን	-13369
▁ኣፓርታማ	-13370
▁እተመርጸ	-13371
▁እተማህሩ	-13372
▁እተጠመቕ	-13373
▁እተጠምቀ	-13374
▁እትሕተም	-13375
▁እነተኵር	-13376
▁እንሰምዖ	-13377
▁እንኸይድ	-13378
▁ከነኽብሮ	-13379
▁ከጋጥሞም	-13380
▁ኪጥቀመሉ	-13381
▁ኬድሕኖም	-13382
▁ክብረትን	-13383
▁ክንመርጽ	-13384
▁ክንምራሕ	-13385
▁ክንርዳእ	-13386
▁ክንቀርቦ	-13387
▁ክእለቶም	-13388
▁ኺገብሩን	-13389
▁ኽሕግዘና	-13390
▁ኽትከይድ	-13391
▁ኽንርዳእ	-13392
▁ኽንቀርቦ	-13393
▁ኽንቈርጽ	-13394
▁ውህበታት	-13395
▁ዘየቋርጽ	-13396
▁ዘይሕጋዊ	-13397
▁ዘይረብሕ	-13398
▁ዘይቅኑዕ	-13399
▁ዘይከኣሉ	-13400
▁ዘጋጠመኒ	-13401
▁ዘፍቅርዎ	-13402
▁ዚምስክር	-13403
▁ዚፍጸመሉ	-13404
▁ዜርእይዎ	-13405
▁ዜገድሶም	-13406
▁ዝሕብረና	-13407
▁ዝመልኦን	-13408
▁ዝርእዮም	-13409
▁ዝትንክፍ	-13410
▁ዝኣተወሉ	-13411
▁ዝኸኣልና	-13412
▁ዝወርዶም	-13413
▁ዝገለጸሉ	-13414
▁የማስወሉ	-13415
▁የተሓሳስ	-13416
▁ይመስለኒ	-13417
▁ይመስሎም	-13418
▁ደንጋጽን	-13419
▁ድሩትነት	-13420
▁ድንጋጽን	-13421
▁ጀርመንኛ	-13422
▁ገይሩሎም	-13423
▁ገዲፉልና	-13424
▁ጥምቀትን	-13425
▁ጸገማቶም	-13426
▁ጽሑፋቶም	-13427
▁ጽምብላት	-13428
▁ፈተውትና	-13429
pyright	-13430
▁Archiv	-13431
▁መላእኽቱን	-13432
▁መማህርትኻ	-13433
▁መንግስታዊ	-13434
▁መወዳእትኡ	-13435
▁መጽናዕትና	-13436
▁ማእከልኩም	-13437
▁ምሕዝነትን	-13438
▁ምድራውያን	-13439
▁ምግልጋልና	-13440
▁ሳምራውያን	-13441
▁ስምዒታትን	-13442
▁ስኮትላንድ	-13443
▁ብምምልላስ	-13444
▁ብምትብባዕ	-13445
▁ብባህርያዊ	-13446
▁ተመርኲስና	-13447
▁ተንጸባሪቑ	-13448
▁ተገንዚቦም	-13449
▁ትምህርትና	-13450
▁ትምህርቶም	-13451
▁ንሓጢኣትና	-13452
▁ንምምስራት	-13453
▁ንምስልጣን	-13454
▁ንምትብባዕ	-13455
▁ንትእዛዛቱ	-13456
▁ንኣኼባታት	-13457
▁ንክርስትና	-13458
▁ንኽንርድኦ	-13459
▁ንጥፈታትና	-13460
▁ንፈተናታት	-13461
▁ኣንጸባሪቑ	-13462
▁ኣይሁዳዊት	-13463
▁ኣይረኸቡን	-13464
▁ኣይርከብን	-13465
▁ኣይትጸጋዕ	-13466
▁ኣይገበረን	-13467
▁ኣድራሻታት	-13468
▁ኣገልገልና	-13469
▁እምበኣርከ	-13470
▁እምነታትን	-13471
▁እስክንድር	-13472
▁እተመርዓዉ	-13473
▁እትመሓደር	-13474
▁እንገልጸሉ	-13475
▁ኪቐርበኩም	-13476
▁ክትሕግዞም	-13477
▁ክትጥቀመሉ	-13478
▁ኮምዩኒስት	-13479
▁ኸነገልግሎ	-13480
▁ኻብዚኣቶም	-13481
▁ኽትሕግዞም	-13482
▁ኽንዋጽኣሉ	-13483
▁ዘተባብዖም	-13484
▁ዘካርያስን	-13485
▁ዜንጸባርቑ	-13486
▁ዜጸናንዓና	-13487
▁ዝዕድሚኦም	-13488
▁ይተኣማመኑ	-13489
▁ዳይረክተር	-13490
▁ፈላስፋታት	-13491
▁Digital	-13492
▁ተግባራትናን	-13493
▁ነዘርላንድስ	-13494
▁ንኣሕዋትናን	-13495
▁ኣስተብሂልካ	-13496
▁ኣየድልየናን	-13497
▁እብራይስጥን	-13498
▁ከነንጸባርቕ	-13499
▁ዘይተጸበናዮ	-13500
▁ዜተኣማምንን	-13501
▁ይድንግጸሎም	-13502
▁ገለልትነቶም	-13503
▁ብክርስትያናዊ	-13504
▁ኣስተብሂልካዶ	-13505
▁Copyright	-13506
▁ኣይትሰማምዓሉንዶ	-13507
36	-13508
73	-13509
BO	-13510
ER	-13511
QU	-13512
am	-13513
ed	-13514
he	-13515
re	-13516
ul	-13517
ሂቲ	-13518
ሃይ	-13519
ህዎ	-13520
ለቢ	-13521
ለኽ	-13522
ለጢ	-13523
ሉው	-13524
ሉይ	-13525
ልማ	-13526
ሕሶ	-13527
ሕካ	-13528
ሕጠ	-13529
መሮ	-13530
ሙኻ	-13531
ማጐ	-13532
ምት	-13533
ረመ	-13534
ሩኻ	-13535
ሬን	-13536
ሰለ	-13537
ሰረ	-13538
ሰዱ	-13539
ሳቓ	-13540
ስሉ	-13541
ሻም	-13542
ሽል	-13543
ቀን	-13544
ቑን	-13545
ቕሉ	-13546
ቕዖ	-13547
በኑ	-13548
ቦር	-13549
ቪስ	-13550
ቪያ	-13551
ትሕ	-13552
ናማ	-13553
ናቕ	-13554
ናኺ	-13555
ንጃ	-13556
ንፍ	-13557
ኣእ	-13558
ከሞ	-13559
ኬል	-13560
ኬም	-13561
ኸት	-13562
ኽና	-13563
ወተ	-13564
ዋግ	-13565
ዕዋ	-13566
ዕዙ	-13567
ዛኑ	-13568
የም	-13569
ይብ	-13570
ይት	-13571
ዲት	-13572
ዲን	-13573
ዴስ	-13574
ድረ	-13575
ጂን	-13576
ገዱ	-13577
ጋኢ	-13578
ጸካ	-13579
ፈቶ	-13580
ፈጸ	-13581
ፋስ	-13582
ፋፊ	-13583
ፓል	-13584
ፕሎ	-13585
▁Y	-13586
▁®	-13587
▁ዣ	-13588
:01	-13589
dom	-13590
lio	-13591
ለሉን	-13592
ለጡን	-13593
ላዊት	-13594
ላግጹ	-13595
ልምና	-13596
ልእኮ	-13597
ልውጥ	-13598
ሓልፎ	-13599
መለስ	-13600
መኖም	-13601
ማላእ	-13602
ማርክ	-13603
ሜናዊ	-13604
ምልሱ	-13605
ምስል	-13606
ሩሎም	-13607
ራሐይ	-13608
ራቶም	-13609
ሰለት	-13610
ሰሎም	-13611
ሳርያ	-13612
ሳቓሲ	-13613
ስትሊ	-13614
ሽናል	-13615
ቀድሓ	-13616
ቀድሕ	-13617
ቃንን	-13618
ቅድን	-13619
ቐማጦ	-13620
በልኩ	-13621
በርህ	-13622
በቅዕ	-13623
ቤልን	-13624
ብትን	-13625
ብዎን	-13626
ቨንያ	-13627
ተይቲ	-13628
ታምን	-13629
ታይን	-13630
ቻርድ	-13631
ናንዶ	-13632
ናድዩ	-13633
ንቲና	-13634
እሰር	-13635
እነት	-13636
እውጁ	-13637
ክልየ	-13638
ክርን	-13639
ክሳይ	-13640
ኮሎጂ	-13641
ዅንን	-13642
ወልዶ	-13643
ወሎም	-13644
ወርዶ	-13645
ወቅዕ	-13646
ዓሎም	-13647
ዓርኩ	-13648
ዓግቶ	-13649
ዕብኡ	-13650
ዘውር	-13651
ዝእዎ	-13652
የርኩ	-13653
ዮሲስ	-13654
ደገፈ	-13655
ዱሳት	-13656
ድረኽ	-13657
ድርን	-13658
ድዮን	-13659
ገድፎ	-13660
ግዝኡ	-13661
ጐድል	-13662
ጓዓዙ	-13663
ጢኖስ	-13664
ጣበቐ	-13665
ጥሮም	-13666
ጥቅዑ	-13667
ጥንጥ	-13668
ጸልእ	-13669
ጸሓፍ	-13670
ጽእሉ	-13671
ጽዋር	-13672
ጽዖም	-13673
ጽጋዕ	-13674
ፈርዱ	-13675
ፋለጥ	-13676
ፋትን	-13677
ፍርና	-13678
▁84	-13679
▁98	-13680
▁ሄር	-13681
▁ሉካ	-13682
▁ሉዊ	-13683
▁ሊት	-13684
▁ላዕ	-13685
▁ልባ	-13686
▁ልደ	-13687
▁ሓሉ	-13688
▁ሓመ	-13689
▁መው	-13690
▁ማክ	-13691
▁ምሓ	-13692
▁ሰዱ	-13693
▁ሲል	-13694
▁ሳር	-13695
▁ስሚ	-13696
▁ስኪ	-13697
▁ስኽ	-13698
▁ሸፈ	-13699
▁ሽወ	-13700
▁ቀቲ	-13701
▁ቃላ	-13702
▁ቡክ	-13703
▁ቢል	-13704
▁ብረ	-13705
▁ተቛ	-13706
▁ቲቶ	-13707
▁ቴዝ	-13708
▁ቴድ	-13709
▁ንባ	-13710
▁ኣሉ	-13711
▁ኣቚ	-13712
▁ኣኒ	-13713
▁ኣዊ	-13714
▁ከዳ	-13715
▁ካመ	-13716
▁ካዚ	-13717
▁ክሰ	-13718
▁ኮን	-13719
▁ኰዀ	-13720
▁ኸበ	-13721
▁ኸፊ	-13722
▁ኺሰ	-13723
▁ውሑ	-13724
▁ዓጸ	-13725
▁ዝቝ	-13726
▁ዝግ	-13727
▁ይዓ	-13728
▁ይደ	-13729
▁ዳር	-13730
▁ጆሰ	-13731
▁ገላ	-13732
▁ግዒ	-13733
▁ጐበ	-13734
▁ጥሙ	-13735
▁ጸራ	-13736
▁ጻማ	-13737
▁ጽፍ	-13738
▁ፍላ	-13739
▁ፍቁ	-13740
1951	-13741
1966	-13742
1970	-13743
1971	-13744
BOUT	-13745
ላይነት	-13746
ልቕላቕ	-13747
መርሓሉ	-13748
ማልእዎ	-13749
ማይስጢ	-13750
ርያምን	-13751
ስተርን	-13752
ስዕብን	-13753
ተባባዕ	-13754
ትንሳእ	-13755
ንግተን	-13756
ኣምንን	-13757
እዘዞም	-13758
ከርታይ	-13759
ወልኩም	-13760
ውዐይቲ	-13761
ውጽኣና	-13762
ዘውትሩ	-13763
ያስያን	-13764
ገበርዎ	-13765
ገብረን	-13766
ጥፍእዎ	-13767
ጸግሞም	-13768
▁107	-13769
▁116	-13770
▁12-	-13771
▁187	-13772
▁190	-13773
▁New	-13774
▁Wis	-13775
▁ሃብዎ	-13776
▁ሃደሙ	-13777
▁ልኢኹ	-13778
▁ሓረግ	-13779
▁ሓብቱ	-13780
▁ሓተቱ	-13781
▁ሓይል	-13782
▁ሓጥአ	-13783
▁ሓጺን	-13784
▁ሕተቶ	-13785
▁መሓሪ	-13786
▁መሓር	-13787
▁መረድ	-13788
▁መንከ	-13789
▁ማግዳ	-13790
▁ሜትሮ	-13791
▁ምህላ	-13792
▁ምባሉ	-13793
▁ምትኳ	-13794
▁ምንባ	-13795
▁ምዕያ	-13796
▁ሞተር	-13797
▁ረዚን	-13798
▁ርኣዩ	-13799
▁ሮሜን	-13800
▁ሰልዲ	-13801
▁ሰሚዐ	-13802
▁ሰሪዑ	-13803
▁ሰርብ	-13804
▁ሳሮን	-13805
▁ሴኬም	-13806
▁ስልጠ	-13807
▁ስርሑ	-13808
▁ስርወ	-13809
▁ስታን	-13810
▁ስክሪ	-13811
▁ስግር	-13812
▁ሸቶኻ	-13813
▁ቀይዲ	-13814
▁ቐትሪ	-13815
▁ቝልዕ	-13816
▁ቝጥዓ	-13817
▁በሃሊ	-13818
▁በኒን	-13819
▁በዘን	-13820
▁ባይቶ	-13821
▁ብልብ	-13822
▁ብብል	-13823
▁ብእኣ	-13824
▁ብግብ	-13825
▁ብጠቕ	-13826
▁ብጹእ	-13827
▁ቨሰል	-13828
▁ተማዒ	-13829
▁ተረፈ	-13830
▁ተሳዕ	-13831
▁ተወሲ	-13832
▁ተዓዊ	-13833
▁ተጻሒ	-13834
▁ታሂቲ	-13835
▁ትብዓ	-13836
▁ቸርች	-13837
▁ነፈር	-13838
▁ናሕሲ	-13839
▁ንሃብ	-13840
▁ንሎጥ	-13841
▁ንሓዉ	-13842
▁ንብር	-13843
▁ንትሑ	-13844
▁ንነብ	-13845
▁ንውላ	-13846
▁ንዓኣ	-13847
▁ንገሮ	-13848
▁ንገጽ	-13849
▁ንፊል	-13850
▁ንፍት	-13851
▁ኡርያ	-13852
▁ኢለን	-13853
▁ኢንዶ	-13854
▁ኣሎኹ	-13855
▁ኣሕተ	-13856
▁ኣሕደ	-13857
▁ኣማሌ	-13858
▁ኣሳፍ	-13859
▁ኣስፊ	-13860
▁ኣቕል	-13861
▁ኣዝቴ	-13862
▁ኣይቅ	-13863
▁ኣዲኣ	-13864
▁ኣጥፊ	-13865
▁ኣፈይ	-13866
▁ኣፍቀ	-13867
▁ኤሪክ	-13868
▁ኤደን	-13869
▁እልል	-13870
▁እዝኒ	-13871
▁ከሎን	-13872
▁ከፊቱ	-13873
▁ኪመል	-13874
▁ኪሞቱ	-13875
▁ኪቕይ	-13876
▁ኪዀኖ	-13877
▁ካረን	-13878
▁ክትቅ	-13879
▁ክነግ	-13880
▁ክንስ	-13881
▁ክወጹ	-13882
▁ክፉት	-13883
▁ኺህቦ	-13884
▁ኺዓዪ	-13885
▁ኺጠቕ	-13886
▁ኼወግ	-13887
▁ኽጽሊ	-13888
▁ወሪዱ	-13889
▁ዓይኑ	-13890
▁ዕላል	-13891
▁ዕልዋ	-13892
▁ዕንቊ	-13893
▁ዕድሜ	-13894
▁ዘሕደ	-13895
▁ዘመረ	-13896
▁ዘምጸ	-13897
▁ዘጨን	-13898
▁ዚሳቐ	-13899
▁ዚውን	-13900
▁ዚድለ	-13901
▁ዚጐድ	-13902
▁ዛጊት	-13903
▁ዜቝሙ	-13904
▁ዝህቡ	-13905
▁ዝለበ	-13906
▁ዝሰሓ	-13907
▁ዝቐተ	-13908
▁ዝወለ	-13909
▁ዝጐሃ	-13910
▁ዝጸረ	-13911
▁ይዓዩ	-13912
▁ይግም	-13913
▁ይጽል	-13914
▁ዮኣስ	-13915
▁ደያኑ	-13916
▁ደይኰ	-13917
▁ገለጾ	-13918
▁ገላዉ	-13919
▁ገጻት	-13920
▁ግሉል	-13921
▁ጠበቓ	-13922
▁ጭርሖ	-13923
▁ጭዋዳ	-13924
▁ጸዓረ	-13925
▁ፈጸሙ	-13926
ህልወኩም	-13927
መሓላልፎ	-13928
መስግነሉ	-13929
ርድኣሎም	-13930
ብርሃልና	-13931
ተሓሕዝዎ	-13932
ተሓባበሩ	-13933
ክልየሳዊ	-13934
ጣንጢኖስ	-13935
ጸናንዖም	-13936
ፍርናሆም	-13937
▁1918	-13938
▁1942	-13939
▁1957	-13940
▁1958	-13941
▁1966	-13942
▁1994	-13943
▁High	-13944
▁Maps	-13945
▁Plan	-13946
▁ሂስትሪ	-13947
▁ሃኒጾም	-13948
▁ሓልዮም	-13949
▁ሓተትኩ	-13950
▁ሓይለይ	-13951
▁ሓደረኒ	-13952
▁ሕተቶም	-13953
▁ሕትመት	-13954
▁ሕፍረት	-13955
▁መሃልይ	-13956
▁መርዛም	-13957
▁መሳርያ	-13958
▁መስለጢ	-13959
▁መዐደኒ	-13960
▁መዕለቢ	-13961
▁መገድና	-13962
▁ምሂሩና	-13963
▁ምምሕዳ	-13964
▁ምርጫና	-13965
▁ምስኣን	-13966
▁ምቍራጽ	-13967
▁ምባልን	-13968
▁ምብላዕ	-13969
▁ምትንሳ	-13970
▁ምእዋጅ	-13971
▁ምግዛእ	-13972
▁ምጽኣት	-13973
▁ምጽዓር	-13974
▁ምፍላይ	-13975
▁ምፍታን	-13976
▁ሰዋስው	-13977
▁ስራሐይ	-13978
▁ስራሕካ	-13979
▁ስቓዮም	-13980
▁ስቴፈን	-13981
▁ስንጭሮ	-13982
▁ስዋሂሊ	-13983
▁ቀዳድም	-13984
▁ቀጸልኩ	-13985
▁ቀጺሎም	-13986
▁ቅዱሳን	-13987
▁ቈሪጾም	-13988
▁ቘላሕታ	-13989
▁በረኸቱ	-13990
▁ብሓዘን	-13991
▁ብሓደጋ	-13992
▁ብሕጋዊ	-13993
▁ብማኪና	-13994
▁ብምጥቃ	-13995
▁ብርእሱ	-13996
▁ብሰባት	-13997
▁ብቝልዕ	-13998
▁ብኣዝዩ	-13999
▁ብእተማ	-14000
▁ብዕላማ	-14001
▁ብዘለዎ	-14002
▁ብጋህዲ	-14003
▁ቨርሽን	-14004
▁ተሓትመ	-14005
▁ተመሓይ	-14006
▁ተረድኣ	-14007
▁ተቐመጠ	-14008
▁ተባህለ	-14009
▁ተባሪኽ	-14010
▁ተኸናኺ	-14011
▁ተፈልዩ	-14012
▁ተፈትሐ	-14013
▁ቲንደል	-14014
▁ነገርን	-14015
▁ንሓስብ	-14016
▁ንሓይሉ	-14017
▁ንሕጐስ	-14018
▁ንመምህ	-14019
▁ንምድራ	-14020
▁ንሳውል	-14021
▁ንስርዓ	-14022
▁ንቛንቋ	-14023
▁ንታሕቲ	-14024
▁ንእያሱ	-14025
▁ንኸንቱ	-14026
▁ንኸይነ	-14027
▁ንወለዱ	-14028
▁ንዓናን	-14029
▁ንዓኻኸ	-14030
▁ንዘረባ	-14031
▁ንዚብል	-14032
▁ንግስና	-14033
▁ንጡፋት	-14034
▁ንጥበብ	-14035
▁ንጥንታ	-14036
▁ንጽድቂ	-14037
▁ንፋስን	-14038
▁ኣልይዎ	-14039
▁ኣሕሊፈ	-14040
▁ኣሕጽር	-14041
▁ኣረጋጊ	-14042
▁ኣርዚኑ	-14043
▁ኣስዓበ	-14044
▁ኣበይን	-14045
▁ኣቢለን	-14046
▁ኣቦናን	-14047
▁ኣተኰረ	-14048
▁ኣቴንስ	-14049
▁ኣካያዲ	-14050
▁ኣኽሊል	-14051
▁ኣየርን	-14052
▁ኣይደለ	-14053
▁ኣድካሚ	-14054
▁ኣጥፍአ	-14055
▁ኤፍሬም	-14056
▁እተመሓ	-14057
▁እናተኻ	-14058
▁እዚኣን	-14059
▁ኦብድያ	-14060
▁ከምጽኣ	-14061
▁ከይተሓ	-14062
▁ኪህልዋ	-14063
▁ኪዀኑን	-14064
▁ኪጥቀም	-14065
▁ኪፍጽሞ	-14066
▁ኬቕርብ	-14067
▁ኬውጽኡ	-14068
▁ክሓስብ	-14069
▁ክርክር	-14070
▁ክቡራት	-14071
▁ክጸንሕ	-14072
▁ክፈልጡ	-14073
▁ኵነታቱ	-14074
▁ኺህበካ	-14075
▁ኺበጽሕ	-14076
▁ኺጅምር	-14077
▁ኺፍለጥ	-14078
▁ኼምጽእ	-14079
▁ኽህነት	-14080
▁ኽብርቲ	-14081
▁ኽገልጽ	-14082
▁ውልደት	-14083
▁ዑናታት	-14084
▁ዓሌትን	-14085
▁ዓስራይ	-14086
▁ዕቤትን	-14087
▁ዘለኩም	-14088
▁ዘሎናን	-14089
▁ዘሕደረ	-14090
▁ዘበልና	-14091
▁ዘዘኻኽ	-14092
▁ዘይምህ	-14093
▁ዚሓቍፍ	-14094
▁ዚሕግዞ	-14095
▁ዚሕጐሱ	-14096
▁ዚቕበሎ	-14097
▁ዚበቅዕ	-14098
▁ዚበዝሕ	-14099
▁ዚነኣድ	-14100
▁ዚእከቡ	-14101
▁ዚውለዱ	-14102
▁ዚግመት	-14103
▁ዚጸልኦ	-14104
▁ዜሕድር	-14105
▁ዜጥፍኦ	-14106
▁ዝሓለወ	-14107
▁ዝሓሰበ	-14108
▁ዝሓደጉ	-14109
▁ዝመደቦ	-14110
▁ዝመጸት	-14111
▁ዝረኽቦ	-14112
▁ዝሰደደ	-14113
▁ዝስሞም	-14114
▁ዝበዝሖ	-14115
▁ዝነገሮ	-14116
▁ዝወሃቦ	-14117
▁ዝወሓደ	-14118
▁ዝደሓኑ	-14119
▁ዝጅምር	-14120
▁ዝገደፉ	-14121
▁ዝጠፍአ	-14122
▁ዝጸለዎ	-14123
▁ዝፈለጠ	-14124
▁ዝፈለጦ	-14125
▁ዝፍጽሞ	-14126
▁የብላን	-14127
▁የጕልሕ	-14128
▁ይመርጹ	-14129
▁ይምህሩ	-14130
▁ይርድኦ	-14131
▁ይትረፍ	-14132
▁ይእመን	-14133
▁ይከናኸ	-14134
▁ይወሃቦ	-14135
▁ይግደስ	-14136
▁ይጸልእ	-14137
▁ይፈቅድ	-14138
▁ይፍጽም	-14139
▁ደጋጊሙ	-14140
▁ድሒኖም	-14141
▁ጆርጅያ	-14142
▁ጋሊለዮ	-14143
▁ጥንቁቕ	-14144
▁ጥንቈላ	-14145
▁ጥዑይን	-14146
▁ጭቈናን	-14147
▁ጸርፍን	-14148
▁ጸበባን	-14149
▁ጸኒሕና	-14150
▁ጽሕፍቶ	-14151
▁ጽኑዕን	-14152
▁ጽዒርና	-14153
▁ፈረቓን	-14154
▁ፈተውቱ	-14155
▁ፈታዊኡ	-14156
▁ፋርስን	-14157
▁ፍራንክ	-14158
▁ፓራጓይ	-14159
ሜትርዮሲስ	-14160
▁ABOUT	-14161
▁ልእመትን	-14162
▁ሓተትክዎ	-14163
▁ሕግታቱን	-14164
▁መሰላትን	-14165
▁መሰኻኽሩ	-14166
▁ሚዛናውን	-14167
▁ማርጋሬት	-14168
▁ምስጋናን	-14169
▁ምስጢራዊ	-14170
▁ምንኣሰይ	-14171
▁ምኽኣለይ	-14172
▁ምጽላይና	-14173
▁ምጽራርን	-14174
▁ምጽናዕን	-14175
▁ሞንጎልያ	-14176
▁ስምረትን	-14177
▁ሻውዐይቲ	-14178
▁ቅድሚኦም	-14179
▁በርናባስ	-14180
▁ባእታታት	-14181
▁ባዕላቶም	-14182
▁ብሕክምና	-14183
▁ብምህላዉ	-14184
▁ብምሕባር	-14185
▁ብምምላስ	-14186
▁ብምዝካር	-14187
▁ብርእሶም	-14188
▁ብብሕትኻ	-14189
▁ብብርሃን	-14190
▁ብብዙሓት	-14191
▁ብዛዕባኣ	-14192
▁ብዛዕብኡ	-14193
▁ብግሪኽኛ	-14194
▁ብግብርን	-14195
▁ብፍልቀት	-14196
▁ተመሊስና	-14197
▁ተመርዓኹ	-14198
▁ተመክሮኡ	-14199
▁ተረዲኦም	-14200
▁ተሰማማዕ	-14201
▁ተቐቢልዎ	-14202
▁ተበጊሶም	-14203
▁ተንሲኦም	-14204
▁ተገንዘበ	-14205
▁ተጓዓዝና	-14206
▁ተጠሚቖም	-14207
▁ተፈጢሮም	-14208
▁ትሕግዘና	-14209
▁ትድርኸና	-14210
▁ነይሮምዎ	-14211
▁ነገልገል	-14212
▁ነገርክዋ	-14213
▁ንሓሳባት	-14214
▁ንሓጥኣን	-14215
▁ንምርዳኡ	-14216
▁ንምቕባል	-14217
▁ንምእዋጅ	-14218
▁ንምውሳን	-14219
▁ንምጥራይ	-14220
▁ንብዓልቲ	-14221
▁ንተቐማጦ	-14222
▁ንተግሳጽ	-14223
▁ንኣሉታዊ	-14224
▁ንኣንስቲ	-14225
▁ንክቕጽል	-14226
▁ንኺፍጽሙ	-14227
▁ንዕላማኡ	-14228
▁ንገንዘብ	-14229
▁ንጥፍኣት	-14230
▁ንጽድቃዊ	-14231
▁ኣመንዝራ	-14232
▁ኣማዕብል	-14233
▁ኣትላንቲ	-14234
▁ኣካላትና	-14235
▁ኣካላትን	-14236
▁ኣውጽኦም	-14237
▁ኣይትበል	-14238
▁ኣድማሳዊ	-14239
▁ኣጥፊኦም	-14240
▁ኤፍራጥስ	-14241
▁እተለምደ	-14242
▁እተሸፈነ	-14243
▁እተቐበለ	-14244
▁እተኣስሩ	-14245
▁እተኸልከ	-14246
▁እትምራሕ	-14247
▁እትኸይድ	-14248
▁እትፈትዎ	-14249
▁እናፈለጥ	-14250
▁እንወስዶ	-14251
▁እንጽበዮ	-14252
▁ኦስትርያ	-14253
▁ከተምጽእ	-14254
▁ከነንብብ	-14255
▁ኪሕግዘኒ	-14256
▁ኪረኽብዎ	-14257
▁ኪሰምዕዎ	-14258
▁ኪቐትልዎ	-14259
▁ኪነጻጸር	-14260
▁ኬማዕብል	-14261
▁ኬበላሽዎ	-14262
▁ኬጋጥመኒ	-14263
▁ክትምለስ	-14264
▁ክንቀርብ	-14265
▁ክንበጽሕ	-14266
▁ክንእዘዞ	-14267
▁ክንፈርሆ	-14268
▁ክዋጽኣሉ	-14269
▁ኵነታተይ	-14270
▁ኸባቢታት	-14271
▁ኸነሕድር	-14272
▁ኸገልግሎ	-14273
▁ኸፊቱሎም	-14274
▁ኺመላለሱ	-14275
▁ኺቈጻጸሮ	-14276
▁ኺጥቀሙሉ	-14277
▁ኽንሓትታ	-14278
▁ኽንምሃር	-14279
▁ኽንርሕቕ	-14280
▁ኽንውከል	-14281
▁ኽንገልጽ	-14282
▁ኽኢላታት	-14283
▁ዅነታትን	-14284
▁ወለዶታት	-14285
▁ዓለምለኸ	-14286
▁ዕላማኡን	-14287
▁ዕግርግር	-14288
▁ዘመሓላለ	-14289
▁ዘመሓላል	-14290
▁ዘማስወሉ	-14291
▁ዘርእይዎ	-14292
▁ዘኽእሎም	-14293
▁ዘይበሃል	-14294
▁ዘይኰንና	-14295
▁ዘይግባእ	-14296
▁ዘይፈልጦ	-14297
▁ዘጠራጥር	-14298
▁ዚርከበሉ	-14299
▁ዚቈጻጸሮ	-14300
▁ዚነብረላ	-14301
▁ዚዛረብዎ	-14302
▁ዚፍጽምዎ	-14303
▁ዜሐጕሰና	-14304
▁ዜስደምም	-14305
▁ዜገድሰና	-14306
▁ዝህልወና	-14307
▁ዝመላለሱ	-14308
▁ዝምርኰስ	-14309
▁ዝረኣኽዎ	-14310
▁ዝረኽብዎ	-14311
▁ዝሰልጠነ	-14312
▁ዝነበርዎ	-14313
▁ዝከኣለና	-14314
▁ዝጠፍአት	-14315
▁ዝጥቀሙሉ	-14316
▁ዝጸሓፍዎ	-14317
▁የማስዉሉ	-14318
▁ይመባጻዕ	-14319
▁ይተሓሓዝ	-14320
▁ይወርዶም	-14321
▁ድልዱላት	-14322
▁ገለልተኛ	-14323
▁ጉባኤኦም	-14324
▁ጋዜጣታት	-14325
▁ጸሓፈሎም	-14326
▁ጽድቃዊት	-14327
▁ፍቕራውን	-14328
▁ፕሪስትሊ	-14329
ዘንትወልኩም	-14330
▁Wisdom	-14331
▁ሃገራውነት	-14332
▁ሉዓላውነት	-14333
▁መልእኽትና	-14334
▁መሶጶታምያ	-14335
▁መጻምድተይ	-14336
▁መጽሔታትን	-14337
▁ቅፍርናሆም	-14338
▁በብዓይነቱ	-14339
▁ብመሪሕነት	-14340
▁ብምርካበይ	-14341
▁ብቢልዮናት	-14342
▁ብትሕትናን	-14343
▁ብኣረኣእያ	-14344
▁ተመስረተት	-14345
▁ተኣምራታዊ	-14346
▁ተገዛእነት	-14347
▁ተጠንቂቕካ	-14348
▁ትእዛዛትን	-14349
▁ነተሓሳስባ	-14350
▁ኑክልየሳዊ	-14351
▁ንመላእኽቲ	-14352
▁ንምምርማር	-14353
▁ንርእስናን	-14354
▁ንኣልኣዛር	-14355
▁ንእተሸገሩ	-14356
▁ንኺዋጽኡሉ	-14357
▁ንኽህልወና	-14358
▁ንኽንፈልጦ	-14359
▁ንጥፈታትን	-14360
▁ኣሕዋትካን	-14361
▁ኣረኣእያና	-14362
▁ኣረኣእያይ	-14363
▁ኣስተብሃል	-14364
▁ኣስተውዓለ	-14365
▁ኣበርቲዕካ	-14366
▁ኣእምሮኻን	-14367
▁ኣየርላንድ	-14368
▁ኣይትቝረጽ	-14369
▁ኣይደለዩን	-14370
▁ኣይገልጽን	-14371
▁ኣገልጊልና	-14372
▁እተሰምዓኒ	-14373
▁እንኽእልከ	-14374
▁ኪቈጻጸርዎ	-14375
▁ኮምዩኒዝም	-14376
▁ኸተማታትን	-14377
▁ኻባኻትኩም	-14378
▁ኽንገብረሉ	-14379
▁ዕርክነትን	-14380
▁ዘተኣማምን	-14381
▁ዘንበብካዮ	-14382
▁ዘይተማህሩ	-14383
▁ዜመሓላልፍ	-14384
▁ዝንባለታት	-14385
▁ዝገበረለይ	-14386
▁ይግበረሎም	-14387
▁ጕልበትናን	-14388
▁ጥርጣረታት	-14389
▁ጵርስኪላን	-14390
▁ጻዕርታቶም	-14391
▁ፈተውቶምን	-14392
▁ምስትንታንና	-14393
▁ብስምዒታውን	-14394
▁ብእብራይስጢ	-14395
▁ብእተኻእለኒ	-14396
▁ተገዳስነትን	-14397
▁ንልዑላውነቱ	-14398
▁ንመዘከርታይ	-14399
▁ንምስትንታን	-14400
▁ንኸተገልግሎ	-14401
▁ንኸነማዕብል	-14402
▁ንኸነገልግሎ	-14403
▁ኣሌክሳንደር	-14404
▁ኣስተውዒሎም	-14405
▁እንታይነትና	-14406
▁ኽትተኣማመን	-14407
▁ዘረጋግጸልና	-14408
▁ዜረጋግጸልና	-14409
▁ጊብዖናውያን	-14410
▁ፐንሲልቫንያ	-14411
▁Archives	-14412
▁Courtesy	-14413
▁መንግስትታትን	-14414
▁መንፈሳውነትና	-14415
▁ንኣገልግሎትና	-14416
▁ኤንዶሜትርዮሲስ	-14417
21	-14418
38	-14419
47	-14420
81	-14421
98	-14422
ES	-14423
ck	-14424
ty	-14425
ሀሉ	-14426
ህሪ	-14427
ለሙ	-14428
ሊኻ	-14429
ላቐ	-14430
ልሚ	-14431
ሓፎ	-14432
ሕፈ	-14433
መሃ	-14434
ምባ	-14435
ረዩ	-14436
ሩሉ	-14437
ሪዳ	-14438
ርፍ	-14439
ሮሴ	-14440
ሰኸ	-14441
ሲሱ	-14442
ሳህ	-14443
ሸኒ	-14444
ሸን	-14445
ሻቕ	-14446
ሽየ	-14447
ቀብ	-14448
ቂት	-14449
ቅሱ	-14450
ቈቡ	-14451
ቐለ	-14452
ቕኩ	-14453
ቕዎ	-14454
ቝጥ	-14455
በቡ	-14456
ቡጥ	-14457
ብጸ	-14458
ተየ	-14459
ትኖ	-14460
ነቅ	-14461
ነፍ	-14462
ናላ	-14463
ኣሊ	-14464
ኣኒ	-14465
ኣዮ	-14466
ኣዱ	-14467
ከሎ	-14468
ኩላ	-14469
ኼበ	-14470
ኽር	-14471
ኽካ	-14472
ወለ	-14473
ዘካ	-14474
ዘይ	-14475
ዚኡ	-14476
የቛ	-14477
የየ	-14478
ያፍ	-14479
ይሙ	-14480
ይማ	-14481
ድለ	-14482
ገሮ	-14483
ጋኑ	-14484
ጎስ	-14485
ጠኑ	-14486
ጡኒ	-14487
ጥኡ	-14488
ጨወ	-14489
ጫን	-14490
ጫው	-14491
ጸላ	-14492
ጽሑ	-14493
ፈስ	-14494
ፉኒ	-14495
ፊም	-14496
ፎር	-14497
ፓስ	-14498
ፕቸ	-14499
▁ዐ	-14500
▁ፑ	-14501
▁❍	-14502
300	-14503
539	-14504
700	-14505
ing	-14506
ity	-14507
ሃበካ	-14508
ሃንስ	-14509
ሃንጹ	-14510
ሄርን	-14511
ለክዩ	-14512
ለዉን	-14513
ለዓዕ	-14514
ላላይ	-14515
ላልን	-14516
ላማዊ	-14517
ልሰን	-14518
ልቀል	-14519
ልዕል	-14520
ሎንን	-14521
ሓትቶ	-14522
ሓቶም	-14523
ሕድሮ	-14524
መልእ	-14525
መሰለ	-14526
መደይ	-14527
ማማት	-14528
ማርኽ	-14529
ማትእ	-14530
ምለኽ	-14531
ምልሳ	-14532
ምቈት	-14533
ምናን	-14534
ምድብ	-14535
ረቱን	-14536
ረትኒ	-14537
ራህኩ	-14538
ራኸቡ	-14539
ርስት	-14540
ርብዮ	-14541
ርወን	-14542
ርጊዝ	-14543
ስታዊ	-14544
ቀትን	-14545
ቐውም	-14546
ቐድም	-14547
ቓትን	-14548
ቘርጹ	-14549
በለን	-14550
በልጹ	-14551
በርኩ	-14552
በሳጩ	-14553
በየሉ	-14554
ባረይ	-14555
ብርት	-14556
ብኩም	-14557
ብክዋ	-14558
ቲካን	-14559
ታለሉ	-14560
ነታታ	-14561
ነጽጎ	-14562
ናንድ	-14563
ኢንካ	-14564
ኣሉን	-14565
ኣቱን	-14566
ካፍሎ	-14567
ክሮም	-14568
ክወን	-14569
ኻእለ	-14570
ወይን	-14571
ወድቕ	-14572
ዐይቲ	-14573
ዓምም	-14574
ዘርን	-14575
ዛርን	-14576
ዝናን	-14577
ዝናዮ	-14578
ዝዞም	-14579
የስን	-14580
የካን	-14581
ይረስ	-14582
ይንኛ	-14583
ይያጥ	-14584
ይዳን	-14585
ዱለይ	-14586
ዱሎም	-14587
ዲቅያ	-14588
ዳእን	-14589
ድሕኖ	-14590
ድቅስ	-14591
ድናሉ	-14592
ድያን	-14593
ድግፉ	-14594
ጅንን	-14595
ገበሮ	-14596
ጋደል	-14597
ግደዱ	-14598
ጕህዩ	-14599
ጣበቑ	-14600
ጣጠሩ	-14601
ጣጠነ	-14602
ጸለን	-14603
ጸግም	-14604
ጸግዎ	-14605
ጹሎም	-14606
ጻልን	-14607
ጻኦም	-14608
ጽመድ	-14609
ጽበት	-14610
ፈርን	-14611
ፈይን	-14612
ፍላጥ	-14613
▁00	-14614
▁6:	-14615
▁77	-14616
▁95	-14617
▁Im	-14618
▁JW	-14619
▁de	-14620
▁ሑጻ	-14621
▁ሒዘ	-14622
▁ሓና	-14623
▁ሓፋ	-14624
▁መዚ	-14625
▁መጊ	-14626
▁ሙን	-14627
▁ሜኖ	-14628
▁ርግ	-14629
▁ሰቡ	-14630
▁ሲቭ	-14631
▁ስሕ	-14632
▁ሶን	-14633
▁ቀደ	-14634
▁ቃና	-14635
▁ቆስ	-14636
▁ቐቢ	-14637
▁ባን	-14638
▁ብላ	-14639
▁ቲም	-14640
▁ነቕ	-14641
▁ነው	-14642
▁ኒል	-14643
▁ንኦ	-14644
▁ንጣ	-14645
▁ንጾ	-14646
▁ኢል	-14647
▁ኢዘ	-14648
▁ኣፉ	-14649
▁ኣፋ	-14650
▁እኮ	-14651
▁ኦር	-14652
▁ካሪ	-14653
▁ካታ	-14654
▁ካዛ	-14655
▁ክህ	-14656
▁ክሓ	-14657
▁ክሩ	-14658
▁ክራ	-14659
▁ክሮ	-14660
▁ኮል	-14661
▁ኰና	-14662
▁ኺበ	-14663
▁ኺጽ	-14664
▁ዀና	-14665
▁ዋሽ	-14666
▁ዋኒ	-14667
▁ዎች	-14668
▁ዓሻ	-14669
▁ዘኪ	-14670
▁ዘዋ	-14671
▁ዘጕ	-14672
▁ዛዘ	-14673
▁ዝማ	-14674
▁ዞን	-14675
▁የማ	-14676
▁ይከ	-14677
▁ደረ	-14678
▁ዲክ	-14679
▁ድለ	-14680
▁ጂም	-14681
▁ጋግ	-14682
▁ግሉ	-14683
▁ግል	-14684
▁ግሎ	-14685
▁ጓና	-14686
▁ጠም	-14687
▁ጽሩ	-14688
▁ጽፉ	-14689
▁ጾም	-14690
▁ፊላ	-14691
▁ፋር	-14692
▁ፍቐ	-14693
▁ፓፒ	-14694
1513	-14695
1918	-14696
1930	-14697
1931	-14698
1932	-14699
1942	-14700
1944	-14701
1960	-14702
1961	-14703
1990	-14704
2006	-14705
anos	-14706
ለልዮም	-14707
ለዋወጡ	-14708
ልወጥን	-14709
ልያንኛ	-14710
ሐጕስዎ	-14711
ሕግዘሉ	-14712
መሓድር	-14713
መሳስሎ	-14714
ምንጭው	-14715
ርነሽን	-14716
ርእዮን	-14717
ርከበሉ	-14718
ርጋሕን	-14719
ሰልጥኖ	-14720
ሰብከሉ	-14721
ሰብኽን	-14722
ስተውዕ	-14723
ስቶንያ	-14724
ስዕበሉ	-14725
በልካዮ	-14726
በጽሐን	-14727
ቪዥንን	-14728
ተርፍን	-14729
ንብብን	-14730
ከላኸሉ	-14731
ከታተል	-14732
ከውንን	-14733
ካየደሉ	-14734
ወስድን	-14735
ዝክርዎ	-14736
ያንማር	-14737
ዲናንድ	-14738
ድታትን	-14739
ድግፎም	-14740
ጅምረሉ	-14741
ግምግሞ	-14742
ጠቅምን	-14743
ጠፍእን	-14744
ጸናንዑ	-14745
ጽንዕዎ	-14746
ጽኢታዊ	-14747
ጽዕረሉ	-14748
ጽዕርን	-14749
ፈተሎም	-14750
ፍሕፋሕ	-14751
ፍጹማት	-14752
ፕቸርስ	-14753
▁128	-14754
▁146	-14755
▁236	-14756
▁Art	-14757
▁The	-14758
▁ሂብና	-14759
▁ሃጌን	-14760
▁ህርኩ	-14761
▁ህንጡ	-14762
▁ሆንግ	-14763
▁ለምኖ	-14764
▁ለበዳ	-14765
▁ለዋህ	-14766
▁ላግጺ	-14767
▁ሓለፋ	-14768
▁ሓበን	-14769
▁ሓቦን	-14770
▁ሓወየ	-14771
▁ሓዚኑ	-14772
▁ሓዲጋ	-14773
▁ሓጐሱ	-14774
▁ሕርሲ	-14775
▁ሕድሪ	-14776
▁ሕጂኸ	-14777
▁መሃን	-14778
▁መኣዲ	-14779
▁መኽፈ	-14780
▁መጠኑ	-14781
▁ማሪት	-14782
▁ማያት	-14783
▁ሜሌክ	-14784
▁ምሕጻ	-14785
▁ምምሃ	-14786
▁ምሰሎ	-14787
▁ምሳሕ	-14788
▁ምቕጻ	-14789
▁ምብላ	-14790
▁ምክት	-14791
▁ሞሪስ	-14792
▁ሞሳኻ	-14793
▁ሞትና	-14794
▁ረዳኢ	-14795
▁ሮቤል	-14796
▁ሰማዒ	-14797
▁ሰምበ	-14798
▁ሰበኸ	-14799
▁ሰይፊ	-14800
▁ሲሰራ	-14801
▁ሳኡል	-14802
▁ቀተለ	-14803
▁ቀውዒ	-14804
▁ቀደሙ	-14805
▁ቈጸራ	-14806
▁ቐየረ	-14807
▁ቐየሮ	-14808
▁ቘሪጸ	-14809
▁ቘራሪ	-14810
▁በርት	-14811
▁ባርዕ	-14812
▁ባትሴ	-14813
▁ቤተሰ	-14814
▁ብምጕ	-14815
▁ብሞቱ	-14816
▁ብኣብ	-14817
▁ብኮም	-14818
▁ብኽእ	-14819
▁ብወገ	-14820
▁ብውድ	-14821
▁ብዕል	-14822
▁ብደቂ	-14823
▁ብጻዕ	-14824
▁ብጽሕ	-14825
▁ቦርሳ	-14826
▁ቦይል	-14827
▁ተሃዊ	-14828
▁ተላእ	-14829
▁ተሓተ	-14830
▁ተሰሪ	-14831
▁ተሰና	-14832
▁ተሳቕ	-14833
▁ተሸመ	-14834
▁ተቐዳ	-14835
▁ተንኰ	-14836
▁ተኪኡ	-14837
▁ተወስ	-14838
▁ተዳጐ	-14839
▁ተድላ	-14840
▁ተጣላ	-14841
▁ተጸም	-14842
▁ትባዕ	-14843
▁ነቐፌ	-14844
▁ነገረ	-14845
▁ኒቅያ	-14846
▁ንሉዓ	-14847
▁ንስጋ	-14848
▁ንበሩ	-14849
▁ንበይ	-14850
▁ንትዕ	-14851
▁ንኣህ	-14852
▁ንኺበ	-14853
▁ንኺወ	-14854
▁ንኽቕ	-14855
▁ንዝመ	-14856
▁ንድኽ	-14857
▁ንፍጡ	-14858
▁ኣሕለ	-14859
▁ኣሕው	-14860
▁ኣመነ	-14861
▁ኣምሪ	-14862
▁ኣምጺ	-14863
▁ኣሞን	-14864
▁ኣርሒ	-14865
▁ኣሰን	-14866
▁ኣተኣ	-14867
▁ኣቲኻ	-14868
▁ኣነስ	-14869
▁ኣንቲ	-14870
▁ኣኮይ	-14871
▁ኣኼበ	-14872
▁ኣይዓ	-14873
▁ኣዳል	-14874
▁ኣጓነ	-14875
▁እሱር	-14876
▁እሳት	-14877
▁እተጓ	-14878
▁ከባብ	-14879
▁ኪሓቱ	-14880
▁ኪወጹ	-14881
▁ኪዕቅ	-14882
▁ኮርስ	-14883
▁ኰንና	-14884
▁ኲንስ	-14885
▁ኸተን	-14886
▁ኸይወ	-14887
▁ኸደት	-14888
▁ኺመል	-14889
▁ኺብሉ	-14890
▁ኺኣቱ	-14891
▁ኽልሰ	-14892
▁ኽርኢ	-14893
▁ኽንም	-14894
▁ኽዳን	-14895
▁ዅሉን	-14896
▁ወቕዒ	-14897
▁ወኪሉ	-14898
▁ወኪል	-14899
▁ዌልስ	-14900
▁ውሉዱ	-14901
▁ውጥን	-14902
▁ዓለማ	-14903
▁ዓረገ	-14904
▁ዓደይ	-14905
▁ዓድና	-14906
▁ዕምሪ	-14907
▁ዕዳኡ	-14908
▁ዘሳቒ	-14909
▁ዘይሰ	-14910
▁ዘዳለ	-14911
▁ዚስሕ	-14912
▁ዚኣኽ	-14913
▁ዜርክ	-14914
▁ዜሳቒ	-14915
▁ዜውር	-14916
▁ዝደን	-14917
▁ዝጠቕ	-14918
▁ዝጸን	-14919
▁የካፍ	-14920
▁ያንኪ	-14921
▁ይተሓ	-14922
▁ይግባ	-14923
▁ደቀን	-14924
▁ደንጽ	-14925
▁ዲፕሎ	-14926
▁ድርብ	-14927
▁ጆንን	-14928
▁ገምቶ	-14929
▁ገጣሚ	-14930
▁ገጽና	-14931
▁ጓልን	-14932
▁ጓኖት	-14933
▁ጕህዩ	-14934
▁ጕድለ	-14935
▁ጵሮሴ	-14936
▁ጶስጣ	-14937
▁ጸግዒ	-14938
▁ጽምኢ	-14939
▁ጽርግ	-14940
▁ጽውዓ	-14941
▁ፈርሁ	-14942
▁ፈሸለ	-14943
▁ፈቲኑ	-14944
▁ፈትን	-14945
▁ፋብሪ	-14946
▁ፓውሎ	-14947
5,000	-14948
መሓላለፍ	-14949
መሓላልፉ	-14950
ሰማማዕን	-14951
ስተብህለ	-14952
ንቀሳቐስ	-14953
ውጽኣኩም	-14954
ጥቀመሉን	-14955
ጻዋርነት	-14956
▁1920	-14957
▁1954	-14958
▁ሂቦምሉ	-14959
▁ህልቂት	-14960
▁ህዱእን	-14961
▁ህጻናት	-14962
▁ለኣኾም	-14963
▁ሊባኖስ	-14964
▁ሎዲቅያ	-14965
▁ሓለይቲ	-14966
▁ሓሲብካ	-14967
▁ሓሳብን	-14968
▁ሓተተኒ	-14969
▁ሓተትዎ	-14970
▁ሓይልና	-14971
▁ሓድሽን	-14972
▁ሓጊዝዋ	-14973
▁ሓጐሶም	-14974
▁ሕልናኻ	-14975
▁ሕማመይ	-14976
▁ሕጽረት	-14977
▁መሃልየ	-14978
▁መሓርቲ	-14979
▁መምሃሪ	-14980
▁መረድኢ	-14981
▁መሳፍን	-14982
▁መቕደሱ	-14983
▁መበቈሉ	-14984
▁መዓዶም	-14985
▁ሚካኤል	-14986
▁ሚዛንና	-14987
▁ማህጸን	-14988
▁ማሕጸን	-14989
▁ምሂሩኒ	-14990
▁ምልማድ	-14991
▁ምሕረቱ	-14992
▁ምርኣዩ	-14993
▁ምኻዶም	-14994
▁ምኽኒት	-14995
▁ምኽፋል	-14996
▁ምዕዳግ	-14997
▁ሞለክዩ	-14998
▁ሞርሞን	-14999
▁ሞሳኦም	-15000
▁ሪቻርድ	-15001
▁ርሒቖም	-15002
▁ርክብና	-15003
▁ርኹሳት	-15004
▁ሰሜንን	-15005
▁ሰባትከ	-15006
▁ስርሖም	-15007
▁ስሱዓት	-15008
▁ስቲቨን	-15009
▁ስኒትን	-15010
▁ስግኣት	-15011
▁ሽወደን	-15012
▁ቂሳርያ	-15013
▁ቅሳነት	-15014
▁ቅድሜና	-15015
▁ቕድስና	-15016
▁ቕድድም	-15017
▁በርሊን	-15018
▁በሽሓት	-15019
▁በጅነት	-15020
▁ቢታንያ	-15021
▁ብህዝቢ	-15022
▁ብልግሲ	-15023
▁ብሰንኩ	-15024
▁ብብሕቱ	-15025
▁ብወዝቢ	-15026
▁ብውልቀ	-15027
▁ብውልቂ	-15028
▁ብዓለም	-15029
▁ብዓይኑ	-15030
▁ብደሓን	-15031
▁ብድራኸ	-15032
▁ብጃልባ	-15033
▁ብጽድቂ	-15034
▁ብጾተይ	-15035
▁ቫቲካን	-15036
▁ተሃንጸ	-15037
▁ተሐጐሱ	-15038
▁ተማሂራ	-15039
▁ተራእዮ	-15040
▁ተሰምዐ	-15041
▁ተቐላጢ	-15042
▁ተቘጥዐ	-15043
▁ተኣመነ	-15044
▁ተኣመን	-15045
▁ተኣዘዘ	-15046
▁ተኣጊዱ	-15047
▁ተደላዪ	-15048
▁ተገዛኢ	-15049
▁ተገደዱ	-15050
▁ተጐዓዝ	-15051
▁ተጠቒሳ	-15052
▁ተጸብዩ	-15053
▁ታይምስ	-15054
▁ትሓትት	-15055
▁ትግሃት	-15056
▁ነሕልፍ	-15057
▁ነበርዋ	-15058
▁ነገረቶ	-15059
▁ነገሩኒ	-15060
▁ነፈርቲ	-15061
▁ንሓላፍ	-15062
▁ንሓድሽ	-15063
▁ንሕማም	-15064
▁ንመያየ	-15065
▁ንምኻድ	-15066
▁ንምዕባ	-15067
▁ንሰብኽ	-15068
▁ንንግስ	-15069
▁ንንጹህ	-15070
▁ንኽዀኑ	-15071
▁ንወለድ	-15072
▁ንውሉዱ	-15073
▁ንውሓት	-15074
▁ንውከል	-15075
▁ንዕርክ	-15076
▁ንዘርኢ	-15077
▁ንዘይኣ	-15078
▁ንዝረኸ	-15079
▁ንዝብል	-15080
▁ንድምጺ	-15081
▁ንግስቲ	-15082
▁ንግዜና	-15083
▁ንጭንቀ	-15084
▁ኣምላኺ	-15085
▁ኣስራሕ	-15086
▁ኣቐዲመ	-15087
▁ኣቦኹም	-15088
▁ኣንበረ	-15089
▁ኣንጎላ	-15090
▁ኣእተዉ	-15091
▁ኣኽቢረ	-15092
▁ኣኽኣሎ	-15093
▁ኣውጽኡ	-15094
▁ኣዘኻኺ	-15095
▁ኣዝቴክ	-15096
▁ኣይነግ	-15097
▁ኣይደል	-15098
▁ኣድለየ	-15099
▁ኣጥፍኡ	-15100
▁ኣጵሎስ	-15101
▁ኤስተር	-15102
▁እሕጐስ	-15103
▁እሰርሕ	-15104
▁እብራዊ	-15105
▁እተላዕ	-15106
▁እተኣከ	-15107
▁እተጸል	-15108
▁እትሰር	-15109
▁እናተሓ	-15110
▁ከጋጥም	-15111
▁ኪሕግዘ	-15112
▁ኪሰርሕ	-15113
▁ኪስጐጉ	-15114
▁ኪበጽሑ	-15115
▁ኪብጻሕ	-15116
▁ኪኣትዉ	-15117
▁ኪወርድ	-15118
▁ኪወድቕ	-15119
▁ኪውገድ	-15120
▁ኪጽዕር	-15121
▁ካመሩን	-15122
▁ኬድሕን	-15123
▁ክህቦም	-15124
▁ክህነት	-15125
▁ክሓብር	-15126
▁ክመሃሩ	-15127
▁ክርእዮ	-15128
▁ክስዕብ	-15129
▁ክቕይር	-15130
▁ክትህብ	-15131
▁ክትህቦ	-15132
▁ክንዓዪ	-15133
▁ክንድኡ	-15134
▁ክንጽበ	-15135
▁ክእሰር	-15136
▁ክዀኖም	-15137
▁ክወጽእ	-15138
▁ክጅምር	-15139
▁ክጥቀሙ	-15140
▁ክፍሊት	-15141
▁ኺህልዋ	-15142
▁ኺመስል	-15143
▁ኺምሃሩ	-15144
▁ኺባርኾ	-15145
▁ኺውዕል	-15146
▁ኺግለጽ	-15147
▁ኺጠፍእ	-15148
▁ኺጥቀም	-15149
▁ኽመሃር	-15150
▁ኽንክን	-15151
▁ኽወስድ	-15152
▁ኽግበር	-15153
▁ኽፍሊት	-15154
▁ኽፍጽም	-15155
▁ወሰነት	-15156
▁ወደቐት	-15157
▁ዊክሊፍ	-15158
▁ዓርከይ	-15159
▁ዓባዩን	-15160
▁ዓወታት	-15161
▁ዕምባባ	-15162
▁ዕቤትና	-15163
▁ዘሕለፉ	-15164
▁ዘርኦም	-15165
▁ዘቕረበ	-15166
▁ዘቕርቦ	-15167
▁ዘእመነ	-15168
▁ዘኽእል	-15169
▁ዘውጽእ	-15170
▁ዘይህሉ	-15171
▁ዘድለዮ	-15172
▁ዘጕልሐ	-15173
▁ዚህበካ	-15174
▁ዚላንድ	-15175
▁ዚሓልፍ	-15176
▁ዚሕተት	-15177
▁ዚመጸኒ	-15178
▁ዚምህሩ	-15179
▁ዚሳተፉ	-15180
▁ዚቕመጥ	-15181
▁ዚቕበሉ	-15182
▁ዚእመኑ	-15183
▁ዚእምት	-15184
▁ዚኽእላ	-15185
▁ዚወሃቦ	-15186
▁ዚውሰን	-15187
▁ዚውስኽ	-15188
▁ዚዓብዩ	-15189
▁ዚዓይዎ	-15190
▁ዚጠቅስ	-15191
▁ዚጠፍእ	-15192
▁ዚጽውዕ	-15193
▁ዚፈጥር	-15194
▁ዜሕልፉ	-15195
▁ዜርእዮ	-15196
▁ዜቕርብ	-15197
▁ዝሃበቶ	-15198
▁ዝህልዎ	-15199
▁ዝለኣኻ	-15200
▁ዝለዓል	-15201
▁ዝሓስብ	-15202
▁ዝሓትዎ	-15203
▁ዝሓዘለ	-15204
▁ዝሓየለ	-15205
▁ዝሕጐስ	-15206
▁ዝሞተላ	-15207
▁ዝሰምዓ	-15208
▁ዝስምዖ	-15209
▁ዝበደሉ	-15210
▁ዝባኖም	-15211
▁ዝኣመኑ	-15212
▁ዝከኣሎ	-15213
▁ዝወርድ	-15214
▁ዝወሰኑ	-15215
▁ዝወፈየ	-15216
▁ዝውዕል	-15217
▁ዝዓበኹ	-15218
▁ዝዝክሮ	-15219
▁ዝደረኸ	-15220
▁ዝገዓዙ	-15221
▁ዝጠቐሰ	-15222
▁ዝፈለጡ	-15223
▁ዝፍትን	-15224
▁ዝፍጠር	-15225
▁የምጽኡ	-15226
▁የሱስከ	-15227
▁የኽእሎ	-15228
▁የፍቅሩ	-15229
▁ይህብዎ	-15230
▁ይሕግዙ	-15231
▁ይሕግዞ	-15232
▁ይመርሑ	-15233
▁ይምልስ	-15234
▁ይቃለሱ	-15235
▁ይብሃል	-15236
▁ይብሎም	-15237
▁ይጠፍእ	-15238
▁ይጽዋዕ	-15239
▁ደምደመ	-15240
▁ድኹማት	-15241
▁ጆርጅን	-15242
▁ገበርዎ	-15243
▁ግዜናኸ	-15244
▁ጕዕዞና	-15245
▁ጠባይን	-15246
▁ጥዕናኻ	-15247
▁ጸበባና	-15248
▁ጽሕፍቲ	-15249
▁ጽንዕቲ	-15250
▁ፈሊጥካ	-15251
▁ፈጺምዎ	-15252
▁ፊንሃስ	-15253
▁ፍርድን	-15254
▁ፍቕሩን	-15255
▁ፕላነት	-15256
ተሓታትትን	-15257
▁1,200	-15258
▁2,500	-15259
▁8,000	-15260
▁Panos	-15261
▁ህይወቱን	-15262
▁ሊዮናርዶ	-15263
▁ሓላፍነቱ	-15264
▁ሓረስታይ	-15265
▁ሕያውነቱ	-15266
▁መላእኽቱ	-15267
▁መደረታት	-15268
▁መገላግል	-15269
▁ምህላውና	-15270
▁ምስታፍን	-15271
▁ምክንኻን	-15272
▁ምኸኣልካ	-15273
▁ምኽኣልና	-15274
▁ምዝንጋዕ	-15275
▁ምጥርጣር	-15276
▁ምፍላጥን	-15277
▁ርእስታት	-15278
▁ሰሜናዊት	-15279
▁ሸቶታትካ	-15280
▁ቀልጢፍና	-15281
▁ቀልጢፎም	-15282
▁ቕትለትን	-15283
▁በማእታት	-15284
▁ባህግታት	-15285
▁ብሕብረት	-15286
▁ብምምራጽ	-15287
▁ብምምጻእ	-15288
▁ብምውካል	-15289
▁ብምዕዛብ	-15290
▁ብምዝራብ	-15291
▁ብምጥሓስ	-15292
▁ብምጥፋእ	-15293
▁ብምፍጻም	-15294
▁ብሞባይል	-15295
▁ብርሃንን	-15296
▁ብርዝነት	-15297
▁ብቕዱሳት	-15298
▁ብቕጽበት	-15299
▁ብንጹርን	-15300
▁ብኣስታት	-15301
▁ብኣካይዳ	-15302
▁ብዛዕባኻ	-15303
▁ብፍታውን	-15304
▁ተሰዲዶም	-15305
▁ተዘክሮኡ	-15306
▁ተገዲዶም	-15307
▁ተጸብዮም	-15308
▁ተጻረርዎ	-15309
▁ተፈልዮም	-15310
▁ትምህርታ	-15311
▁ትዕቢትን	-15312
▁ነይርዎዶ	-15313
▁ነገርክዎ	-15314
▁ነፍስናን	-15315
▁ናጽነትና	-15316
▁ናጽነቶም	-15317
▁ንሓደስቲ	-15318
▁ንሕማምን	-15319
▁ንሕቶታት	-15320
▁ንምስማዕ	-15321
▁ንምቕጻል	-15322
▁ንምብራህ	-15323
▁ንምንካይ	-15324
▁ንምውዳስ	-15325
▁ንምውጻእ	-15326
▁ንምዝካር	-15327
▁ንምጥቃም	-15328
▁ንሰራዊት	-15329
▁ንተመሃሮ	-15330
▁ንትሑታት	-15331
▁ንትርጕም	-15332
▁ንትሽዓተ	-15333
▁ንትእዛዝ	-15334
▁ንኣሕዋቱ	-15335
▁ንኺህልዎ	-15336
▁ንኽልቲኡ	-15337
▁ንወንጌል	-15338
▁ንዕድመካ	-15339
▁ንዚነብሩ	-15340
▁ንዚገልጽ	-15341
▁ንግዝኣት	-15342
▁ንጸሎቶም	-15343
▁ኢስቶንያ	-15344
▁ኢንሳይት	-15345
▁ኣለዎምዶ	-15346
▁ኣሌክሳን	-15347
▁ኣሕዋቱን	-15348
▁ኣቕልበሉ	-15349
▁ኣባይትን	-15350
▁ኣቦርጅን	-15351
▁ኣተኲርና	-15352
▁ኣዝማድን	-15353
▁ኣይስምዓ	-15354
▁ኣይበለን	-15355
▁ኣይትፍር	-15356
▁ኣይግብኣ	-15357
▁ኣጋይሽን	-15358
▁ኣፈላላይ	-15359
▁እተነስሑ	-15360
▁እተንብቦ	-15361
▁እተዋህባ	-15362
▁እተጸውዐ	-15363
▁እትመርሕ	-15364
▁እትምህሮ	-15365
▁እትዀነሉ	-15366
▁እትጥቀም	-15367
▁እትጽበዮ	-15368
▁እንሓስብ	-15369
▁እንሰብኮ	-15370
▁እንኣምን	-15371
▁እንዛረብ	-15372
▁ከነሕድር	-15373
▁ከነፍቅሮ	-15374
▁ከየባተኽ	-15375
▁ከገልግሎ	-15376
▁ኪመላለሱ	-15377
▁ኪምርዓዉ	-15378
▁ኪስምዓና	-15379
▁ኬማዕብሉ	-15380
▁ኬጠቓልል	-15381
▁ክሕግዘካ	-15382
▁ክቈጻጸሮ	-15383
▁ክትሕግዞ	-15384
▁ክትጅምር	-15385
▁ክትገብሩ	-15386
▁ክንህበሉ	-15387
▁ክንረኽቦ	-15388
▁ክንኣምን	-15389
▁ክንጠቅስ	-15390
▁ክንጭነቕ	-15391
▁ክኸውንን	-15392
▁ኵነታቶም	-15393
▁ኺርእይዎ	-15394
▁ኺስምዖም	-15395
▁ኺብለልና	-15396
▁ኺወሃቦም	-15397
▁ኺገብረሉ	-15398
▁ኺጥቀመሉ	-15399
▁ኺፈልጥዎ	-15400
▁ኽሕግዞም	-15401
▁ኽትምልሶ	-15402
▁ኽንመርጽ	-15403
▁ኽንሰምዕ	-15404
▁ኽንበጽሕ	-15405
▁ኽንግዕዝ	-15406
▁ዀይንዎም	-15407
▁ዅነታቶም	-15408
▁ዓብላሊት	-15409
▁ዘለዓዓሎ	-15410
▁ዘሐጕስን	-15411
▁ዘይርከብ	-15412
▁ዘይተርፍ	-15413
▁ዘይእሙን	-15414
▁ዚህልወካ	-15415
▁ዚመስሎም	-15416
▁ዚሰምዕዎ	-15417
▁ዚባርኾም	-15418
▁ዚነብሩን	-15419
▁ዚእዘዝዎ	-15420
▁ዚገብርን	-15421
▁ዚገዝኣሉ	-15422
▁ዚጸልወና	-15423
▁ዜደልድል	-15424
▁ዜደልድሎ	-15425
▁ዜድሕኖም	-15426
▁ዝህልዎም	-15427
▁ዝሓቘፈት	-15428
▁ዝሕግዞም	-15429
▁ዝበርትዐ	-15430
▁ዝነብረሉ	-15431
▁ዝከኣሎም	-15432
▁ዝጀመረት	-15433
▁ዝገለጽዎ	-15434
▁ዝገበርካ	-15435
▁የምጽኣሉ	-15436
▁የተባብዕ	-15437
▁የደልድሎ	-15438
▁ይህልዎም	-15439
▁ይምዕደና	-15440
▁ይስሕቦም	-15441
▁ይኽእሉዶ	-15442
▁ይጠራጠሩ	-15443
▁ይጽበየና	-15444
▁ይጽበዮም	-15445
▁ድኽመትን	-15446
▁ገይሩልና	-15447
▁ጕዕዞኦም	-15448
▁ጥበበኛን	-15449
▁ጸላእትና	-15450
▁ጸገማትና	-15451
▁ፍርድታት	-15452
▁ፓኪስታን	-15453
▁ፖለቲካን	-15454
ስተንትነሉን	-15455
ኢንካርነሽን	-15456
ግዚኣብሄርን	-15457
▁Biblio	-15458
▁ህይወትናን	-15459
▁ሓቀኛታትን	-15460
▁ሓተትክዎም	-15461
▁ሓደጋታትን	-15462
▁ሕውነታዊት	-15463
▁መሳርሕትና	-15464
▁መአረምታን	-15465
▁መዘናግዕን	-15466
▁ማእሰርትን	-15467
▁ሜኖኣውያን	-15468
▁ምምርማርካ	-15469
▁ሰለስቲኦም	-15470
▁ስርዓታቱን	-15471
▁ስድራቤትካ	-15472
▁ቈራጽነትን	-15473
▁ብምውዓልን	-15474
▁ብምፍላጥና	-15475
▁ብሪጣንያን	-15476
▁ብንእስነት	-15477
▁ብእተኻእሎ	-15478
▁ብውጽኢታዊ	-15479
▁ብዚሰማማዕ	-15480
▁ተህዋስያን	-15481
▁ተግባራቱን	-15482
▁ንምሕጋዞም	-15483
▁ንምምሕያሽ	-15484
▁ንምትርጓም	-15485
▁ንስድራቤት	-15486
▁ንኺህልዎም	-15487
▁ንኺሕግዘና	-15488
▁ንኽንስዕብ	-15489
▁ንኽንነብር	-15490
▁ንዅነታትካ	-15491
▁ንዜጋጥሞም	-15492
▁ንጳውሎስን	-15493
▁ኢንዱስትሪ	-15494
▁ኣረጋገጸሉ	-15495
▁ኣነባብራና	-15496
▁ኣንስትዮን	-15497
▁ኣኼበኛታት	-15498
▁ኣኽብሮታዊ	-15499
▁ኣኽኢልዎም	-15500
▁ኣየቋረጹን	-15501
▁ኣየድልዮን	-15502
▁ኣይመስልን	-15503
▁ኣይከውንን	-15504
▁ኣይክህሉን	-15505
▁ኣይኰንኩን	-15506
▁ኣይገብሩን	-15507
▁ኣይገብርን	-15508
▁ኣይፍለጥን	-15509
▁ኣጋጢሙካዶ	-15510
▁እተመደቡሉ	-15511
▁እተመጣጠነ	-15512
▁እተማስወሉ	-15513
▁እተቐበልዎ	-15514
▁እተባህለት	-15515
▁እተኣሳሰረ	-15516
▁እተዳለወት	-15517
▁እተጠቓልል	-15518
▁እተፈጠርና	-15519
▁እተፈጸመት	-15520
▁እትኽእለሉ	-15521
▁እንምርምሮ	-15522
▁እንኽእልን	-15523
▁ከተማታትን	-15524
▁ኬምጽኣልና	-15525
▁ኬንጸባርቑ	-15526
▁ክርስትናን	-15527
▁ኸነርእየሉ	-15528
▁ኽትፈልጥዋ	-15529
▁ኽንገብርን	-15530
▁ውሉዳትኩም	-15531
▁ዘይህልወሉ	-15532
▁ዚሓልየልና	-15533
▁ዚሓልየሎም	-15534
▁ዜምጽኣሎም	-15535
▁ዜተባብዕን	-15536
▁ዝመሓላለፍ	-15537
▁ዝገደፈልና	-15538
▁የዘኻኽረና	-15539
▁የጠንቅቐና	-15540
▁ይሓልየልና	-15541
▁ይንጸባረቕ	-15542
▁ጕልበቶምን	-15543
▁ጢሞቴዎስን	-15544
▁ጸላእትኹም	-15545
▁ፈርዲናንድ	-15546
▁ፕሮግራማት	-15547
▁ሃይማኖታውን	-15548
▁መጻምድትኻን	-15549
▁ምትእምማንን	-15550
▁ምትዕርራያት	-15551
▁ስክሪፕቸርስ	-15552
▁ቆስጣንጢኖስ	-15553
▁ብምንጽብራቕ	-15554
▁ብኢንተርነት	-15555
▁ብእተኻእለና	-15556
▁ንሃይማኖታዊ	-15557
▁ንእተፈላለየ	-15558
▁ንክርስቶስን	-15559
▁ንዓለምለኻዊ	-15560
▁ንየሩሳሌምን	-15561
▁ኣስተንትነሉ	-15562
▁ኣተሓሳስባኡ	-15563
▁ኣይነበረናን	-15564
▁ኣይከኣለትን	-15565
▁ኸተውጽኣኩም	-15566
▁ዜተሓሳስቦም	-15567
▁መንፈሳውነትን	-15568
▁መንፈሳውነቶም	-15569
▁ንስኻትኩምውን	-15570
▁ኣየተሓታትትን	-15571
▁ኣይተቐበልዎን	-15572
▁ኸዘንትወልኩም	-15573
▁ዋልደንሳውያን	-15574
▁Photograph	-15575
.5	-15576
42	-15577
80	-15578
99	-15579
ad	-15580
as	-15581
de	-15582
ok	-15583
ሀል	-15584
ሃቡ	-15585
ህቲ	-15586
ህጃ	-15587
ሉስ	-15588
ላበ	-15589
ልመ	-15590
ልታ	-15591
ልዱ	-15592
ሓታ	-15593
መቐ	-15594
መዩ	-15595
ማላ	-15596
ማታ	-15597
ረዱ	-15598
ሩስ	-15599
ራተ	-15600
ሬስ	-15601
ሬብ	-15602
ሬድ	-15603
ሰሩ	-15604
ሱና	-15605
ሸይ	-15606
ሸጣ	-15607
ሽዌ	-15608
ቃዶ	-15609
ቍል	-15610
ቓሕ	-15611
ቖት	-15612
በጥ	-15613
ባድ	-15614
ቪን	-15615
ተሙ	-15616
ቱብ	-15617
ቱዕ	-15618
ታር	-15619
ትቲ	-15620
ነኹ	-15621
ኑይ	-15622
ኡና	-15623
እቲ	-15624
እዛ	-15625
ከለ	-15626
ከየ	-15627
ኩስ	-15628
ካስ	-15629
ካኢ	-15630
ካያ	-15631
ክላ	-15632
ክዮ	-15633
ክፍ	-15634
ኵሩ	-15635
ወዳ	-15636
ዉን	-15637
ዋወ	-15638
ዋዋ	-15639
ዓዱ	-15640
ዘሩ	-15641
ዚቃ	-15642
ዚዙ	-15643
ዝዞ	-15644
ያዶ	-15645
ይላ	-15646
ይስ	-15647
ደባ	-15648
ዴል	-15649
ድድ	-15650
ገፊ	-15651
ግሎ	-15652
ግቡ	-15653
ጐተ	-15654
ጣሕ	-15655
ጣሩ	-15656
ጸይ	-15657
ጽጻ	-15658
ፈይ	-15659
ፍለ	-15660
ፍላ	-15661
ፍዋ	-15662
▁V	-15663
▁f	-15664
▁ቩ	-15665
▁ኾ	-15666
▁ዦ	-15667
▁ፉ	-15668
:03	-15669
:08	-15670
:17	-15671
ASA	-15672
com	-15673
ele	-15674
ice	-15675
log	-15676
man	-15677
ook	-15678
ork	-15679
ሀድም	-15680
ለመን	-15681
ልሙድ	-15682
ልቴና	-15683
ልከለ	-15684
ሓጥእ	-15685
ሕሉል	-15686
ሕዎም	-15687
መልኦ	-15688
መርሑ	-15689
መሮም	-15690
መንያ	-15691
መካን	-15692
ሙማን	-15693
ሚብያ	-15694
ማንያ	-15695
ምህሩ	-15696
ምለሰ	-15697
ምማድ	-15698
ምንዝ	-15699
ረኩም	-15700
ሪንን	-15701
ርሓሉ	-15702
ርባን	-15703
ርናል	-15704
ርጽር	-15705
ሮስን	-15706
ሮደር	-15707
ሰልኪ	-15708
ሰስቲ	-15709
ሰንፍ	-15710
ሲሶም	-15711
ስትሮ	-15712
ስናፍ	-15713
ስያን	-15714
ሽፍን	-15715
ቋርጹ	-15716
ቐርቦ	-15717
ቓልን	-15718
ቔናን	-15719
ቕደሉ	-15720
በላት	-15721
በርን	-15722
በሳጭ	-15723
በባዊ	-15724
በትሉ	-15725
በካን	-15726
በጽሓ	-15727
ቢሮም	-15728
ባብወ	-15729
ብሉን	-15730
ብላን	-15731
ብሪጅ	-15732
ብራና	-15733
ብቅዕ	-15734
ብዓተ	-15735
ተራን	-15736
ታሕሻ	-15737
ታተዉ	-15738
ትክኽ	-15739
ትያት	-15740
ትዮን	-15741
ናሕና	-15742
ኔጋል	-15743
ንስሕ	-15744
ንጭሕ	-15745
አኸኒ	-15746
ኡናት	-15747
ኣሽቱ	-15748
ኤተይ	-15749
እዋኑ	-15750
ካልን	-15751
ካይድ	-15752
ኬሽን	-15753
ኽኻብ	-15754
ዋኽብ	-15755
ውተር	-15756
ውድኦ	-15757
ውጽኦ	-15758
ዓልን	-15759
ዓበየ	-15760
ዕራቕ	-15761
ዕብዮ	-15762
ዕድጉ	-15763
ዕድጎ	-15764
ዘኻኸ	-15765
ዘዙን	-15766
ዛንን	-15767
የርን	-15768
የሽቲ	-15769
ይናን	-15770
ይድን	-15771
ደልካ	-15772
ደናጐ	-15773
ደኩም	-15774
ደገፍ	-15775
ዳልዎ	-15776
ዶተስ	-15777
ጅምሮ	-15778
ጅያን	-15779
ገረሉ	-15780
ገደሉ	-15781
ጋድዶ	-15782
ጎምን	-15783
ጐሰሉ	-15784
ጐሱን	-15785
ጕልሖ	-15786
ጥምት	-15787
ጨነቕ	-15788
ጸለት	-15789
ጽሕዎ	-15790
ፈላለ	-15791
ፈርድ	-15792
ፈርዶ	-15793
ፈጥር	-15794
ፋልን	-15795
ፋንን	-15796
ፋእቲ	-15797
ፍርሶ	-15798
ፍንን	-15799
ፍክዎ	-15800
▁89	-15801
▁92	-15802
▁94	-15803
▁Au	-15804
▁ሃሮ	-15805
▁ሊዝ	-15806
▁ላሜ	-15807
▁ሌዊ	-15808
▁ሓሰ	-15809
▁ሓዝ	-15810
▁ሕረ	-15811
▁ሕር	-15812
▁ሕሳ	-15813
▁ሕቘ	-15814
▁መሐ	-15815
▁ማለ	-15816
▁ማሳ	-15817
▁ማኪ	-15818
▁ማያ	-15819
▁ሜዲ	-15820
▁ሞራ	-15821
▁ሪዮ	-15822
▁ራይ	-15823
▁ሰሊ	-15824
▁ሰሎ	-15825
▁ሱሩ	-15826
▁ሴም	-15827
▁ስሩ	-15828
▁ስተ	-15829
▁ስዐ	-15830
▁ሺሎ	-15831
▁ሻቕ	-15832
▁ቀለ	-15833
▁ቀሺ	-15834
▁ቐዲ	-15835
▁ባጀ	-15836
▁ብበ	-15837
▁ብታ	-15838
▁ቪዛ	-15839
▁ቫለ	-15840
▁ተሻ	-15841
▁ታሽ	-15842
▁ቴማ	-15843
▁ትኪ	-15844
▁ቶን	-15845
▁ነሓ	-15846
▁ኑክ	-15847
▁ንሶ	-15848
▁ንቃ	-15849
▁ንዳ	-15850
▁ንፕ	-15851
▁ኢሊ	-15852
▁ከን	-15853
▁ኪዓ	-15854
▁ክላ	-15855
▁ክቐ	-15856
▁ኸሓ	-15857
▁ኸማ	-15858
▁ኺእ	-15859
▁ኺዓ	-15860
▁ኽስ	-15861
▁ዊሊ	-15862
▁ዓሶ	-15863
▁ዕብ	-15864
▁ዘነ	-15865
▁ዚና	-15866
▁ዜኽ	-15867
▁የዕ	-15868
▁ይል	-15869
▁ይሐ	-15870
▁ደሙ	-15871
▁ዲቪ	-15872
▁ገጻ	-15873
▁ጋሪ	-15874
▁ግዙ	-15875
▁ጎቦ	-15876
▁ጐዲ	-15877
▁ጠሪ	-15878
▁ጨቈ	-15879
▁ጨና	-15880
▁ጫካ	-15881
▁ጭቃ	-15882
▁ጭብ	-15883
▁ፊጂ	-15884
▁ፍተ	-15885
▁ፒራ	-15886
,400	-15887
1938	-15888
1949	-15889
1957	-15890
1974	-15891
1977	-15892
1978	-15893
1979	-15894
1985	-15895
1994	-15896
2011	-15897
olog	-15898
tish	-15899
ሃሃሉን	-15900
ለምድዎ	-15901
ሓስብን	-15902
መርሓካ	-15903
መስክር	-15904
ማዕበላ	-15905
ምህረኒ	-15906
ምህርና	-15907
ምለሱን	-15908
ምልከቶ	-15909
ምስክሩ	-15910
ረኽበን	-15911
ርድኣካ	-15912
ሰብክዎ	-15913
ሽዌሮስ	-15914
ቀኛታት	-15915
ቕደሎም	-15916
ብለሎም	-15917
ተንስአ	-15918
ተኵርን	-15919
ታማትን	-15920
ትታቱን	-15921
ኣኽለኒ	-15922
እከበሉ	-15923
ክሳዊት	-15924
ኸታታሊ	-15925
ኽብርን	-15926
ውከልን	-15927
ውከትን	-15928
ውዓሉን	-15929
ዘራርቦ	-15930
ዘዝዎም	-15931
ዚኣተን	-15932
ዛረበኒ	-15933
ደበታዊ	-15934
ዳርግቲ	-15935
ድግፎን	-15936
ገበሩን	-15937
ገድሶም	-15938
ግስግስ	-15939
ግበረላ	-15940
ጓንፎም	-15941
ጠቓለል	-15942
ጥቀሙን	-15943
ፈልየና	-15944
ፈርሆም	-15945
ፍትሓዊ	-15946
ፍጽመሉ	-15947
▁112	-15948
▁126	-15949
▁127	-15950
▁Jer	-15951
▁ሃበና	-15952
▁ሃቡሉ	-15953
▁ሃንጋ	-15954
▁ሃዲሙ	-15955
▁ህሉው	-15956
▁ህሞት	-15957
▁ላህጃ	-15958
▁ልድያ	-15959
▁ሓለወ	-15960
▁ሓውካ	-15961
▁ሓደጎ	-15962
▁ሓግዞ	-15963
▁ሕሩይ	-15964
▁ሕሰም	-15965
▁መልስ	-15966
▁መሰሉ	-15967
▁መሳጢ	-15968
▁መበገ	-15969
▁መባእ	-15970
▁መትከ	-15971
▁መዝጊ	-15972
▁መይል	-15973
▁መዲቡ	-15974
▁መጠነ	-15975
▁ማሕላ	-15976
▁ማንም	-15977
▁ማኖኣ	-15978
▁ማድሪ	-15979
▁ሜሮን	-15980
▁ምሓዙ	-15981
▁ምሕላ	-15982
▁ምረጽ	-15983
▁ምስም	-15984
▁ምብጻ	-15985
▁ምውፋ	-15986
▁ምጽላ	-15987
▁ምጽን	-15988
▁ረቂቕ	-15989
▁ረኸቦ	-15990
▁ረድዮ	-15991
▁ራህዋ	-15992
▁ርኤኹ	-15993
▁ሰለስ	-15994
▁ሰብሲ	-15995
▁ሰጐጕ	-15996
▁ስምን	-15997
▁ስንኩ	-15998
▁ስጋኡ	-15999
▁ሸቶና	-16000
▁ሸጥዎ	-16001
▁ቀረቡ	-16002
▁ቀቢላ	-16003
▁ቀተሎ	-16004
▁ቀዳመ	-16005
▁ቈመት	-16006
▁ቐብሪ	-16007
▁ቕንኢ	-16008
▁በለስ	-16009
▁በልና	-16010
▁በተን	-16011
▁በጽሒ	-16012
▁ባሮቱ	-16013
▁ባቤል	-16014
▁ባዕላ	-16015
▁ብሓቅ	-16016
▁ብሜላ	-16017
▁ብምብ	-16018
▁ብረት	-16019
▁ብርኽ	-16020
▁ብወግ	-16021
▁ብደም	-16022
▁ብደቡ	-16023
▁ብግዴ	-16024
▁ብጽን	-16025
▁ተሓጕ	-16026
▁ተመሰ	-16027
▁ተረፉ	-16028
▁ተሪፉ	-16029
▁ተርኢ	-16030
▁ተቓዊ	-16031
▁ተወዳ	-16032
▁ተዓዲ	-16033
▁ነክዩ	-16034
▁ነዝን	-16035
▁ነጊሱ	-16036
▁ኑማር	-16037
▁ኔርካ	-16038
▁ንሓይ	-16039
▁ንመገ	-16040
▁ንመጠ	-16041
▁ንሩት	-16042
▁ንኣመ	-16043
▁ንኣማ	-16044
▁ንኣስ	-16045
▁ንደቃ	-16046
▁ንጸጋ	-16047
▁ንጻዕ	-16048
▁ንጽሑ	-16049
▁ኢዘሀ	-16050
▁ኣለኺ	-16051
▁ኣሓዝ	-16052
▁ኣሚኑ	-16053
▁ኣማኸ	-16054
▁ኣርኪ	-16055
▁ኣቡን	-16056
▁ኣቢለ	-16057
▁ኣንቶ	-16058
▁ኣወጊ	-16059
▁ኣዕነ	-16060
▁ኣዘራ	-16061
▁ኤሊዛ	-16062
▁ኤልቃ	-16063
▁እነግ	-16064
▁እንጽ	-16065
▁ኦሪት	-16066
▁ከማና	-16067
▁ከምታ	-16068
▁ኪህል	-16069
▁ኪመጹ	-16070
▁ኪሰግ	-16071
▁ኪጽሊ	-16072
▁ኬሕዊ	-16073
▁ኬቝሙ	-16074
▁ኬካፍ	-16075
▁ኬወግ	-16076
▁ክህቡ	-16077
▁ክህቦ	-16078
▁ክምር	-16079
▁ክሞቱ	-16080
▁ክዓዪ	-16081
▁ኮንጎ	-16082
▁ኰዀብ	-16083
▁ኻይሮ	-16084
▁ኼፍቅ	-16085
▁ኽህብ	-16086
▁ኽመል	-16087
▁ኽንቅ	-16088
▁ወራሲ	-16089
▁ዋሕዲ	-16090
▁ውዲቱ	-16091
▁ዑዝያ	-16092
▁ዓማዊ	-16093
▁ዓራት	-16094
▁ዓርቢ	-16095
▁ዓቃል	-16096
▁ዓበዩ	-16097
▁ዕስራ	-16098
▁ዘይሃ	-16099
▁ዚሓል	-16100
▁ዚሓር	-16101
▁ዚኽሕ	-16102
▁ዚዀና	-16103
▁ዚጥዕ	-16104
▁ዚጻረ	-16105
▁ዜሸግ	-16106
▁ዝመል	-16107
▁ዝመሓ	-16108
▁ዝበላ	-16109
▁ዝኣከ	-16110
▁ዝዓበ	-16111
▁ዝደገ	-16112
▁ዝጽሊ	-16113
▁ዝፈረ	-16114
▁የቃል	-16115
▁የጋጥ	-16116
▁ይሓት	-16117
▁ይሳነ	-16118
▁ይኹኑ	-16119
▁ይጐድ	-16120
▁ይጽሊ	-16121
▁ዮኤል	-16122
▁ደሃይ	-16123
▁ዳግመ	-16124
▁ጀመሮ	-16125
▁ጀጋኑ	-16126
▁ገለጽ	-16127
▁ገሌና	-16128
▁ገደብ	-16129
▁ጊዜን	-16130
▁ጋብሪ	-16131
▁ግዳም	-16132
▁ጎመራ	-16133
▁ጨንፈ	-16134
▁ጸንሑ	-16135
▁ጽምዲ	-16136
▁ጽናዕ	-16137
▁ጽዒሩ	-16138
▁ጽድያ	-16139
▁ጽፍሒ	-16140
▁ፈሊጥ	-16141
▁ፈላጥ	-16142
▁ፈራዶ	-16143
▁ፈጠሮ	-16144
▁ፊንቄ	-16145
▁ፍረኸ	-16146
▁ፍትሑ	-16147
▁ፓናማ	-16148
▁ፖሊሲ	-16149
watch	-16150
መናውያን	-16151
ማስወሉን	-16152
ምርምረን	-16153
ራውያንን	-16154
ሰልጥነና	-16155
ስተማቕር	-16156
ስተውዓል	-16157
ስዕበልና	-16158
ሶራውያን	-16159
ቀደሎምን	-16160
በራትዓና	-16161
በርትዓና	-16162
ተሓታትት	-16163
ተርነትን	-16164
ተኛታትን	-16165
ትንክፈና	-16166
ንጸባረቐ	-16167
ንጸባርቓ	-16168
ክራስያዊ	-16169
ኸፍተልና	-16170
ኻኸሪታት	-16171
ዋኽብትን	-16172
ገልግልን	-16173
▁1947	-16174
▁1961	-16175
▁1970	-16176
▁1974	-16177
▁1975	-16178
▁1989	-16179
▁1991	-16180
▁Fran	-16181
▁From	-16182
▁NASA	-16183
▁York	-16184
▁ሉካሪስ	-16185
▁ሉዓላዊ	-16186
▁ልማኖን	-16187
▁ልቦምን	-16188
▁ልኡማት	-16189
▁ልዕሊኡ	-16190
▁ሓሓሊፉ	-16191
▁ሓወልቲ	-16192
▁ሓይሎም	-16193
▁ሓደጋን	-16194
▁ሓዲኦም	-16195
▁ሕልናይ	-16196
▁ሕሱማት	-16197
▁ሕጉስቲ	-16198
▁ሕጕሳት	-16199
▁መሬትን	-16200
▁መርመር	-16201
▁መርበብ	-16202
▁መርዓዊ	-16203
▁መሲልዎ	-16204
▁መስከረ	-16205
▁መናገፊ	-16206
▁መኽዘን	-16207
▁መኽፈቲ	-16208
▁መድሃኒ	-16209
▁መጽሓፉ	-16210
▁ምሃሮም	-16211
▁ምሉእን	-16212
▁ምሕጓስ	-16213
▁ምመለስ	-16214
▁ምቕጻል	-16215
▁ምንባራ	-16216
▁ምውዳስ	-16217
▁ምውፋይ	-16218
▁ምዝራቡ	-16219
▁ምጥሓስ	-16220
▁ምፍጣር	-16221
▁ረሲኣን	-16222
▁ረኺብዎ	-16223
▁ርክቦም	-16224
▁ሰማእት	-16225
▁ሰርብያ	-16226
▁ሰዓሮም	-16227
▁ሰይንት	-16228
▁ሰጊሮም	-16229
▁ሰፊሮም	-16230
▁ሲልቭያ	-16231
▁ሲቭላዊ	-16232
▁ሳምራዊ	-16233
▁ሳንድራ	-16234
▁ሳኦልን	-16235
▁ስምዒታ	-16236
▁ስርቅን	-16237
▁ስትራተ	-16238
▁ሸይጦም	-16239
▁ሾብዓተ	-16240
▁ቀረበሉ	-16241
▁ቅዱስከ	-16242
▁ቅድስቲ	-16243
▁ቅድድም	-16244
▁ቐሊልን	-16245
▁ቕንዕና	-16246
▁በጺሕና	-16247
▁ባህርዩ	-16248
▁ባይታን	-16249
▁ብሓያሎ	-16250
▁ብመጠኑ	-16251
▁ብምስጋ	-16252
▁ብምብራ	-16253
▁ብሩርን	-16254
▁ብቓሉን	-16255
▁ብዕዉት	-16256
▁ብደገፍ	-16257
▁ብግብሩ	-16258
▁ብጸላእ	-16259
▁ቦታኦም	-16260
▁ተላእከ	-16261
▁ተማህሩ	-16262
▁ተረዲአ	-16263
▁ተራእያ	-16264
▁ተሰማዕ	-16265
▁ተስፋኻ	-16266
▁ተቐመጡ	-16267
▁ተኣሚኑ	-16268
▁ተኸታተ	-16269
▁ተዓጻጻ	-16270
▁ተዛማዲ	-16271
▁ተደሚሩ	-16272
▁ተግባሩ	-16273
▁ተጸውዐ	-16274
▁ተጻራሪ	-16275
▁ተፈሊጡ	-16276
▁ተፈትሑ	-16277
▁ትርኢቱ	-16278
▁ትኸይድ	-16279
▁ነፍስን	-16280
▁ነፍቅሮ	-16281
▁ናጽነቱ	-16282
▁ንልበይ	-16283
▁ንሓቀኛ	-16284
▁ንሓይሊ	-16285
▁ንምሓዝ	-16286
▁ንምርካ	-16287
▁ንሰምዕ	-16288
▁ንሳተን	-16289
▁ንንባብ	-16290
▁ንኸመይ	-16291
▁ንኸተማ	-16292
▁ንዕዮና	-16293
▁ንድራኸ	-16294
▁ንጽዓር	-16295
▁ንፍዕቲ	-16296
▁አፍቅሮ	-16297
▁ኣለዉዶ	-16298
▁ኣሌክስ	-16299
▁ኣሓተይ	-16300
▁ኣሕለፈ	-16301
▁ኣሚንካ	-16302
▁ኣሚኖም	-16303
▁ኣርብዓ	-16304
▁ኣርእስ	-16305
▁ኣሰልጢ	-16306
▁ኣስዒባ	-16307
▁ኣብሊጹ	-16308
▁ኣትሪሩ	-16309
▁ኣንቢበ	-16310
▁ኣኻውሕ	-16311
▁ኣዝየን	-16312
▁ኣይትፍ	-16313
▁ኣይክን	-16314
▁ኣዶልፍ	-16315
▁ኣገዳስ	-16316
▁ኣጽኒዑ	-16317
▁ኣፍቀር	-16318
▁እመሃር	-16319
▁እሙናቱ	-16320
▁እምብኣ	-16321
▁እተሰነ	-16322
▁እተሸሙ	-16323
▁እተነድ	-16324
▁እተኸፍ	-16325
▁እትጽበ	-16326
▁እትፈት	-16327
▁እንብሎ	-16328
▁እንተዀ	-16329
▁ከነእቱ	-16330
▁ከኣለት	-16331
▁ኪመስል	-16332
▁ኪምሃሩ	-16333
▁ኪምራሕ	-16334
▁ኪርእያ	-16335
▁ኪርጊዝ	-16336
▁ኪሳቐዩ	-16337
▁ኪሳተፉ	-16338
▁ኪቕመጥ	-16339
▁ኪቕይሩ	-16340
▁ኪቕደስ	-16341
▁ኪቕጽዑ	-16342
▁ኪበላሾ	-16343
▁ኪነግሩ	-16344
▁ኪኣምኑ	-16345
▁ኪእከብ	-16346
▁ኪዀኖም	-16347
▁ኪወሃብ	-16348
▁ኪወስድ	-16349
▁ኪዋጋእ	-16350
▁ኪዋግኡ	-16351
▁ኪውለድ	-16352
▁ኪውስኑ	-16353
▁ኪዓይዩ	-16354
▁ኪጐዓዙ	-16355
▁ኪጥመቕ	-16356
▁ኪፈልጥ	-16357
▁ኬበላሹ	-16358
▁ኬተኵሩ	-16359
▁ኬጽንዑ	-16360
▁ክለዓል	-16361
▁ክመውት	-16362
▁ክምህር	-16363
▁ክሪስቲ	-16364
▁ክሰምዕ	-16365
▁ክቕበሎ	-16366
▁ክብደት	-16367
▁ክትብል	-16368
▁ክነሶም	-16369
▁ክኢልና	-16370
▁ክእከብ	-16371
▁ክወስድ	-16372
▁ክዳንን	-16373
▁ክጠፍእ	-16374
▁ክጥቀም	-16375
▁ክጽልዩ	-16376
▁ኸሓድቲ	-16377
▁ኸቋርጾ	-16378
▁ኺሕግዝ	-16379
▁ኺሰርሕ	-16380
▁ኺኣትዉ	-16381
▁ኺእከቡ	-16382
▁ኺገልጹ	-16383
▁ኼንብብ	-16384
▁ኽምለስ	-16385
▁ኽብርን	-16386
▁ኽትርአ	-16387
▁ኽፈልጦ	-16388
▁ዀይኑዶ	-16389
▁ወርሓት	-16390
▁ወርቅን	-16391
▁ወሲኖም	-16392
▁ወዲቖም	-16393
▁ውሩያት	-16394
▁ዓብዮም	-16395
▁ዕለታዊ	-16396
▁ዕላማና	-16397
▁ዕላምኡ	-16398
▁ዕዉራት	-16399
▁ዘለኹም	-16400
▁ዘሕልፎ	-16401
▁ዘሕደሩ	-16402
▁ዘምጽኣ	-16403
▁ዘእተወ	-16404
▁ዘውጽኣ	-16405
▁ዘዕበዮ	-16406
▁ዘይርኤ	-16407
▁ዘፍርህ	-16408
▁ዚሃንጽ	-16409
▁ዚመርሖ	-16410
▁ዚመጾም	-16411
▁ዚምሃሩ	-16412
▁ዚምርዖ	-16413
▁ዚምስጥ	-16414
▁ዚርድኦ	-16415
▁ዚብለኒ	-16416
▁ዚብሎም	-16417
▁ዚንበብ	-16418
▁ዚንገር	-16419
▁ዚእመን	-16420
▁ዚእዝዝ	-16421
▁ዚወስዱ	-16422
▁ዚውሃቦ	-16423
▁ዚዕወት	-16424
▁ዚግበሮ	-16425
▁ዚጽልዩ	-16426
▁ዚጽውዖ	-16427
▁ዚፈላለ	-16428
▁ዚፈቅድ	-16429
▁ዜሕልፍ	-16430
▁ዜሕድሮ	-16431
▁ዝሃበካ	-16432
▁ዝሓሸት	-16433
▁ዝሞቶም	-16434
▁ዝሰርሑ	-16435
▁ዝቘረጹ	-16436
▁ዝቝጸር	-16437
▁ዝበለሉ	-16438
▁ዝበዝሐ	-16439
▁ዝባረኾ	-16440
▁ዝኣመነ	-16441
▁ዝካየድ	-16442
▁ዝወሰነ	-16443
▁ዝወስዱ	-16444
▁ዝወስድ	-16445
▁ዝወጹሉ	-16446
▁ዝዓብዩ	-16447
▁ዝዓነወ	-16448
▁ዝደለኹ	-16449
▁ዝደኸሙ	-16450
▁ዝጀመሮ	-16451
▁ዝጥቀሙ	-16452
▁ዝጻረር	-16453
▁ዝፈልጡ	-16454
▁ዝፈርህ	-16455
▁የቕርብ	-16456
▁የንብቡ	-16457
▁የኽብሩ	-16458
▁የገድስ	-16459
▁የፍቅራ	-16460
▁ይህበሉ	-16461
▁ይህበኒ	-16462
▁ይለዓል	-16463
▁ይሰርሑ	-16464
▁ይቕበል	-16465
▁ይንክዮ	-16466
▁ይገብረ	-16467
▁ይግደሱ	-16468
▁ይጐዓዝ	-16469
▁ይጠቅም	-16470
▁ይፈትዎ	-16471
▁ደቅኹም	-16472
▁ዳርዮስ	-16473
▁ጀሚርና	-16474
▁ጃክሰን	-16475
▁ጆርናል	-16476
▁ጆሰፈስ	-16477
▁ገበረኒ	-16478
▁ገበንን	-16479
▁ገንዘቡ	-16480
▁ግትኣት	-16481
▁ግንባር	-16482
▁ግዒዞም	-16483
▁ግጭታት	-16484
▁ጐረቤት	-16485
▁ጕልበት	-16486
▁ጠቢቕና	-16487
▁ጥምቀቱ	-16488
▁ጥበቡን	-16489
▁ጥዑምን	-16490
▁ጸልይዎ	-16491
▁ጸሓፊት	-16492
▁ጻዕሮም	-16493
▁ፈተንኩ	-16494
▁ፈቲኖም	-16495
▁ፊላደል	-16496
▁ፋብሪካ	-16497
▁ፍርያም	-16498
▁ፍርዳዊ	-16499
▁ፍቕርኻ	-16500
▁ፍንጭሕ	-16501
▁ፍጥነት	-16502
▁ፓትሪሻ	-16503
ረጋግጸሎም	-16504
ርሕርሓሎም	-16505
ተሓሳስበና	-16506
ድያናውያን	-16507
▁ሄሮዶተስ	-16508
▁ህውከትን	-16509
▁ልክዕነት	-16510
▁ሓረስቶት	-16511
▁ሓሳብናን	-16512
▁ሓቀኛነት	-16513
▁ሓይልኻን	-16514
▁ሓዲጎምዎ	-16515
▁ሕልናኦም	-16516
▁ሕክምናን	-16517
▁መሳርሕቱ	-16518
▁መቕደሳን	-16519
▁መዛኑኦም	-16520
▁መዳርግቲ	-16521
▁መጥፋእቲ	-16522
▁ማርዶካይ	-16523
▁ማእከሎም	-16524
▁ሜላታትን	-16525
▁ምሁራትን	-16526
▁ምልምማድ	-16527
▁ምምህርና	-16528
▁ምምርማሩ	-16529
▁ምምስካር	-16530
▁ምምቓልን	-16531
▁ምቕባልን	-16532
▁ምቝራጽን	-16533
▁ምትንሳእ	-16534
▁ረኸብክዎ	-16535
▁ረዲኤተይ	-16536
▁ርክባትን	-16537
▁ሰሚዕኩም	-16538
▁ሳይኮሎጂ	-16539
▁ስሎቨንያ	-16540
▁ሸቶታትን	-16541
▁ቅኑዓትን	-16542
▁ቋንቋኦም	-16543
▁ቍልዕነት	-16544
▁ቍጽርታት	-16545
▁በብእዋኑ	-16546
▁ባሪኽዎም	-16547
▁ብመዝሙር	-16548
▁ብሚዛናዊ	-16549
▁ብምርኣዩ	-16550
▁ብምስራሕ	-16551
▁ብምስባኽ	-16552
▁ብምቕዳሕ	-16553
▁ብምንባር	-16554
▁ብምጥማቕ	-16555
▁ብስጋውን	-16556
▁ብቝጠባዊ	-16557
▁ብነፋሪት	-16558
▁ብድፍረት	-16559
▁ብጠቕላላ	-16560
▁ብፍቕራዊ	-16561
▁ብፍጥነት	-16562
▁ተመሓይሹ	-16563
▁ተራእዮም	-16564
▁ተሰማምዐ	-16565
▁ተሰጒጎም	-16566
▁ተስፋኦም	-16567
▁ተቐበለቶ	-16568
▁ተኣታተወ	-16569
▁ተዛረቦም	-16570
▁ተገዝእዎ	-16571
▁ተጓዒዞም	-16572
▁ተጠራጠር	-16573
▁ተፈርደኒ	-16574
▁ትምኒታት	-16575
▁ትጥቀመሉ	-16576
▁ነገረትኒ	-16577
▁ናይጀርያ	-16578
▁ንሄዋንን	-16579
▁ንመልእኽ	-16580
▁ንምቕያር	-16581
▁ንምእካብ	-16582
▁ንስብከት	-16583
▁ንስጕምቱ	-16584
▁ንቕኑዓት	-16585
▁ንባህርይ	-16586
▁ንባርነት	-16587
▁ንብረትና	-16588
▁ንብረቶም	-16589
▁ንተፈጥሮ	-16590
▁ንኣካላዊ	-16591
▁ንኤልሳእ	-16592
▁ንኸነርኢ	-16593
▁ንኽንደይ	-16594
▁ንኽንጽሊ	-16595
▁ንኽካፈል	-16596
▁ንዓመታኡ	-16597
▁ንዚግበር	-16598
▁ንጊዴዎን	-16599
▁ንጠንቀቕ	-16600
▁ንጣኦታት	-16601
▁ንጽህናኻ	-16602
▁ንፍጡራቱ	-16603
▁ኣሓትካን	-16604
▁ኣመሪካዊ	-16605
▁ኣምላኾም	-16606
▁ኣርኣዮም	-16607
▁ኣርእዩና	-16608
▁ኣቕረበሉ	-16609
▁ኣባይቶም	-16610
▁ኣብራምን	-16611
▁ኣተባብዖ	-16612
▁ኣትሒዝና	-16613
▁ኣነጻጽሮ	-16614
▁ኣንጸባሪ	-16615
▁ኣእምሮይ	-16616
▁ኣኻይዳኻ	-16617
▁ኣውሮጳን	-16618
▁ኣዒንተይ	-16619
▁ኣዕሩኽና	-16620
▁ኣዝማዶም	-16621
▁ኣይኰናን	-16622
▁ኣድለዮም	-16623
▁ኣድሓኖም	-16624
▁ኣድንቖት	-16625
▁ኣገልገሉ	-16626
▁ኣገልጊለ	-16627
▁ኣጸጋምን	-16628
▁ኣጽኒዕና	-16629
▁ኤለክትሪ	-16630
▁ኤጳፍራስ	-16631
▁እተሓትማ	-16632
▁እተመረቑ	-16633
▁እተመርጹ	-16634
▁እተሳተፉ	-16635
▁እተቐበሎ	-16636
▁እተቐብኡ	-16637
▁እተነስሐ	-16638
▁እተጀመረ	-16639
▁እተጕልሕ	-16640
▁እትመውት	-16641
▁እትኽእሉ	-16642
▁እትዀነና	-16643
▁እትወስድ	-16644
▁እትፈልጥ	-16645
▁እትፈልጦ	-16646
▁እናፈለጠ	-16647
▁እንግሊዛ	-16648
▁ኦክስጅን	-16649
▁ከማታቶም	-16650
▁ከምዚኦም	-16651
▁ከነሐጕሶ	-16652
▁ከነምልኾ	-16653
▁ከነፍቅር	-16654
▁ኪሓስቡሉ	-16655
▁ኪምስርቱ	-16656
▁ኪረኽቡን	-16657
▁ኪቐርብዎ	-16658
▁ኪኸብደና	-16659
▁ኪዋጽኡሉ	-16660
▁ኪዘራረቡ	-16661
▁ኪገብረካ	-16662
▁ኪጠቕመና	-16663
▁ኪጠቕመካ	-16664
▁ካልአይቲ	-16665
▁ኬመልክት	-16666
▁ኬምልኽዎ	-16667
▁ክህልወካ	-16668
▁ክሕግዙኻ	-16669
▁ክመስልዎ	-16670
▁ክቕበልዎ	-16671
▁ክትርዳእ	-16672
▁ክትርድኦ	-16673
▁ክትሰምዕ	-16674
▁ክትሰርሕ	-16675
▁ክትስዕብ	-16676
▁ክትገልጾ	-16677
▁ክንሕጐስ	-16678
▁ክንቅበል	-16679
▁ክንዛረብ	-16680
▁ክንጸንዕ	-16681
▁ክእለቱን	-16682
▁ክገብርዎ	-16683
▁ኮሎምብያ	-16684
▁ኵነታትካ	-16685
▁ኸነፍቅር	-16686
▁ኺመላለስ	-16687
▁ኺመርሓና	-16688
▁ኺምህሮም	-16689
▁ኺረኽብዎ	-16690
▁ኺገብርዎ	-16691
▁ኽህልወና	-16692
▁ኽትመርጽ	-16693
▁ኽትኣምን	-16694
▁ኽንቀርብ	-16695
▁ኽንኣምኖ	-16696
▁ኽንዕወት	-16697
▁ወለደይን	-16698
▁ወከፍኩም	-16699
▁ዕላማታቱ	-16700
▁ዘርእየና	-16701
▁ዘይረኽቡ	-16702
▁ዘይቅዱስ	-16703
▁ዘድልየኒ	-16704
▁ዘገልገሉ	-16705
▁ዘፍቀደሉ	-16706
▁ዚመሓደር	-16707
▁ዚረኣየሉ	-16708
▁ዚረኽበሉ	-16709
▁ዚትንስእ	-16710
▁ዚኸብዶም	-16711
▁ዚወሃቦም	-16712
▁ዚገብረካ	-16713
▁ዜሐጕሶም	-16714
▁ዜውዕልዎ	-16715
▁ዜፍርሆም	-16716
▁ዝሓለፈት	-16717
▁ዝረኸበት	-16718
▁ዝረኸብካ	-16719
▁ዝረኽበሉ	-16720
▁ዝርድእዎ	-16721
▁ዝቐረበሉ	-16722
▁ዝነበረኸ	-16723
▁ዝነበሩን	-16724
▁ዝነበርዋ	-16725
▁ዝከኣለኒ	-16726
▁ዝወሃቦም	-16727
▁ዝደለናዮ	-16728
▁ዝገለጸቶ	-16729
▁ዝገበርና	-16730
▁ዝገደፍዎ	-16731
▁ዝግብኣና	-16732
▁ዝግብኦም	-16733
▁የርእየና	-16734
▁የርእዮም	-16735
▁የበላሽዎ	-16736
▁የተባብዑ	-16737
▁የኽብርዎ	-16738
▁የፍቅሮም	-16739
▁ይህልወካ	-16740
▁ይሕግዘኒ	-16741
▁ይርድእዎ	-16742
▁ይነግሮም	-16743
▁ይነጽግዎ	-16744
▁ይእዘዝዎ	-16745
▁ይከኣልዶ	-16746
▁ይደልዮም	-16747
▁ይገብሮም	-16748
▁ደሞክራሲ	-16749
▁ደይመደይ	-16750
▁ድሕነትን	-16751
▁ድኻታትን	-16752
▁ጀርመንን	-16753
▁ጕልበትን	-16754
▁ጕዳያትን	-16755
▁ጥንቁቓት	-16756
▁ጨካናትን	-16757
▁ፈላምነት	-16758
▁ፈረንሳን	-16759
▁ፈርናንዶ	-16760
▁ህዝቅያስን	-16761
▁ሌዋውያንን	-16762
▁ልዑላውነቱ	-16763
▁መሃይምነት	-16764
▁መምህራንን	-16765
▁መሳርሕተይ	-16766
▁መሳርሕትኻ	-16767
▁መንግስቱን	-16768
▁ሚዛናውያን	-16769
▁ምትሕብባር	-16770
▁ምኽንያትን	-16771
▁ምፍላጥናስ	-16772
▁ሰብኣየይን	-16773
▁ስድራቤትን	-16774
▁ሸለልትነት	-16775
▁ባህልታትን	-16776
▁ብእምነትን	-16777
▁ብዘይግቡእ	-16778
▁ተቐበልናዮ	-16779
▁ተቐበልክዎ	-16780
▁ተባዕትዮን	-16781
▁ተኣማንነቱ	-16782
▁ተገንዚብና	-16783
▁ተጠቒሞምሉ	-16784
▁ተፈቕደልና	-16785
▁ትንሳኤታት	-16786
▁ትንቢታትን	-16787
▁ነገልገልቱ	-16788
▁ንሃዋርያት	-16789
▁ንሃይማኖት	-16790
▁ንህይወትን	-16791
▁ንመለኮታዊ	-16792
▁ንመልእኽቱ	-16793
▁ንመንፈሳው	-16794
▁ንመዓልታዊ	-16795
▁ንሚልዮናት	-16796
▁ንሰበይተይ	-16797
▁ንሰብኣየይ	-16798
▁ንስድራቤቱ	-16799
▁ንትእዛዛት	-16800
▁ንኣኻትኩም	-16801
▁ንኣገዛዝኣ	-16802
▁ንኺፈልጥዎ	-16803
▁ንኽትፈልጥ	-16804
▁ንኽንቀርቦ	-16805
▁ንወለድኹም	-16806
▁ንውሉዳትካ	-16807
▁ንዘለኣለመ	-16808
▁ንድሕንነት	-16809
▁ኢንዶነዥያ	-16810
▁ኣሓሽዌሮስ	-16811
▁ኣማልኽትን	-16812
▁ኣማዕቢልና	-16813
▁ኣምላኽውን	-16814
▁ኣምጺኡሎም	-16815
▁ኣስተንተነ	-16816
▁ኣስፋሕፍሐ	-16817
▁ኣይሕብርን	-16818
▁ኣይረስዖን	-16819
▁ኣይረክብን	-16820
▁ኣይረኽቡን	-16821
▁ኣይተርፍን	-16822
▁ኣይተፈቕደ	-16823
▁ኣይኣምኑን	-16824
▁ኣይኪብልን	-16825
▁ኣይፈልጦን	-16826
▁ኣይፈቐደን	-16827
▁ኣድላይነት	-16828
▁ኣገልጋሊት	-16829
▁ኣጠንቀቖም	-16830
▁እተመላለሱ	-16831
▁እተመሓየሸ	-16832
▁እተራእየሉ	-16833
▁እተነግረሉ	-16834
▁እተዋህበካ	-16835
▁እተዛረብዎ	-16836
▁እተገልግል	-16837
▁እትጥቀመሉ	-16838
▁እነገልግል	-16839
▁እናተኻየደ	-16840
▁ከነረጋግጽ	-16841
▁ከነገልግሎ	-16842
▁ክትዋጽኣሉ	-16843
▁ኸነመስግኖ	-16844
▁ኼምጽኣሎም	-16845
▁ኼንጸባርቑ	-16846
▁ኽትመላለስ	-16847
▁ኽትምርምር	-16848
▁ኽትቈጻጸሮ	-16849
▁ኽንሓስበሉ	-16850
▁ዘስካሕክሕ	-16851
▁ዘይምእዛዝ	-16852
▁ዘይተቋርጽ	-16853
▁ዘይትገብር	-16854
▁ዘይነበረኒ	-16855
▁ዘይንፈልጥ	-16856
▁ዘይእሙናት	-16857
▁ዘይእዙዛት	-16858
▁ዘገልገለት	-16859
▁ዘገልግልዎ	-16860
▁ዚተኣማመን	-16861
▁ዚግበረሎም	-16862
▁ዜምጽኣለይ	-16863
▁ዜፍቅርዎም	-16864
▁ዜፍቅርዎን	-16865
▁ይሕግዝዎም	-16866
▁ይምሕጸነና	-16867
▁ድያብሎስን	-16868
▁ገለልትነት	-16869
▁ገበነኛታት	-16870
▁ጐረባብትኻ	-16871
▁ፊልምታትን	-16872
▁British	-16873
▁መምርሒታትን	-16874
▁ብመስዋእታዊ	-16875
▁ብትዕግስትን	-16876
▁ብእተተሓሓዘ	-16877
▁ብእተኻእሎም	-16878
▁ተመባጺዑልና	-16879
▁ተመክሮታትን	-16880
▁ተማሕጺንዎም	-16881
▁ቲኦክራሲያዊ	-16882
▁ንስደተኛታት	-16883
▁ንዓሰርተታት	-16884
▁ንዘይፍጹማት	-16885
▁ኣለክሳንደር	-16886
▁ኣስተብሃልኩ	-16887
▁ኣከዳድናናን	-16888
▁ኣይትፈልጡን	-16889
▁ኣጸናኒዕዎም	-16890
▁እተኸልከለት	-16891
▁ክትዘራረበሉ	-16892
▁ዜተሓሳስበና	-16893
▁የተባብዕዎም	-16894
▁ሃይማኖተኛታት	-16895
▁መጠንቀቕታታት	-16896
▁ሪኢንካርነሽን	-16897
▁ብምስትንታንን	-16898
▁ብተኣማንነትን	-16899
▁እነስተንትነሉ	-16900
▁ፕሮተስታንትን	-16901
watchtower	-16902
▁ንመንፈሳውነትና	-16903
▁ንክርስትያናዊት	-16904
▁እስራኤላውያንን	-16905
.7	-16906
FP	-16907
RE	-16908
ab	-16909
ge	-16910
ሀን	-16911
ሂን	-16912
ህድ	-16913
ለሞ	-16914
ለኛ	-16915
ሊም	-16916
ልፋ	-16917
ሓቡ	-16918
ሓጠ	-16919
ሙት	-16920
ሚት	-16921
ማሚ	-16922
ማኑ	-16923
ምሃ	-16924
ምኖ	-16925
ምፐ	-16926
ረሞ	-16927
ረቦ	-16928
ሩም	-16929
ሪጹ	-16930
ሪፋ	-16931
ራዙ	-16932
ርሐ	-16933
ርሒ	-16934
ርተ	-16935
ሰሶ	-16936
ሰቦ	-16937
ሰካ	-16938
ሱሉ	-16939
ሴስ	-16940
ሾም	-16941
ሾት	-16942
ቃፊ	-16943
ቆን	-16944
ቈር	-16945
ቐም	-16946
ቐዪ	-16947
ቓቐ	-16948
ባሳ	-16949
ተኒ	-16950
ነነ	-16951
ኑስ	-16952
ኑና	-16953
ኒና	-16954
ኒካ	-16955
ናጸ	-16956
ኔር	-16957
ኔት	-16958
ንቶ	-16959
ኖክ	-16960
አኽ	-16961
አይ	-16962
ኡኒ	-16963
እስ	-16964
ከሮ	-16965
ካኒ	-16966
ኬት	-16967
ኸየ	-16968
ኹሉ	-16969
ኻሉ	-16970
ኻም	-16971
ኻፍ	-16972
ኽኻ	-16973
ወኽ	-16974
ወጆ	-16975
ዊሩ	-16976
ዋሉ	-16977
ዋሕ	-16978
ውኡ	-16979
ውፍ	-16980
ዐሪ	-16981
ዐይ	-16982
ዒን	-16983
ዓቱ	-16984
ዓቶ	-16985
ዓን	-16986
ዓዕ	-16987
ዙን	-16988
ዙዝ	-16989
ዝብ	-16990
ዩር	-16991
ያኖ	-16992
ይዝ	-16993
ይዩ	-16994
ይዱ	-16995
ደቐ	-16996
ደብ	-16997
ድሎ	-16998
ድሓ	-16999
ድክ	-17000
ድዋ	-17001
ዶኡ	-17002
ጃን	-17003
ጆም	-17004
ገይ	-17005
ጊሱ	-17006
ጋቢ	-17007
ግል	-17008
ግረ	-17009
ግድ	-17010
ጐሃ	-17011
ጓሚ	-17012
ጕስ	-17013
ጕጉ	-17014
ጥቕ	-17015
ጨዉ	-17016
ጸር	-17017
ጹሉ	-17018
ፈሊ	-17019
ፈረ	-17020
ፊሕ	-17021
ፊቦ	-17022
ፋቱ	-17023
ፋኑ	-17024
ፌስ	-17025
ፐን	-17026
▁n	-17027
▁w	-17028
▁ዃ	-17029
▁ጼ	-17030
150	-17031
204	-17032
537	-17033
563	-17034
707	-17035
:02	-17036
:05	-17037
:11	-17038
ard	-17039
erv	-17040
ess	-17041
que	-17042
ሀረኒ	-17043
ሃስስ	-17044
ለልዮ	-17045
ላላፊ	-17046
ልወጡ	-17047
ልዎን	-17048
ልዶቫ	-17049
ሓዳሪ	-17050
ሕልፋ	-17051
መሎም	-17052
መስቲ	-17053
መነት	-17054
መናዊ	-17055
መያይ	-17056
ማርን	-17057
ምለን	-17058
ምረን	-17059
ምራን	-17060
ምስጥ	-17061
ምያን	-17062
ረልና	-17063
ረብቲ	-17064
ረብና	-17065
ረኸቡ	-17066
ረድኦ	-17067
ራርቦ	-17068
ርእኻ	-17069
ርከባ	-17070
ርክዎ	-17071
ርዎን	-17072
ሰርሐ	-17073
ስሕት	-17074
ሽመጥ	-17075
ሽነት	-17076
ሽዊት	-17077
ሽፍኖ	-17078
ቐትን	-17079
ቕላላ	-17080
ቕረቦ	-17081
ቝጣዕ	-17082
በልዖ	-17083
በረሉ	-17084
በናን	-17085
በግስ	-17086
ቡልን	-17087
ባልና	-17088
ባሕሪ	-17089
ባርኸ	-17090
ብረተ	-17091
ብረካ	-17092
ብሮን	-17093
ብዝሕ	-17094
ብያን	-17095
ቦታኡ	-17096
ተርስ	-17097
ታሕዘ	-17098
ትርኽ	-17099
ትታን	-17100
ትንከ	-17101
ትክኦ	-17102
ነባብ	-17103
ነወት	-17104
ናግዒ	-17105
ንብባ	-17106
ንዛብ	-17107
አምኑ	-17108
ኣትዎ	-17109
ካላት	-17110
ካይዶ	-17111
ካፈላ	-17112
ኻኸቡ	-17113
ኽትም	-17114
ኾምን	-17115
ወልደ	-17116
ወርሒ	-17117
ወርሱ	-17118
ዋህቦ	-17119
ዋርሕ	-17120
ዋትን	-17121
ውልዲ	-17122
ውዓሉ	-17123
ዎትን	-17124
ዓለሉ	-17125
ዓካን	-17126
ዓዕላ	-17127
ዕምቖ	-17128
ዕብን	-17129
ዕንቅ	-17130
ዕዘብ	-17131
ዕገስ	-17132
ዘርጎ	-17133
ዚክስ	-17134
ዛትን	-17135
ዝምር	-17136
ዝገቡ	-17137
ዝገብ	-17138
የልን	-17139
የንን	-17140
ደምና	-17141
ደሪክ	-17142
ደናግ	-17143
ደንን	-17144
ዲድካ	-17145
ዳርን	-17146
ዳኽም	-17147
ዳዳእ	-17148
ድሕና	-17149
ድራይ	-17150
ድእዎ	-17151
ገሮም	-17152
ጋጠሞ	-17153
ግሊሽ	-17154
ግዘሩ	-17155
ጐሰት	-17156
ጠቕሶ	-17157
ጠዓስ	-17158
ጣጠን	-17159
ጥሕሱ	-17160
ጥሞስ	-17161
ጻእን	-17162
ጽልኢ	-17163
ጽዎም	-17164
ፈራር	-17165
ፈርት	-17166
ፋስን	-17167
ፋቐር	-17168
ፍርን	-17169
ፍነት	-17170
▁2-	-17171
▁82	-17172
▁88	-17173
▁99	-17174
▁AP	-17175
▁Ch	-17176
▁ሄቪ	-17177
▁ሆቴ	-17178
▁ለብ	-17179
▁ለት	-17180
▁ሊሳ	-17181
▁ሊን	-17182
▁ልግ	-17183
▁ሓሸ	-17184
▁ሕም	-17185
▁ሕጹ	-17186
▁መቃ	-17187
▁ምላ	-17188
▁ምዒ	-17189
▁ረቢ	-17190
▁ራሕ	-17191
▁ራዕ	-17192
▁ሮይ	-17193
▁ሱና	-17194
▁ሲዲ	-17195
▁ስሪ	-17196
▁ሸቃ	-17197
▁ቀን	-17198
▁ቍጥ	-17199
▁ቐስ	-17200
▁ባዮ	-17201
▁ብሂ	-17202
▁ብሽ	-17203
▁ብቫ	-17204
▁ተዐ	-17205
▁ታራ	-17206
▁ታን	-17207
▁ትብ	-17208
▁ትግ	-17209
▁ቶኒ	-17210
▁ኔሮ	-17211
▁ንሙ	-17212
▁ንረ	-17213
▁ንር	-17214
▁ንቶ	-17215
▁ንከ	-17216
▁ንኮ	-17217
▁ኢፒ	-17218
▁ኣቶ	-17219
▁ኣፕ	-17220
▁ኦገ	-17221
▁ከል	-17222
▁ካቲ	-17223
▁ካና	-17224
▁ካን	-17225
▁ኬሚ	-17226
▁ኬን	-17227
▁ክም	-17228
▁ክድ	-17229
▁ኺጸ	-17230
▁ወገ	-17231
▁ዌብ	-17232
▁ዎል	-17233
▁ዓለ	-17234
▁ዓጺ	-17235
▁ዘረ	-17236
▁ዘጠ	-17237
▁ዘጥ	-17238
▁ዜሐ	-17239
▁ዣን	-17240
▁ይቘ	-17241
▁ይኣ	-17242
▁ይጠ	-17243
▁ዮኣ	-17244
▁ደሓ	-17245
▁ጃን	-17246
▁ጅር	-17247
▁ጎግ	-17248
▁ጓሉ	-17249
▁ጓቲ	-17250
▁ጕያ	-17251
▁ጠሓ	-17252
▁ጥም	-17253
▁ጥረ	-17254
▁ጥራ	-17255
▁ጫው	-17256
▁ጸዲ	-17257
▁ፈሺ	-17258
▁ፋሽ	-17259
▁ፌራ	-17260
▁ፒል	-17261
▁ፓም	-17262
1922	-17263
1935	-17264
1948	-17265
1952	-17266
1964	-17267
1980	-17268
1992	-17269
1995	-17270
2007	-17271
2013	-17272
aris	-17273
etty	-17274
ters	-17275
thor	-17276
ለወጠን	-17277
ሓስቡን	-17278
ሓድረና	-17279
መሃረሉ	-17280
መልክታ	-17281
መርሖም	-17282
ረዳድኡ	-17283
ረድኦም	-17284
ራማትን	-17285
ራርቦም	-17286
ርእየን	-17287
ርድኡን	-17288
በርትዖ	-17289
በርክቱ	-17290
በብክዎ	-17291
ባርኸካ	-17292
ብርኤል	-17293
ብዎምን	-17294
ተሓሳሰ	-17295
ተኣሳሰ	-17296
ታትኩም	-17297
ንቀሳቕ	-17298
ንቅታት	-17299
ንጋፖር	-17300
ንፍሽፍ	-17301
ኣምኖም	-17302
ከላኸሎ	-17303
ወዳድራ	-17304
ዋጽእሉ	-17305
ዓግተና	-17306
ዘራረበ	-17307
ዘናጋዕ	-17308
ዘውትር	-17309
ዛረብዎ	-17310
ደገልና	-17311
ዳለወሉ	-17312
ዳድናን	-17313
ገልግላ	-17314
[...]
